{
  "token2id": {
    "<PAD>": 0,
    "<UNK>": 1,
    "<BOS>": 2,
    "<EOS>": 3,
    "<MASK>": 4,
    "<SEP>": 5,
    ",": 6,
    "the": 7,
    ".": 8,
    "of": 9,
    "and": 10,
    "to": 11,
    "a": 12,
    "in": 13,
    "is": 14,
    "that": 15,
    "I": 16,
    "was": 17,
    "it": 18,
    "s": 19,
    "as": 20,
    "he": 21,
    ";": 22,
    "on": 23,
    "with": 24,
    "de": 25,
    "-": 26,
    "\"": 27,
    "his": 28,
    "for": 29,
    "_": 30,
    "be": 31,
    "or": 32,
    "at": 33,
    "en": 34,
    "'": 35,
    "ing": 36,
    "you": 37,
    "not": 38,
    "by": 39,
    "an": 40,
    "had": 41,
    "The": 42,
    "ed": 43,
    "her": 44,
    "which": 45,
    "es": 46,
    "from": 47,
    "this": 48,
    "all": 49,
    "are": 50,
    "y": 51,
    "have": 52,
    "er": 53,
    "le": 54,
    "me": 55,
    "la": 56,
    "t": 57,
    "but": 58,
    "--": 59,
    "re": 60,
    "so": 61,
    "i": 62,
    "e": 63,
    "’": 64,
    "un": 65,
    "d": 66,
    "k": 67,
    ":": 68,
    "were": 69,
    "et": 70,
    "S": 71,
    "o": 72,
    "him": 73,
    "l": 74,
    "they": 75,
    "al": 76,
    "we": 77,
    "“": 78,
    "one": 79,
    "'s": 80,
    "A": 81,
    "no": 82,
    "n": 83,
    "she": 84,
    "se": 85,
    "my": 86,
    "p": 87,
    "ly": 88,
    "us": 89,
    "their": 90,
    "il": 91,
    "b": 92,
    "am": 93,
    "ch": 94,
    "C": 95,
    "u": 96,
    "m": 97,
    "do": 98,
    "te": 99,
    "man": 100,
    "g": 101,
    "(": 102,
    "ar": 103,
    "!": 104,
    "out": 105,
    "f": 106,
    "z": 107,
    "c": 108,
    "He": 109,
    "who": 110,
    "B": 111,
    "been": 112,
    "them": 113,
    "é": 114,
    "M": 115,
    "E": 116,
    "up": 117,
    "P": 118,
    "el": 119,
    "que": 120,
    "said": 121,
    "would": 122,
    "will": 123,
    "ne": 124,
    "if": 125,
    "T": 126,
    "h": 127,
    "its": 128,
    "?": 129,
    "there": 130,
    "D": 131,
    ".\"": 132,
    "ent": 133,
    "any": 134,
    "F": 135,
    "It": 136,
    "v": 137,
    "ge": 138,
    "when": 139,
    "L": 140,
    ",\"": 141,
    "G": 142,
    "has": 143,
    "more": 144,
    "est": 145,
    "ation": 146,
    "th": 147,
    "st": 148,
    "our": 149,
    "H": 150,
    "sa": 151,
    "1": 152,
    "ta": 153,
    "im": 154,
    "r": 155,
    "ers": 156,
    "can": 157,
    "into": 158,
    "ant": 159,
    "les": 160,
    "In": 161,
    "other": 162,
    "di": 163,
    "si": 164,
    "men": 165,
    "j": 166,
    "der": 167,
    "ic": 168,
    "qu": 169,
    "K": 170,
    "ra": 171,
    "Project": 172,
    "W": 173,
    "some": 174,
    "des": 175,
    "Gutenberg": 176,
    "work": 177,
    "con": 178,
    "ad": 179,
    "ver": 180,
    "R": 181,
    "very": 182,
    "w": 183,
    "over": 184,
    "than": 185,
    "per": 186,
    "And": 187,
    "li": 188,
    "ri": 189,
    "à": 190,
    "ja": 191,
    "But": 192,
    "what": 193,
    "N": 194,
    "time": 195,
    "could": 196,
    "O": 197,
    "may": 198,
    "about": 199,
    "lo": 200,
    "ve": 201,
    "um": 202,
    "your": 203,
    "ment": 204,
    "upon": 205,
    "den": 206,
    "ur": 207,
    "ut": 208,
    "only": 209,
    "ma": 210,
    "end": 211,
    "ate": 212,
    "go": 213,
    "dis": 214,
    "then": 215,
    "ce": 216,
    "au": 217,
    "like": 218,
    "ro": 219,
    "ter": 220,
    "now": 221,
    "ä": 222,
    ")": 223,
    "ke": 224,
    "che": 225,
    "ine": 226,
    "must": 227,
    "om": 228,
    "em": 229,
    "ist": 230,
    "two": 231,
    "little": 232,
    "made": 233,
    "'t": 234,
    "able": 235,
    "such": 236,
    "par": 237,
    "ia": 238,
    "where": 239,
    "vi": 240,
    "day": 241,
    "und": 242,
    "ion": 243,
    "ten": 244,
    "ir": 245,
    "son": 246,
    "these": 247,
    "ha": 248,
    "before": 249,
    "should": 250,
    "po": 251,
    "V": 252,
    "great": 253,
    "way": 254,
    "did": 255,
    "see": 256,
    "most": 257,
    "ity": 258,
    "id": 259,
    "die": 260,
    "ab": 261,
    "old": 262,
    "much": 263,
    "ie": 264,
    "after": 265,
    "ol": 266,
    "co": 267,
    "down": 268,
    "first": 269,
    "pe": 270,
    "ig": 271,
    "well": 272,
    "—": 273,
    "os": 274,
    "long": 275,
    "You": 276,
    "á": 277,
    "under": 278,
    "ag": 279,
    "good": 280,
    "res": 281,
    "Mr": 282,
    "su": 283,
    "3": 284,
    "ul": 285,
    "know": 286,
    "mo": 287,
    "own": 288,
    "du": 289,
    "ated": 290,
    "part": 291,
    "come": 292,
    "ck": 293,
    "She": 294,
    "red": 295,
    ".”": 296,
    "ac": 297,
    "5": 298,
    "ti": 299,
    "op": 300,
    "We": 301,
    "2": 302,
    "?\"": 303,
    "ou": 304,
    ",”": 305,
    "If": 306,
    "ex": 307,
    "J": 308,
    "being": 309,
    "ot": 310,
    "ty": 311,
    "pro": 312,
    "ci": 313,
    "without": 314,
    "This": 315,
    "never": 316,
    "those": 317,
    "back": 318,
    "qui": 319,
    "less": 320,
    "6": 321,
    "[": 322,
    "gen": 323,
    "through": 324,
    "let": 325,
    "off": 326,
    "how": 327,
    "even": 328,
    "hand": 329,
    "une": 330,
    "van": 331,
    "came": 332,
    "ions": 333,
    "8": 334,
    "many": 335,
    "life": 336,
    "ure": 337,
    "ap": 338,
    "ous": 339,
    "make": 340,
    "don": 341,
    "ations": 342,
    "va": 343,
    "use": 344,
    "They": 345,
    "7": 346,
    "ill": 347,
    "ces": 348,
    "found": 349,
    "There": 350,
    "ance": 351,
    "ies": 352,
    "himself": 353,
    "4": 354,
    "here": 355,
    "place": 356,
    "als": 357,
    "same": 358,
    "too": 359,
    "just": 360,
    "ts": 361,
    "shall": 362,
    "ere": 363,
    "na": 364,
    "art": 365,
    "9": 366,
    "ness": 367,
    "ak": 368,
    "ze": 369,
    "x": 370,
    "ens": 371,
    "say": 372,
    "sp": 373,
    "ö": 374,
    "ik": 375,
    "might": 376,
    "ard": 377,
    "je": 378,
    "ence": 379,
    "every": 380,
    "ins": 381,
    "last": 382,
    "mon": 383,
    "people": 384,
    "tu": 385,
    "ct": 386,
    "ans": 387,
    "right": 388,
    "works": 389,
    "also": 390,
    "again": 391,
    "while": 392,
    "land": 393,
    "set": 394,
    "pre": 395,
    "elle": 396,
    "ry": 397,
    "ful": 398,
    "ish": 399,
    "ings": 400,
    "away": 401,
    "tra": 402,
    "!\"": 403,
    "ni": 404,
    "av": 405,
    "vo": 406,
    "U": 407,
    "mer": 408,
    "age": 409,
    "An": 410,
    "war": 411,
    "sh": 412,
    "ite": 413,
    "get": 414,
    "thought": 415,
    "still": 416,
    "ho": 417,
    "think": 418,
    "ors": 419,
    "ast": 420,
    "ven": 421,
    "night": 422,
    "pu": 423,
    "led": 424,
    "went": 425,
    "pi": 426,
    "take": 427,
    "No": 428,
    "To": 429,
    "St": 430,
    "ung": 431,
    "head": 432,
    "com": 433,
    "min": 434,
    "ber": 435,
    "fe": 436,
    "sc": 437,
    "met": 438,
    "ons": 439,
    "form": 440,
    "int": 441,
    "Le": 442,
    "years": 443,
    "mar": 444,
    "ser": 445,
    "far": 446,
    "ó": 447,
    "house": 448,
    "pas": 449,
    "ess": 450,
    "bo": 451,
    "sur": 452,
    "ever": 453,
    "De": 454,
    "Y": 455,
    "ue": 456,
    "three": 457,
    "tr": 458,
    "ka": 459,
    "ary": 460,
    "put": 461,
    "ait": 462,
    "As": 463,
    "ks": 464,
    "ass": 465,
    "God": 466,
    "ical": 467,
    "Al": 468,
    "eyes": 469,
    "oli": 470,
    "though": 471,
    "side": 472,
    "give": 473,
    "against": 474,
    "For": 475,
    "ire": 476,
    "new": 477,
    "world": 478,
    "lu": 479,
    "ang": 480,
    "car": 481,
    "rest": 482,
    "pour": 483,
    "thing": 484,
    "tä": 485,
    "),": 486,
    "val": 487,
    "light": 488,
    "da": 489,
    "What": 490,
    "ted": 491,
    "pl": 492,
    "another": 493,
    "pa": 494,
    "és": 495,
    "jo": 496,
    "ble": 497,
    "each": 498,
    "sch": 499,
    "ru": 500,
    "del": 501,
    "left": 502,
    "”": 503,
    "young": 504,
    "ise": 505,
    "face": 506,
    "yet": 507,
    "full": 508,
    "ale": 509,
    "country": 510,
    "od": 511,
    "once": 512,
    "ph": 513,
    "io": 514,
    "hän": 515,
    "That": 516,
    "br": 517,
    "When": 518,
    "dans": 519,
    "=": 520,
    "few": 521,
    "pr": 522,
    "At": 523,
    "bed": 524,
    "water": 525,
    "seen": 526,
    "ay": 527,
    "sent": 528,
    "mi": 529,
    "between": 530,
    ".,": 531,
    "things": 532,
    "ian": 533,
    "...": 534,
    "called": 535,
    "electronic": 536,
    "His": 537,
    "het": 538,
    "took": 539,
    "Then": 540,
    "vol": 541,
    "az": 542,
    "mind": 543,
    "ive": 544,
    "nothing": 545,
    "On": 546,
    "used": 547,
    "è": 548,
    "ating": 549,
    "days": 550,
    "bl": 551,
    "room": 552,
    "saw": 553,
    "Re": 554,
    "ments": 555,
    "mis": 556,
    "king": 557,
    "ich": 558,
    "ally": 559,
    "ud": 560,
    "ü": 561,
    "find": 562,
    "zu": 563,
    "att": 564,
    "heart": 565,
    "inter": 566,
    "ves": 567,
    "bar": 568,
    "än": 569,
    "ton": 570,
    "course": 571,
    "ction": 572,
    "So": 573,
    "gi": 574,
    "ken": 575,
    "dé": 576,
    "always": 577,
    "mit": 578,
    "non": 579,
    "Foundation": 580,
    "because": 581,
    "aan": 582,
    "half": 583,
    "both": 584,
    "got": 585,
    "ell": 586,
    "name": 587,
    "ran": 588,
    "small": 589,
    "States": 590,
    "Ch": 591,
    "ée": 592,
    "father": 593,
    "ann": 594,
    "ys": 595,
    "]": 596,
    "ff": 597,
    "terms": 598,
    "law": 599,
    "col": 600,
    "whole": 601,
    "door": 602,
    "gu": 603,
    "moment": 604,
    "present": 605,
    "tell": 606,
    "love": 607,
    "18": 608,
    "ps": 609,
    "Ar": 610,
    "los": 611,
    "»": 612,
    "ob": 613,
    "Mrs": 614,
    "ko": 615,
    "cr": 616,
    "ll": 617,
    "having": 618,
    "Mar": 619,
    "af": 620,
    "going": 621,
    "ling": 622,
    "whom": 623,
    "í": 624,
    "mu": 625,
    "ily": 626,
    "ben": 627,
    "ren": 628,
    "look": 629,
    "taken": 630,
    "looked": 631,
    "home": 632,
    "ile": 633,
    "fer": 634,
    "almost": 635,
    "‘": 636,
    "ach": 637,
    "ku": 638,
    "mother": 639,
    "United": 640,
    "sen": 641,
    "certain": 642,
    "told": 643,
    "ner": 644,
    "ille": 645,
    "ais": 646,
    "ok": 647,
    "ved": 648,
    "α": 649,
    "gr": 650,
    "een": 651,
    "done": 652,
    ".--": 653,
    "iv": 654,
    "dem": 655,
    "seemed": 656,
    "ste": 657,
    "ates": 658,
    "«": 659,
    "ged": 660,
    "given": 661,
    "plus": 662,
    "ier": 663,
    "low": 664,
    "fa": 665,
    "Z": 666,
    "ki": 667,
    "por": 668,
    "heard": 669,
    "Se": 670,
    "person": 671,
    "best": 672,
    "lie": 673,
    "woman": 674,
    "however": 675,
    "vers": 676,
    "ein": 677,
    "En": 678,
    "sie": 679,
    "kin": 680,
    "ils": 681,
    "cu": 682,
    "order": 683,
    "Be": 684,
    "among": 685,
    "asked": 686,
    "ré": 687,
    "hu": 688,
    "large": 689,
    "nor": 690,
    "better": 691,
    "point": 692,
    "ink": 693,
    "soon": 694,
    "mal": 695,
    "cannot": 696,
    "16": 697,
    "ust": 698,
    "15": 699,
    "four": 700,
    "ny": 701,
    "knew": 702,
    "copyright": 703,
    "ah": 704,
    "until": 705,
    "ely": 706,
    "arm": 707,
    "read": 708,
    "vous": 709,
    "ges": 710,
    "ca": 711,
    "ain": 712,
    "state": 713,
    "ind": 714,
    "ε": 715,
    "enough": 716,
    "ches": 717,
    "ien": 718,
    "19": 719,
    "0": 720,
    "something": 721,
    "ger": 722,
    "does": 723,
    "ai": 724,
    "wi": 725,
    "words": 726,
    "?”": 727,
    "act": 728,
    "mes": 729,
    "Her": 730,
    ",--": 731,
    "air": 732,
    "hands": 733,
    "med": 734,
    "quite": 735,
    "want": 736,
    "fact": 737,
    "power": 738,
    "word": 739,
    "sin": 740,
    "fl": 741,
    "itt": 742,
    "bre": 743,
    "ret": 744,
    "others": 745,
    "kind": 746,
    "gra": 747,
    "gave": 748,
    "'ll": 749,
    "σ": 750,
    "Th": 751,
    "vel": 752,
    "agreement": 753,
    "ker": 754,
    "ses": 755,
    "bes": 756,
    "public": 757,
    "urs": 758,
    "lay": 759,
    "ää": 760,
    "Lord": 761,
    "year": 762,
    "sel": 763,
    "Con": 764,
    "brought": 765,
    "pass": 766,
    "har": 767,
    "La": 768,
    "von": 769,
    "white": 770,
    "within": 771,
    "ship": 772,
    "das": 773,
    "Oh": 774,
    "leg": 775,
    "ow": 776,
    "John": 777,
    "pt": 778,
    ").": 779,
    "death": 780,
    "often": 781,
    "whose": 782,
    "ina": 783,
    "ort": 784,
    "og": 785,
    "ei": 786,
    "17": 787,
    "ting": 788,
    "ään": 789,
    "number": 790,
    "forth": 791,
    "high": 792,
    "body": 793,
    "case": 794,
    "iss": 795,
    "till": 796,
    "bu": 797,
    "My": 798,
    "sk": 799,
    "means": 800,
    "All": 801,
    "round": 802,
    "hy": 803,
    "sure": 804,
    "lui": 805,
    "ving": 806,
    "Qu": 807,
    "ν": 808,
    "themselves": 809,
    "inc": 810,
    "Il": 811,
    "cor": 812,
    "ba": 813,
    "Ma": 814,
    "pen": 815,
    "fully": 816,
    "fin": 817,
    "Do": 818,
    "Com": 819,
    "second": 820,
    "turned": 821,
    "feet": 822,
    "keep": 823,
    "ple": 824,
    "New": 825,
    "pp": 826,
    "known": 827,
    "ère": 828,
    "gar": 829,
    "gl": 830,
    "ward": 831,
    "cy": 832,
    "near": 833,
    "ep": 834,
    "ice": 835,
    "pla": 836,
    "sun": 837,
    "alle": 838,
    "money": 839,
    "sal": 840,
    "10": 841,
    "By": 842,
    "cer": 843,
    "ial": 844,
    "morning": 845,
    "ient": 846,
    "cur": 847,
    "open": 848,
    "since": 849,
    "real": 850,
    "cher": 851,
    "ition": 852,
    "ents": 853,
    "rather": 854,
    "ages": 855,
    "ord": 856,
    "cht": 857,
    ".]": 858,
    "fo": 859,
    "fire": 860,
    "nature": 861,
    "ctions": 862,
    "ants": 863,
    "matter": 864,
    "kun": 865,
    "tri": 866,
    "next": 867,
    "™": 868,
    "pal": 869,
    "org": 870,
    "ined": 871,
    "ets": 872,
    "felt": 873,
    "aux": 874,
    "inen": 875,
    "comp": 876,
    "English": 877,
    "fi": 878,
    "cted": 879,
    "kä": 880,
    "together": 881,
    "began": 882,
    "With": 883,
    "received": 884,
    "sy": 885,
    "alla": 886,
    "ced": 887,
    "ley": 888,
    "Miss": 889,
    "auf": 890,
    "sto": 891,
    "sub": 892,
    "above": 893,
    "ris": 894,
    "ath": 895,
    "free": 896,
    "poor": 897,
    "ron": 898,
    "cent": 899,
    "12": 900,
    "ism": 901,
    "gy": 902,
    "help": 903,
    "hold": 904,
    "care": 905,
    "line": 906,
    "cut": 907,
    "una": 908,
    "thus": 909,
    "ρ": 910,
    "hear": 911,
    "ss": 912,
    "ched": 913,
    "held": 914,
    "bra": 915,
    "â": 916,
    "along": 917,
    "Now": 918,
    "ars": 919,
    "child": 920,
    "mat": 921,
    "nu": 922,
    "Sch": 923,
    "ities": 924,
    "How": 925,
    "ped": 926,
    "either": 927,
    "/": 928,
    "true": 929,
    "sz": 930,
    "ear": 931,
    "ont": 932,
    "æ": 933,
    "following": 934,
    "general": 935,
    "ground": 936,
    "Well": 937,
    "anything": 938,
    "laws": 939,
    "hi": 940,
    "ole": 941,
    "says": 942,
    "gh": 943,
    "las": 944,
    "ane": 945,
    "ici": 946,
    "stood": 947,
    "children": 948,
    "ato": 949,
    "'d": 950,
    "question": 951,
    "ters": 952,
    "short": 953,
    "different": 954,
    "ently": 955,
    "ene": 956,
    "voice": 957,
    "passed": 958,
    "grand": 959,
    "τ": 960,
    "ux": 961,
    "girl": 962,
    "cl": 963,
    "city": 964,
    "King": 965,
    "boy": 966,
    "during": 967,
    "friend": 968,
    "vä": 969,
    "five": 970,
    "ado": 971,
    "ft": 972,
    "hard": 973,
    "several": 974,
    "lic": 975,
    "thy": 976,
    "π": 977,
    "era": 978,
    "tre": 979,
    "amp": 980,
    "sat": 981,
    "sich": 982,
    "aus": 983,
    "ς": 984,
    "ref": 985,
    "Sir": 986,
    "One": 987,
    "wh": 988,
    "vent": 989,
    "Of": 990,
    "six": 991,
    "hundred": 992,
    "pain": 993,
    "!”": 994,
    "était": 995,
    "ative": 996,
    "wife": 997,
    "common": 998,
    "var": 999,
    "ér": 1000,
    "ye": 1001,
    "tal": 1002,
    "sum": 1003,
    "times": 1004,
    "Pro": 1005,
    "ista": 1006,
    "already": 1007,
    "että": 1008,
    "ures": 1009,
    "ster": 1010,
    "tt": 1011,
    "ery": 1012,
    "cks": 1013,
    "speak": 1014,
    "table": 1015,
    "alone": 1016,
    "ß": 1017,
    "ita": 1018,
    "myself": 1019,
    "ante": 1020,
    "14": 1021,
    "position": 1022,
    "za": 1023,
    "hope": 1024,
    "gli": 1025,
    "ug": 1026,
    "ats": 1027,
    "ime": 1028,
    "ő": 1029,
    "hen": 1030,
    "return": 1031,
    "run": 1032,
    "believe": 1033,
    "main": 1034,
    "strong": 1035,
    "chen": 1036,
    "ended": 1037,
    "reason": 1038,
    "sol": 1039,
    "perhaps": 1040,
    "pit": 1041,
    "copy": 1042,
    "black": 1043,
    "mag": 1044,
    "town": 1045,
    "vis": 1046,
    "call": 1047,
    "sea": 1048,
    "need": 1049,
    "nä": 1050,
    "view": 1051,
    "Archive": 1052,
    "avec": 1053,
    "ring": 1054,
    "gro": 1055,
    "least": 1056,
    "Literary": 1057,
    "port": 1058,
    "nous": 1059,
    "French": 1060,
    "itself": 1061,
    "hal": 1062,
    "ide": 1063,
    "ured": 1064,
    "ά": 1065,
    "letter": 1066,
    "ines": 1067,
    "England": 1068,
    "iz": 1069,
    "dit": 1070,
    "subject": 1071,
    "ler": 1072,
    "stand": 1073,
    "force": 1074,
    "herself": 1075,
    "gone": 1076,
    "pos": 1077,
    "trademark": 1078,
    "rom": 1079,
    "Yes": 1080,
    "pet": 1081,
    "Un": 1082,
    "app": 1083,
    "ious": 1084,
    "Or": 1085,
    "dear": 1086,
    "20": 1087,
    "els": 1088,
    "women": 1089,
    "sort": 1090,
    "wel": 1091,
    "nicht": 1092,
    "λ": 1093,
    "charge": 1094,
    "hat": 1095,
    "ban": 1096,
    "cre": 1097,
    "13": 1098,
    "ened": 1099,
    "looking": 1100,
    "possible": 1101,
    "&": 1102,
    "earth": 1103,
    "ij": 1104,
    "rel": 1105,
    "human": 1106,
    "ky": 1107,
    "respect": 1108,
    "bon": 1109,
    "dead": 1110,
    "mean": 1111,
    "fore": 1112,
    ".'": 1113,
    "nen": 1114,
    "access": 1115,
    "ning": 1116,
    "ual": 1117,
    "ond": 1118,
    "therefore": 1119,
    "became": 1120,
    "wo": 1121,
    "Je": 1122,
    "ju": 1123,
    "μ": 1124,
    "turn": 1125,
    "ds": 1126,
    "mir": 1127,
    "indeed": 1128,
    "aut": 1129,
    "wer": 1130,
    "book": 1131,
    "ER": 1132,
    "character": 1133,
    "bien": 1134,
    "ade": 1135,
    "Col": 1136,
    "ksi": 1137,
    "ull": 1138,
    "avait": 1139,
    "ano": 1140,
    "Is": 1141,
    "sil": 1142,
    "donations": 1143,
    "ê": 1144,
    "making": 1145,
    "road": 1146,
    "reg": 1147,
    "Me": 1148,
    "unt": 1149,
    "hour": 1150,
    "become": 1151,
    "vin": 1152,
    "κ": 1153,
    "bel": 1154,
    "sha": 1155,
    "ick": 1156,
    "early": 1157,
    "ham": 1158,
    "business": 1159,
    "past": 1160,
    "chief": 1161,
    "ave": 1162,
    "cause": 1163,
    "ç": 1164,
    "arms": 1165,
    "General": 1166,
    "paid": 1167,
    "Why": 1168,
    "sive": 1169,
    "sem": 1170,
    "foot": 1171,
    "len": 1172,
    "stra": 1173,
    "mais": 1174,
    "wish": 1175,
    "ought": 1176,
    "leave": 1177,
    "Car": 1178,
    "dat": 1179,
    "ther": 1180,
    "around": 1181,
    "Ro": 1182,
    "ously": 1183,
    "post": 1184,
    "ip": 1185,
    "thou": 1186,
    "whether": 1187,
    "lich": 1188,
    "wind": 1189,
    "Per": 1190,
    "change": 1191,
    "ered": 1192,
    "manner": 1193,
    "visit": 1194,
    "ore": 1195,
    "Par": 1196,
    "friends": 1197,
    "After": 1198,
    "fear": 1199,
    "ata": 1200,
    "bs": 1201,
    "ih": 1202,
    "later": 1203,
    "tem": 1204,
    "Er": 1205,
    "coming": 1206,
    "cing": 1207,
    "iled": 1208,
    "tout": 1209,
    "dra": 1210,
    "vor": 1211,
    "family": 1212,
    "behind": 1213,
    "X": 1214,
    "pri": 1215,
    "ät": 1216,
    "cal": 1217,
    "show": 1218,
    "feel": 1219,
    "close": 1220,
    "Not": 1221,
    "lost": 1222,
    "why": 1223,
    "ele": 1224,
    "doubt": 1225,
    "hel": 1226,
    "cried": 1227,
    "lim": 1228,
    "'m": 1229,
    "These": 1230,
    "conf": 1231,
    "ada": 1232,
    "Bar": 1233,
    "fell": 1234,
    "ett": 1235,
    "using": 1236,
    "ash": 1237,
    "sight": 1238,
    ".)": 1239,
    "Ne": 1240,
    "regard": 1241,
    "ished": 1242,
    "000": 1243,
    "kept": 1244,
    ",'": 1245,
    "pres": 1246,
    "fine": 1247,
    "effect": 1248,
    "tro": 1249,
    "mel": 1250,
    "sho": 1251,
    "necessary": 1252,
    "00": 1253,
    "self": 1254,
    "comme": 1255,
    "η": 1256,
    "replied": 1257,
    "assa": 1258,
    "cont": 1259,
    "ingly": 1260,
    "Ver": 1261,
    "dark": 1262,
    "beautiful": 1263,
    "ο": 1264,
    "án": 1265,
    "ited": 1266,
    "Lu": 1267,
    "ask": 1268,
    "AR": 1269,
    "enn": 1270,
    "Mon": 1271,
    "Some": 1272,
    "Bo": 1273,
    "See": 1274,
    "aw": 1275,
    "written": 1276,
    "sign": 1277,
    "eBook": 1278,
    "kes": 1279,
    "Don": 1280,
    "Co": 1281,
    "gel": 1282,
    "tern": 1283,
    "twenty": 1284,
    "ony": 1285,
    "orn": 1286,
    "wood": 1287,
    "tain": 1288,
    "hr": 1289,
    "ette": 1290,
    "rit": 1291,
    "ana": 1292,
    "horse": 1293,
    "really": 1294,
    "illa": 1295,
    "paragraph": 1296,
    "party": 1297,
    "bit": 1298,
    "bad": 1299,
    "ando": 1300,
    "bal": 1301,
    "seems": 1302,
    "lady": 1303,
    "clo": 1304,
    "truth": 1305,
    "ared": 1306,
    "ult": 1307,
    "except": 1308,
    "cost": 1309,
    "answered": 1310,
    "ld": 1311,
    "esta": 1312,
    "else": 1313,
    "natural": 1314,
    "mas": 1315,
    "ably": 1316,
    "tes": 1317,
    "ago": 1318,
    "mä": 1319,
    "towards": 1320,
    "rid": 1321,
    "story": 1322,
    "fee": 1323,
    "deep": 1324,
    "object": 1325,
    "ics": 1326,
    "pay": 1327,
    "Let": 1328,
    "acc": 1329,
    "live": 1330,
    "sound": 1331,
    "lies": 1332,
    "won": 1333,
    "mission": 1334,
    "oh": 1335,
    "died": 1336,
    "ek": 1337,
    "ied": 1338,
    "bound": 1339,
    "ists": 1340,
    "including": 1341,
    "fu": 1342,
    "ded": 1343,
    "From": 1344,
    "enter": 1345,
    "El": 1346,
    "river": 1347,
    "Nor": 1348,
    "ank": 1349,
    "master": 1350,
    "seem": 1351,
    "έ": 1352,
    "bring": 1353,
    "ances": 1354,
    "'ve": 1355,
    "Dr": 1356,
    "nearly": 1357,
    "France": 1358,
    "clear": 1359,
    "ned": 1360,
    "sir": 1361,
    "isi": 1362,
    "further": 1363,
    "ú": 1364,
    "cette": 1365,
    "ute": 1366,
    "fort": 1367,
    "thousand": 1368,
    "rich": 1369,
    "ready": 1370,
    "ident": 1371,
    "followed": 1372,
    "exp": 1373,
    "tax": 1374,
    "parts": 1375,
    "mor": 1376,
    "understand": 1377,
    "late": 1378,
    "cou": 1379,
    "han": 1380,
    "wa": 1381,
    "sou": 1382,
    "trans": 1383,
    "www": 1384,
    "lin": 1385,
    "gutenberg": 1386,
    "cour": 1387,
    "account": 1388,
    "play": 1389,
    "ory": 1390,
    "ised": 1391,
    "big": 1392,
    "bus": 1393,
    "pur": 1394,
    "Man": 1395,
    "char": 1396,
    "cked": 1397,
    "cap": 1398,
    "Po": 1399,
    "ί": 1400,
    "ò": 1401,
    "ms": 1402,
    "period": 1403,
    "brother": 1404,
    "kuin": 1405,
    "carried": 1406,
    "cra": 1407,
    "lot": 1408,
    "idea": 1409,
    "zen": 1410,
    "ging": 1411,
    "soul": 1412,
    "meet": 1413,
    "miles": 1414,
    "lä": 1415,
    "blood": 1416,
    "hänen": 1417,
    "nyt": 1418,
    "top": 1419,
    "Ge": 1420,
    "taking": 1421,
    "purpose": 1422,
    "returned": 1423,
    "mot": 1424,
    "IN": 1425,
    "ét": 1426,
    "London": 1427,
    "pol": 1428,
    "Here": 1429,
    "row": 1430,
    "across": 1431,
    "niin": 1432,
    "agree": 1433,
    "EN": 1434,
    "gn": 1435,
    "sometimes": 1436,
    "answer": 1437,
    "ino": 1438,
    "spirit": 1439,
    "ong": 1440,
    "placed": 1441,
    "May": 1442,
    "ía": 1443,
    "bi": 1444,
    "Ex": 1445,
    "command": 1446,
    "interest": 1447,
    "pped": 1448,
    "pat": 1449,
    "mus": 1450,
    "bly": 1451,
    "isen": 1452,
    "field": 1453,
    "blo": 1454,
    "30": 1455,
    "sense": 1456,
    "fall": 1457,
    "evening": 1458,
    "church": 1459,
    "ert": 1460,
    "én": 1461,
    "below": 1462,
    "cts": 1463,
    "ό": 1464,
    "cold": 1465,
    "ator": 1466,
    "gent": 1467,
    "ying": 1468,
    "ili": 1469,
    "paper": 1470,
    "ES": 1471,
    "å": 1472,
    "beg": 1473,
    "trou": 1474,
    "dar": 1475,
    "fair": 1476,
    "sm": 1477,
    "bri": 1478,
    "cas": 1479,
    "som": 1480,
    "eye": 1481,
    "front": 1482,
    "Ber": 1483,
    "ards": 1484,
    "atta": 1485,
    "ends": 1486,
    "success": 1487,
    "yn": 1488,
    "ité": 1489,
    "ater": 1490,
    "sus": 1491,
    "plan": 1492,
    "school": 1493,
    "bla": 1494,
    "hon": 1495,
    "ending": 1496,
    "happy": 1497,
    "fast": 1498,
    "Au": 1499,
    "knowledge": 1500,
    "important": 1501,
    "ι": 1502,
    "reached": 1503,
    "stone": 1504,
    "ours": 1505,
    "str": 1506,
    "secret": 1507,
    "ately": 1508,
    "bow": 1509,
    "fr": 1510,
    "ding": 1511,
    "ön": 1512,
    "ander": 1513,
    "bli": 1514,
    "add": 1515,
    "License": 1516,
    "American": 1517,
    "Illustration": 1518,
    "appeared": 1519,
    "–": 1520,
    "vu": 1521,
    "leur": 1522,
    "ix": 1523,
    "25": 1524,
    "future": 1525,
    "dr": 1526,
    "ef": 1527,
    "itä": 1528,
    "*": 1529,
    "bro": 1530,
    "particular": 1531,
    "ON": 1532,
    "fra": 1533,
    "pers": 1534,
    "forward": 1535,
    "aj": 1536,
    "continued": 1537,
    "asi": 1538,
    "thee": 1539,
    "ii": 1540,
    "press": 1541,
    "hair": 1542,
    "vain": 1543,
    "peace": 1544,
    "Can": 1545,
    "lan": 1546,
    "bled": 1547,
    "uri": 1548,
    "AN": 1549,
    "Gu": 1550,
    "ild": 1551,
    "latter": 1552,
    "iden": 1553,
    "hours": 1554,
    "ese": 1555,
    "mé": 1556,
    "spe": 1557,
    "net": 1558,
    "rose": 1559,
    "company": 1560,
    "vast": 1561,
    "ura": 1562,
    "ase": 1563,
    "service": 1564,
    "prim": 1565,
    "cri": 1566,
    "fellow": 1567,
    "ress": 1568,
    "--\"": 1569,
    "start": 1570,
    "alt": 1571,
    "zo": 1572,
    "longer": 1573,
    "individual": 1574,
    "ör": 1575,
    "lect": 1576,
    "husband": 1577,
    "Christ": 1578,
    "stri": 1579,
    "history": 1580,
    "wonder": 1581,
    "Ad": 1582,
    "ua": 1583,
    "issa": 1584,
    "especially": 1585,
    "sw": 1586,
    "....": 1587,
    "deal": 1588,
    "action": 1589,
    "fle": 1590,
    "fla": 1591,
    "ences": 1592,
    "appear": 1593,
    "German": 1594,
    "II": 1595,
    "hum": 1596,
    "dan": 1597,
    "Su": 1598,
    "rad": 1599,
    "né": 1600,
    "teen": 1601,
    "ga": 1602,
    "provide": 1603,
    "try": 1604,
    "fac": 1605,
    "cast": 1606,
    "rie": 1607,
    "RE": 1608,
    "tar": 1609,
    "pot": 1610,
    "bear": 1611,
    "ey": 1612,
    "même": 1613,
    "probably": 1614,
    "wild": 1615,
    "itude": 1616,
    "hall": 1617,
    "inf": 1618,
    "vid": 1619,
    "cul": 1620,
    "ras": 1621,
    "sleep": 1622,
    "added": 1623,
    "yt": 1624,
    "ush": 1625,
    "jour": 1626,
    "super": 1627,
    "imp": 1628,
    "represent": 1629,
    "sä": 1630,
    "det": 1631,
    "ight": 1632,
    "Paris": 1633,
    "ign": 1634,
    "mouth": 1635,
    "follow": 1636,
    "lar": 1637,
    "50": 1638,
    "lad": 1639,
    "Hän": 1640,
    "alter": 1641,
    "covered": 1642,
    "associated": 1643,
    "+": 1644,
    "race": 1645,
    "beyond": 1646,
    "ero": 1647,
    "stu": 1648,
    "oun": 1649,
    "pon": 1650,
    "γ": 1651,
    "ices": 1652,
    "υ": 1653,
    "ked": 1654,
    "camp": 1655,
    "worth": 1656,
    "gold": 1657,
    "24": 1658,
    "kö": 1659,
    "zz": 1660,
    "ones": 1661,
    "glad": 1662,
    "everything": 1663,
    "dou": 1664,
    "Mo": 1665,
    "ali": 1666,
    "occasion": 1667,
    "ford": 1668,
    "information": 1669,
    "allow": 1670,
    "system": 1671,
    "feeling": 1672,
    "length": 1673,
    "hem": 1674,
    "pes": 1675,
    "tun": 1676,
    "support": 1677,
    "hä": 1678,
    "quel": 1679,
    "cia": 1680,
    "ena": 1681,
    "ñ": 1682,
    "zt": 1683,
    "refund": 1684,
    "cry": 1685,
    "hun": 1686,
    "fit": 1687,
    "living": 1688,
    "talk": 1689,
    "toward": 1690,
    "cir": 1691,
    "san": 1692,
    "eld": 1693,
    "Go": 1694,
    "although": 1695,
    "tim": 1696,
    "bas": 1697,
    "ico": 1698,
    "stay": 1699,
    "vir": 1700,
    "laid": 1701,
    "didn": 1702,
    "lead": 1703,
    "ella": 1704,
    "sed": 1705,
    "suddenly": 1706,
    "copies": 1707,
    "cla": 1708,
    "sit": 1709,
    "strange": 1710,
    "makes": 1711,
    "army": 1712,
    "pan": 1713,
    "consider": 1714,
    "Har": 1715,
    "fun": 1716,
    "remember": 1717,
    "Cor": 1718,
    "wie": 1719,
    "ound": 1720,
    "arri": 1721,
    "cro": 1722,
    "Pr": 1723,
    "boys": 1724,
    "igen": 1725,
    "para": 1726,
    "δ": 1727,
    "bor": 1728,
    "attention": 1729,
    "Du": 1730,
    "eng": 1731,
    "office": 1732,
    "vie": 1733,
    "Gr": 1734,
    "William": 1735,
    "rep": 1736,
    "OR": 1737,
    "ár": 1738,
    "trees": 1739,
    "Christian": 1740,
    "mil": 1741,
    "distance": 1742,
    "lat": 1743,
    "comes": 1744,
    "cam": 1745,
    "tor": 1746,
    "located": 1747,
    "organ": 1748,
    "writing": 1749,
    "ues": 1750,
    "daughter": 1751,
    "ivat": 1752,
    "vé": 1753,
    "ani": 1754,
    "28": 1755,
    "ching": 1756,
    "ison": 1757,
    "ray": 1758,
    "government": 1759,
    "llä": 1760,
    "hom": 1761,
    "comb": 1762,
    "spoke": 1763,
    "sweet": 1764,
    "enemy": 1765,
    "pou": 1766,
    "|": 1767,
    "~": 1768,
    "zijn": 1769,
    "due": 1770,
    "inst": 1771,
    "'re": 1772,
    "della": 1773,
    "prof": 1774,
    "states": 1775,
    "asta": 1776,
    "permission": 1777,
    "ome": 1778,
    "sta": 1779,
    "pra": 1780,
    "tos": 1781,
    "tin": 1782,
    "ques": 1783,
    "être": 1784,
    "various": 1785,
    "daß": 1786,
    "Ab": 1787,
    "boat": 1788,
    "nat": 1789,
    "prom": 1790,
    "eu": 1791,
    "sing": 1792,
    "suppose": 1793,
    "demand": 1794,
    "test": 1795,
    "fait": 1796,
    "oll": 1797,
    "green": 1798,
    "ui": 1799,
    "hood": 1800,
    "conce": 1801,
    "sans": 1802,
    "formed": 1803,
    "class": 1804,
    "ius": 1805,
    "iter": 1806,
    "vat": 1807,
    "star": 1808,
    "doing": 1809,
    "board": 1810,
    "Captain": 1811,
    "iles": 1812,
    "York": 1813,
    "dig": 1814,
    "books": 1815,
    "nes": 1816,
    "TH": 1817,
    "ric": 1818,
    "entered": 1819,
    "Section": 1820,
    "greater": 1821,
    "remain": 1822,
    "dire": 1823,
    "none": 1824,
    "cell": 1825,
    "Lo": 1826,
    "eine": 1827,
    "outside": 1828,
    "vert": 1829,
    "mine": 1830,
    "Et": 1831,
    "teach": 1832,
    "Si": 1833,
    "Pe": 1834,
    "pretty": 1835,
    "bright": 1836,
    "Ah": 1837,
    "plain": 1838,
    "ctor": 1839,
    "nur": 1840,
    "θ": 1841,
    "British": 1842,
    "nem": 1843,
    "opened": 1844,
    "cross": 1845,
    "note": 1846,
    "saying": 1847,
    "cle": 1848,
    "nel": 1849,
    "Where": 1850,
    "joka": 1851,
    "dam": 1852,
    "court": 1853,
    "eds": 1854,
    "ées": 1855,
    "dies": 1856,
    "ava": 1857,
    "ente": 1858,
    "oi": 1859,
    "Who": 1860,
    "born": 1861,
    "protected": 1862,
    "pää": 1863,
    "beginning": 1864,
    "Church": 1865,
    "ering": 1866,
    "eight": 1867,
    "faire": 1868,
    "sim": 1869,
    "civil": 1870,
    "usual": 1871,
    "vit": 1872,
    "11": 1873,
    "dest": 1874,
    "ways": 1875,
    "tree": 1876,
    "Tom": 1877,
    "iness": 1878,
    "distributing": 1879,
    "22": 1880,
    "produ": 1881,
    "ville": 1882,
    "dy": 1883,
    "ified": 1884,
    "anti": 1885,
    "cons": 1886,
    "pose": 1887,
    "über": 1888,
    "ή": 1889,
    "wall": 1890,
    "atic": 1891,
    "tan": 1892,
    "cat": 1893,
    "minutes": 1894,
    "former": 1895,
    "atter": 1896,
    "Ho": 1897,
    "hast": 1898,
    "sul": 1899,
    "hij": 1900,
    "considerable": 1901,
    "certainly": 1902,
    "Ste": 1903,
    "iling": 1904,
    "neither": 1905,
    "yed": 1906,
    "opinion": 1907,
    "loved": 1908,
    "instru": 1909,
    "Thus": 1910,
    "heaven": 1911,
    "dro": 1912,
    "ram": 1913,
    "ough": 1914,
    "fel": 1915,
    "pressed": 1916,
    "lied": 1917,
    "nos": 1918,
    "ically": 1919,
    "places": 1920,
    "eBooks": 1921,
    "lived": 1922,
    "blue": 1923,
    "tot": 1924,
    "icht": 1925,
    "dress": 1926,
    "ense": 1927,
    "hot": 1928,
    "tried": 1929,
    "band": 1930,
    "prevent": 1931,
    "kat": 1932,
    "condition": 1933,
    "Les": 1934,
    "ora": 1935,
    "wide": 1936,
    "bell": 1937,
    "pel": 1938,
    "chair": 1939,
    "George": 1940,
    "rock": 1941,
    "according": 1942,
    "kon": 1943,
    "warm": 1944,
    "ister": 1945,
    "north": 1946,
    "ises": 1947,
    "át": 1948,
    "_S": 1949,
    "distribution": 1950,
    "Am": 1951,
    "faith": 1952,
    "vag": 1953,
    "Mary": 1954,
    "attempt": 1955,
    "23": 1956,
    "LA": 1957,
    "food": 1958,
    "ini": 1959,
    "wanted": 1960,
    "collection": 1961,
    "filled": 1962,
    "pleasure": 1963,
    "lord": 1964,
    "mad": 1965,
    "kan": 1966,
    "ders": 1967,
    "seven": 1968,
    "Min": 1969,
    "dev": 1970,
    "och": 1971,
    "auch": 1972,
    "sible": 1973,
    "comm": 1974,
    "$": 1975,
    "ext": 1976,
    "persons": 1977,
    "ries": 1978,
    "itu": 1979,
    "verse": 1980,
    "lines": 1981,
    "ening": 1982,
    "broken": 1983,
    "uit": 1984,
    "expected": 1985,
    "fish": 1986,
    "easy": 1987,
    "generally": 1988,
    "unless": 1989,
    "nach": 1990,
    "process": 1991,
    "ace": 1992,
    "Es": 1993,
    "où": 1994,
    "Die": 1995,
    "carry": 1996,
    "appearance": 1997,
    "Lady": 1998,
    "notice": 1999,
    "influence": 2000,
    "Ja": 2001,
    "heavy": 2002,
    "habit": 2003,
    "battle": 2004,
    "chance": 2005,
    "property": 2006,
    "bles": 2007,
    "third": 2008,
    "niet": 2009,
    "century": 2010,
    "piece": 2011,
    "original": 2012,
    "pun": 2013,
    "win": 2014,
    "ame": 2015,
    "amb": 2016,
    "din": 2017,
    "trust": 2018,
    "Jack": 2019,
    "flo": 2020,
    "mie": 2021,
    "anyone": 2022,
    "ized": 2023,
    "uni": 2024,
    "pping": 2025,
    "wed": 2026,
    "gg": 2027,
    "IS": 2028,
    "inn": 2029,
    "remained": 2030,
    "window": 2031,
    "ising": 2032,
    "ati": 2033,
    "months": 2034,
    "easily": 2035,
    "ths": 2036,
    "simple": 2037,
    "dri": 2038,
    "eli": 2039,
    "duty": 2040,
    "él": 2041,
    "hol": 2042,
    "cho": 2043,
    "yl": 2044,
    "produced": 2045,
    "sla": 2046,
    "strength": 2047,
    "elect": 2048,
    "date": 2049,
    "learn": 2050,
    "save": 2051,
    "standing": 2052,
    "dec": 2053,
    "glass": 2054,
    "origin": 2055,
    "aber": 2056,
    "26": 2057,
    "suit": 2058,
    "ama": 2059,
    "voor": 2060,
    "ica": 2061,
    "arch": 2062,
    "west": 2063,
    "taa": 2064,
    "chi": 2065,
    "spring": 2066,
    "rate": 2067,
    "sens": 2068,
    "ack": 2069,
    "figure": 2070,
    "ree": 2071,
    "wor": 2072,
    "wing": 2073,
    "forms": 2074,
    "single": 2075,
    "itation": 2076,
    "rain": 2077,
    "ου": 2078,
    "voir": 2079,
    "nal": 2080,
    "sten": 2081,
    "zij": 2082,
    "week": 2083,
    "firm": 2084,
    "receive": 2085,
    "eder": 2086,
    "expect": 2087,
    "27": 2088,
    "ature": 2089,
    "plant": 2090,
    "ining": 2091,
    "nation": 2092,
    "drew": 2093,
    "license": 2094,
    "West": 2095,
    "giving": 2096,
    "trouble": 2097,
    "immediately": 2098,
    "break": 2099,
    "iron": 2100,
    "sein": 2101,
    "kir": 2102,
    "grace": 2103,
    "kaan": 2104,
    "result": 2105,
    "desire": 2106,
    "hor": 2107,
    "το": 2108,
    "proper": 2109,
    "impossible": 2110,
    "south": 2111,
    "wrong": 2112,
    "hogy": 2113,
    "medium": 2114,
    "lying": 2115,
    "deux": 2116,
    "gest": 2117,
    "quis": 2118,
    "author": 2119,
    "lle": 2120,
    "lands": 2121,
    "blow": 2122,
    "comply": 2123,
    "gs": 2124,
    "guard": 2125,
    "quiet": 2126,
    "kom": 2127,
    "ination": 2128,
    "San": 2129,
    "Charles": 2130,
    "ives": 2131,
    "fresh": 2132,
    "αν": 2133,
    "AT": 2134,
    "mutta": 2135,
    "cc": 2136,
    "pure": 2137,
    "dist": 2138,
    "send": 2139,
    "cases": 2140,
    "moral": 2141,
    "silence": 2142,
    "vig": 2143,
    "ô": 2144,
    "getting": 2145,
    "ende": 2146,
    "courage": 2147,
    "Li": 2148,
    "list": 2149,
    "host": 2150,
    "urn": 2151,
    "gentleman": 2152,
    "tur": 2153,
    "pens": 2154,
    "fur": 2155,
    "thick": 2156,
    "miss": 2157,
    "perfect": 2158,
    "shot": 2159,
    "middle": 2160,
    "sis": 2161,
    "supp": 2162,
    "ori": 2163,
    "lips": 2164,
    "„": 2165,
    "beauty": 2166,
    "graph": 2167,
    "uring": 2168,
    "ming": 2169,
    "ump": 2170,
    "inv": 2171,
    "bb": 2172,
    "ancient": 2173,
    "THE": 2174,
    "gun": 2175,
    "accept": 2176,
    "Des": 2177,
    "rou": 2178,
    "mid": 2179,
    "efforts": 2180,
    "eat": 2181,
    "dog": 2182,
    "Jo": 2183,
    "cus": 2184,
    "fol": 2185,
    "hardly": 2186,
    "lt": 2187,
    "unto": 2188,
    "temper": 2189,
    "direction": 2190,
    "horses": 2191,
    "exist": 2192,
    "appears": 2193,
    "letters": 2194,
    "sont": 2195,
    "Henry": 2196,
    "iment": 2197,
    "effort": 2198,
    "ible": 2199,
    "qual": 2200,
    "utter": 2201,
    "vre": 2202,
    "complete": 2203,
    "iten": 2204,
    "afterwards": 2205,
    "happened": 2206,
    "aff": 2207,
    "exc": 2208,
    "stream": 2209,
    "reading": 2210,
    "houses": 2211,
    "jä": 2212,
    "ros": 2213,
    "street": 2214,
    "amente": 2215,
    "rig": 2216,
    "page": 2217,
    "Sie": 2218,
    "ney": 2219,
    "ym": 2220,
    "rat": 2221,
    "State": 2222,
    "village": 2223,
    "evil": 2224,
    ");": 2225,
    "bert": 2226,
    "dream": 2227,
    "path": 2228,
    "tom": 2229,
    "pä": 2230,
    "χ": 2231,
    "hes": 2232,
    "kk": 2233,
    "bling": 2234,
    "nom": 2235,
    "discovered": 2236,
    "sister": 2237,
    "dos": 2238,
    "bet": 2239,
    "loss": 2240,
    "draw": 2241,
    "obtain": 2242,
    "noble": 2243,
    "aa": 2244,
    "War": 2245,
    "iti": 2246,
    "ians": 2247,
    "personal": 2248,
    "joy": 2249,
    "instead": 2250,
    "eff": 2251,
    "changed": 2252,
    "ott": 2253,
    "South": 2254,
    "danger": 2255,
    "utta": 2256,
    "ury": 2257,
    "tained": 2258,
    "29": 2259,
    "Ru": 2260,
    "presence": 2261,
    "ball": 2262,
    "exclaimed": 2263,
    "serious": 2264,
    "Every": 2265,
    "While": 2266,
    "mere": 2267,
    "def": 2268,
    "ari": 2269,
    "occup": 2270,
    "regular": 2271,
    "wrote": 2272,
    "Char": 2273,
    "meant": 2274,
    "aik": 2275,
    "vil": 2276,
    "entirely": 2277,
    "marked": 2278,
    "lig": 2279,
    "watch": 2280,
    "moved": 2281,
    "ito": 2282,
    "pré": 2283,
    "raised": 2284,
    "dom": 2285,
    "built": 2286,
    "North": 2287,
    "trem": 2288,
    "Yet": 2289,
    "grow": 2290,
    "eter": 2291,
    "drink": 2292,
    "OF": 2293,
    "merely": 2294,
    "cel": 2295,
    "quer": 2296,
    "takes": 2297,
    "meg": 2298,
    "ès": 2299,
    "ith": 2300,
    "started": 2301,
    "youth": 2302,
    "bul": 2303,
    "Just": 2304,
    "arrived": 2305,
    "jud": 2306,
    "ns": 2307,
    "Europe": 2308,
    "proved": 2309,
    "expression": 2310,
    "check": 2311,
    "reach": 2312,
    "î": 2313,
    "considered": 2314,
    "été": 2315,
    "similar": 2316,
    ".’": 2317,
    "ôt": 2318,
    "freely": 2319,
    "thinking": 2320,
    "_C": 2321,
    "Ju": 2322,
    "q": 2323,
    "cha": 2324,
    "ability": 2325,
    "Bu": 2326,
    "wit": 2327,
    "hin": 2328,
    "Br": 2329,
    "girls": 2330,
    "Hu": 2331,
    "bt": 2332,
    "ég": 2333,
    "House": 2334,
    "entre": 2335,
    "record": 2336,
    "somewhat": 2337,
    "21": 2338,
    "passion": 2339,
    "drawn": 2340,
    "etc": 2341,
    "const": 2342,
    "Indian": 2343,
    "Sam": 2344,
    "closed": 2345,
    "sky": 2346,
    "news": 2347,
    "lau": 2348,
    "moi": 2349,
    "lam": 2350,
    "ament": 2351,
    "aded": 2352,
    "caught": 2353,
    "clock": 2354,
    "jos": 2355,
    "ido": 2356,
    "Our": 2357,
    "usually": 2358,
    "phrase": 2359,
    "slowly": 2360,
    "straight": 2361,
    "ete": 2362,
    "este": 2363,
    "claim": 2364,
    "fut": 2365,
    "män": 2366,
    "aled": 2367,
    "ior": 2368,
    "America": 2369,
    "Im": 2370,
    "yourself": 2371,
    "CH": 2372,
    "yer": 2373,
    "py": 2374,
    "ew": 2375,
    "noch": 2376,
    "hill": 2377,
    "elen": 2378,
    "struck": 2379,
    "rent": 2380,
    "ites": 2381,
    "yi": 2382,
    "fight": 2383,
    "ption": 2384,
    "fre": 2385,
    "onder": 2386,
    "learned": 2387,
    "minä": 2388,
    "possession": 2389,
    "Wh": 2390,
    "mass": 2391,
    "married": 2392,
    "Vol": 2393,
    "polit": 2394,
    "AL": 2395,
    "keeping": 2396,
    "emp": 2397,
    "Mor": 2398,
    "acy": 2399,
    "tut": 2400,
    "Great": 2401,
    "elt": 2402,
    "smile": 2403,
    "whatever": 2404,
    "broad": 2405,
    "anim": 2406,
    "spo": 2407,
    "key": 2408,
    "experience": 2409,
    "aries": 2410,
    "isted": 2411,
    "uns": 2412,
    "knows": 2413,
    "language": 2414,
    "Ed": 2415,
    "Sa": 2416,
    "ün": 2417,
    "difficult": 2418,
    "value": 2419,
    "Ph": 2420,
    "Te": 2421,
    "walked": 2422,
    "tous": 2423,
    "ify": 2424,
    "summer": 2425,
    "address": 2426,
    "removed": 2427,
    "directly": 2428,
    "fro": 2429,
    "dess": 2430,
    "officers": 2431,
    "zi": 2432,
    "egy": 2433,
    "modern": 2434,
    "vou": 2435,
    "contra": 2436,
    "ls": 2437,
    "oper": 2438,
    "pleasant": 2439,
    "continu": 2440,
    "indic": 2441,
    "ansa": 2442,
    "capt": 2443,
    "wir": 2444,
    "step": 2445,
    "ento": 2446,
    "delight": 2447,
    "James": 2448,
    "chap": 2449,
    "special": 2450,
    "seeing": 2451,
    "respon": 2452,
    "thin": 2453,
    "design": 2454,
    "LI": 2455,
    "throw": 2456,
    "inal": 2457,
    "winter": 2458,
    "ots": 2459,
    "ually": 2460,
    "tte": 2461,
    "walk": 2462,
    "spot": 2463,
    "wait": 2464,
    "ilt": 2465,
    "favor": 2466,
    "lower": 2467,
    "orders": 2468,
    "provided": 2469,
    "É": 2470,
    "swe": 2471,
    "nie": 2472,
    "direct": 2473,
    "box": 2474,
    "_P": 2475,
    "isto": 2476,
    "afraid": 2477,
    "wn": 2478,
    "sam": 2479,
    "pret": 2480,
    "grave": 2481,
    "bil": 2482,
    "required": 2483,
    "como": 2484,
    "40": 2485,
    "ships": 2486,
    "equal": 2487,
    "enden": 2488,
    "rank": 2489,
    "ivät": 2490,
    "sad": 2491,
    "cess": 2492,
    "mort": 2493,
    "express": 2494,
    ",’": 2495,
    "186": 2496,
    "eur": 2497,
    "quickly": 2498,
    "content": 2499,
    "mun": 2500,
    "fortune": 2501,
    "sup": 2502,
    "bank": 2503,
    "August": 2504,
    "itive": 2505,
    "Paul": 2506,
    "greatest": 2507,
    "ellä": 2508,
    "please": 2509,
    "jet": 2510,
    "flow": 2511,
    "dry": 2512,
    "allowed": 2513,
    "thoughts": 2514,
    "observed": 2515,
    "Their": 2516,
    "Mutta": 2517,
    "official": 2518,
    "Mais": 2519,
    "religion": 2520,
    "}": 2521,
    "Roman": 2522,
    "thirty": 2523,
    "elles": 2524,
    "aim": 2525,
    "tender": 2526,
    "circumstances": 2527,
    "Rome": 2528,
    "pair": 2529,
    "song": 2530,
    "lang": 2531,
    "wear": 2532,
    "described": 2533,
    "attack": 2534,
    "sor": 2535,
    "existence": 2536,
    "justice": 2537,
    "dont": 2538,
    "stä": 2539,
    "hero": 2540,
    "opportunity": 2541,
    "music": 2542,
    "tele": 2543,
    "showed": 2544,
    "elo": 2545,
    "a_": 2546,
    "appro": 2547,
    "stopped": 2548,
    "snow": 2549,
    "leaving": 2550,
    "leaves": 2551,
    "fashion": 2552,
    "ishing": 2553,
    "distribute": 2554,
    "olo": 2555,
    "ject": 2556,
    "ione": 2557,
    "τα": 2558,
    "proceed": 2559,
    "society": 2560,
    "Bur": 2561,
    "gon": 2562,
    "Di": 2563,
    "Fran": 2564,
    "shadow": 2565,
    "clim": 2566,
    "sand": 2567,
    "peculiar": 2568,
    "cab": 2569,
    "treat": 2570,
    "ively": 2571,
    "eas": 2572,
    "picture": 2573,
    "mur": 2574,
    "Information": 2575,
    "attend": 2576,
    "eral": 2577,
    "Der": 2578,
    "uu": 2579,
    "Will": 2580,
    "gives": 2581,
    "är": 2582,
    "killed": 2583,
    "compar": 2584,
    "forest": 2585,
    "zer": 2586,
    "fig": 2587,
    "hab": 2588,
    "sym": 2589,
    "search": 2590,
    "mut": 2591,
    "deser": 2592,
    "spread": 2593,
    "phe": 2594,
    "scene": 2595,
    "dinner": 2596,
    "extra": 2597,
    "floor": 2598,
    "für": 2599,
    "lem": 2600,
    "walls": 2601,
    "tone": 2602,
    "ì": 2603,
    "grew": 2604,
    "rice": 2605,
    "fil": 2606,
    "ould": 2607,
    "alo": 2608,
    "via": 2609,
    "owner": 2610,
    "goes": 2611,
    "sick": 2612,
    "Good": 2613,
    "steps": 2614,
    "shown": 2615,
    "uk": 2616,
    "Prince": 2617,
    "hung": 2618,
    "gate": 2619,
    "Men": 2620,
    "fat": 2621,
    "supposed": 2622,
    "Even": 2623,
    "worthy": 2624,
    "poet": 2625,
    "write": 2626,
    "rise": 2627,
    "temps": 2628,
    "study": 2629,
    "isten": 2630,
    "φ": 2631,
    "passage": 2632,
    "_The": 2633,
    "surface": 2634,
    "Ser": 2635,
    "building": 2636,
    "cover": 2637,
    "scarcely": 2638,
    "lives": 2639,
    "suggest": 2640,
    "ided": 2641,
    "wr": 2642,
    "donate": 2643,
    "royal": 2644,
    "vari": 2645,
    "sufficient": 2646,
    "Come": 2647,
    "ational": 2648,
    "asti": 2649,
    "_A": 2650,
    "Government": 2651,
    "Fre": 2652,
    "edge": 2653,
    "rail": 2654,
    "Tur": 2655,
    ".=": 2656,
    "mach": 2657,
    "decided": 2658,
    "cot": 2659,
    "Em": 2660,
    "concerning": 2661,
    "active": 2662,
    "difference": 2663,
    "ization": 2664,
    "spect": 2665,
    "Wil": 2666,
    "laughed": 2667,
    "forty": 2668,
    "autre": 2669,
    "RI": 2670,
    "chant": 2671,
    "encore": 2672,
    "broke": 2673,
    "fixed": 2674,
    "wen": 2675,
    "Queen": 2676,
    "grat": 2677,
    "troops": 2678,
    "sig": 2679,
    "flowers": 2680,
    "cand": 2681,
    "durch": 2682,
    "waiting": 2683,
    "Sh": 2684,
    "soft": 2685,
    "likely": 2686,
    "uses": 2687,
    "yh": 2688,
    "animal": 2689,
    "cs": 2690,
    "ires": 2691,
    "ST": 2692,
    "gal": 2693,
    "hath": 2694,
    "histor": 2695,
    "nam": 2696,
    "mentioned": 2697,
    "ál": 2698,
    "native": 2699,
    "national": 2700,
    "sole": 2701,
    "Mag": 2702,
    "antly": 2703,
    "wise": 2704,
    "{": 2705,
    "ades": 2706,
    "lum": 2707,
    "ür": 2708,
    "motion": 2709,
    "soldiers": 2710,
    "sudden": 2711,
    "attra": 2712,
    "ollut": 2713,
    "prepared": 2714,
    "fri": 2715,
    "Rom": 2716,
    "peu": 2717,
    "Louis": 2718,
    "pul": 2719,
    "ific": 2720,
    "proof": 2721,
    "species": 2722,
    "editions": 2723,
    "#": 2724,
    "possess": 2725,
    "Mer": 2726,
    "accepted": 2727,
    "captain": 2728,
    "physical": 2729,
    "90": 2730,
    "kill": 2731,
    "afternoon": 2732,
    "coast": 2733,
    "ctive": 2734,
    "lit": 2735,
    "private": 2736,
    "members": 2737,
    "interesting": 2738,
    "fied": 2739,
    "distributed": 2740,
    "exam": 2741,
    "social": 2742,
    "Val": 2743,
    "bis": 2744,
    "cup": 2745,
    "sli": 2746,
    "slight": 2747,
    "group": 2748,
    "ück": 2749,
    "LE": 2750,
    "dir": 2751,
    "bei": 2752,
    "lor": 2753,
    "Pal": 2754,
    "inde": 2755,
    "begin": 2756,
    "names": 2757,
    "sail": 2758,
    "political": 2759,
    "Indians": 2760,
    "narrow": 2761,
    "nut": 2762,
    "determined": 2763,
    "aster": 2764,
    "garden": 2765,
    "ás": 2766,
    "rare": 2767,
    "passing": 2768,
    "religious": 2769,
    "nak": 2770,
    "Father": 2771,
    "fond": 2772,
    "gle": 2773,
    "Such": 2774,
    "tears": 2775,
    "ύ": 2776,
    "sche": 2777,
    "breath": 2778,
    "log": 2779,
    "island": 2780,
    "authority": 2781,
    "labor": 2782,
    "contact": 2783,
    "sides": 2784,
    "fare": 2785,
    "skin": 2786,
    "Fig": 2787,
    "ω": 2788,
    "là": 2789,
    "loin": 2790,
    "printed": 2791,
    "isse": 2792,
    "declared": 2793,
    "aged": 2794,
    "asc": 2795,
    "wij": 2796,
    "ordered": 2797,
    "ht": 2798,
    "maan": 2799,
    "sitting": 2800,
    "armed": 2801,
    "shore": 2802,
    "rem": 2803,
    "bitter": 2804,
    "beside": 2805,
    "ears": 2806,
    "kt": 2807,
    "fran": 2808,
    "sti": 2809,
    "moon": 2810,
    "ον": 2811,
    "train": 2812,
    "mark": 2813,
    "til": 2814,
    "space": 2815,
    "fifty": 2816,
    "bare": 2817,
    "bread": 2818,
    "confess": 2819,
    "olla": 2820,
    "particularly": 2821,
    "zel": 2822,
    "Cha": 2823,
    "instant": 2824,
    "più": 2825,
    "aid": 2826,
    "istä": 2827,
    "35": 2828,
    "ital": 2829,
    "meeting": 2830,
    "marriage": 2831,
    "appointed": 2832,
    "speaking": 2833,
    "zed": 2834,
    "apt": 2835,
    "destroy": 2836,
    "mountain": 2837,
    "offered": 2838,
    "ety": 2839,
    "gain": 2840,
    "weak": 2841,
    "Wal": 2842,
    "ώ": 2843,
    "concept": 2844,
    "Frank": 2845,
    "brown": 2846,
    "terrible": 2847,
    "dell": 2848,
    "fallen": 2849,
    "ping": 2850,
    "extent": 2851,
    "essa": 2852,
    "conduct": 2853,
    "gener": 2854,
    "Mal": 2855,
    "beat": 2856,
    "text": 2857,
    "wards": 2858,
    "Ce": 2859,
    "Your": 2860,
    "cop": 2861,
    "Hol": 2862,
    "situation": 2863,
    "method": 2864,
    "evidence": 2865,
    "ration": 2866,
    "Sal": 2867,
    "serv": 2868,
    "depart": 2869,
    "prison": 2870,
    "conditions": 2871,
    "Peter": 2872,
    "nar": 2873,
    "forget": 2874,
    "example": 2875,
    "oured": 2876,
    "minute": 2877,
    "ral": 2878,
    "tää": 2879,
    "pil": 2880,
    "leurs": 2881,
    "east": 2882,
    "pher": 2883,
    "safe": 2884,
    "tru": 2885,
    "gas": 2886,
    "offer": 2887,
    "berg": 2888,
    "conversation": 2889,
    "\",": 2890,
    "journey": 2891,
    "foreign": 2892,
    "ulla": 2893,
    "render": 2894,
    "holder": 2895,
    ".»": 2896,
    "stat": 2897,
    "Many": 2898,
    "kiss": 2899,
    "Mil": 2900,
    "iments": 2901,
    "lean": 2902,
    "avo": 2903,
    "60": 2904,
    "amount": 2905,
    "posted": 2906,
    "god": 2907,
    "ihr": 2908,
    "material": 2909,
    "popular": 2910,
    "fill": 2911,
    "uten": 2912,
    "hier": 2913,
    "providing": 2914,
    "homme": 2915,
    "aient": 2916,
    "stro": 2917,
    "advantage": 2918,
    "escape": 2919,
    "simply": 2920,
    "ax": 2921,
    "enne": 2922,
    "favour": 2923,
    "included": 2924,
    "Old": 2925,
    "και": 2926,
    "187": 2927,
    "rule": 2928,
    "mente": 2929,
    "nou": 2930,
    "mij": 2931,
    "apart": 2932,
    "fail": 2933,
    "mail": 2934,
    "running": 2935,
    "distinct": 2936,
    "officer": 2937,
    "anger": 2938,
    "higher": 2939,
    "Wor": 2940,
    "cow": 2941,
    "pale": 2942,
    "anxious": 2943,
    "forced": 2944,
    "requirements": 2945,
    "believed": 2946,
    "©": 2947,
    "dim": 2948,
    "morrow": 2949,
    "yellow": 2950,
    "move": 2951,
    "month": 2952,
    "doctor": 2953,
    "gin": 2954,
    "imper": 2955,
    "III": 2956,
    "stru": 2957,
    "itions": 2958,
    "mist": 2959,
    "Ben": 2960,
    "conven": 2961,
    "ange": 2962,
    "produce": 2963,
    "perfectly": 2964,
    "shi": 2965,
    "inj": 2966,
    "yes": 2967,
    "fen": 2968,
    "immediate": 2969,
    "importance": 2970,
    "fic": 2971,
    "murder": 2972,
    "Const": 2973,
    "silver": 2974,
    "degree": 2975,
    "Footnote": 2976,
    "ural": 2977,
    ":--": 2978,
    "tam": 2979,
    "Bel": 2980,
    "station": 2981,
    "touch": 2982,
    "quick": 2983,
    "RO": 2984,
    "ather": 2985,
    "neck": 2986,
    "speech": 2987,
    "rown": 2988,
    "AM": 2989,
    "bol": 2990,
    "height": 2991,
    "laugh": 2992,
    "tant": 2993,
    "clean": 2994,
    "Port": 2995,
    "corner": 2996,
    "vier": 2997,
    "neg": 2998,
    "points": 2999,
    "kor": 3000,
    "burn": 3001,
    "ular": 3002,
    "repeated": 3003,
    "difficulty": 3004,
    "ez": 3005,
    "weight": 3006,
    "prepar": 3007,
    "να": 3008,
    "trade": 3009,
    "----": 3010,
    "rows": 3011,
    "ize": 3012,
    "birds": 3013,
    "unter": 3014,
    "defin": 3015,
    "vas": 3016,
    "fois": 3017,
    "ories": 3018,
    "sia": 3019,
    "trad": 3020,
    "rage": 3021,
    "rait": 3022,
    "status": 3023,
    "188": 3024,
    "obtained": 3025,
    "frequently": 3026,
    "working": 3027,
    ".—": 3028,
    "trying": 3029,
    "ordinary": 3030,
    "silent": 3031,
    "Was": 3032,
    "mond": 3033,
    "crown": 3034,
    "volunteers": 3035,
    "stop": 3036,
    "understood": 3037,
    "share": 3038,
    "portion": 3039,
    "admir": 3040,
    "witness": 3041,
    "Da": 3042,
    "possessed": 3043,
    "Did": 3044,
    "ency": 3045,
    "capital": 3046,
    "gall": 3047,
    "ket": 3048,
    "enti": 3049,
    "glo": 3050,
    "Ca": 3051,
    "military": 3052,
    "discover": 3053,
    "sitä": 3054,
    "user": 3055,
    "rien": 3056,
    "resist": 3057,
    "41": 3058,
    "bid": 3059,
    "acht": 3060,
    "color": 3061,
    "ishment": 3062,
    "Greek": 3063,
    "aston": 3064,
    "AS": 3065,
    "heads": 3066,
    "wished": 3067,
    "beneath": 3068,
    "εν": 3069,
    "animals": 3070,
    "game": 3071,
    "request": 3072,
    "patient": 3073,
    "sé": 3074,
    "Jer": 3075,
    "pap": 3076,
    "Ges": 3077,
    "joined": 3078,
    "honor": 3079,
    "ables": 3080,
    "Pu": 3081,
    "size": 3082,
    "Sen": 3083,
    "jen": 3084,
    "Madame": 3085,
    "pieces": 3086,
    "coup": 3087,
    "card": 3088,
    "stock": 3089,
    "prove": 3090,
    "finally": 3091,
    "Him": 3092,
    "fees": 3093,
    "pin": 3094,
    "dep": 3095,
    "agreed": 3096,
    "descri": 3097,
    "mand": 3098,
    "Thomas": 3099,
    "steam": 3100,
    "turning": 3101,
    "lected": 3102,
    "ived": 3103,
    "caused": 3104,
    "meaning": 3105,
    "stead": 3106,
    "Colonel": 3107,
    "pir": 3108,
    "twelve": 3109,
    "sang": 3110,
    "cept": 3111,
    "displaying": 3112,
    "viol": 3113,
    "vest": 3114,
    "progress": 3115,
    "wine": 3116,
    "ssä": 3117,
    "waar": 3118,
    "ami": 3119,
    "200": 3120,
    "pare": 3121,
    "named": 3122,
    "compliance": 3123,
    "secure": 3124,
    "einen": 3125,
    "ingen": 3126,
    "jou": 3127,
    "eg": 3128,
    "pray": 3129,
    "ón": 3130,
    "Mac": 3131,
    "rew": 3132,
    "Tu": 3133,
    "paying": 3134,
    "instance": 3135,
    "•": 3136,
    "gre": 3137,
    "bird": 3138,
    "chan": 3139,
    "hn": 3140,
    "count": 3141,
    "keen": 3142,
    "matters": 3143,
    "serve": 3144,
    "grass": 3145,
    "Cal": 3146,
    "decl": 3147,
    "pleased": 3148,
    "surprise": 3149,
    "burg": 3150,
    "explanation": 3151,
    "protect": 3152,
    "occur": 3153,
    "modi": 3154,
    "rough": 3155,
    "upper": 3156,
    "Perhaps": 3157,
    "corn": 3158,
    "Two": 3159,
    "ote": 3160,
    "President": 3161,
    "contr": 3162,
    "sold": 3163,
    "Fort": 3164,
    "permitted": 3165,
    "honour": 3166,
    "ification": 3167,
    "copying": 3168,
    "ology": 3169,
    "US": 3170,
    "created": 3171,
    "itting": 3172,
    "fam": 3173,
    "format": 3174,
    "Robert": 3175,
    "ility": 3176,
    "legal": 3177,
    "ides": 3178,
    "assem": 3179,
    "spent": 3180,
    "movement": 3181,
    "resol": 3182,
    "holding": 3183,
    "Ha": 3184,
    "Jesus": 3185,
    "ng": 3186,
    "aven": 3187,
    "Tra": 3188,
    "bag": 3189,
    "oud": 3190,
    "drawing": 3191,
    "sentence": 3192,
    "member": 3193,
    "bour": 3194,
    "antic": 3195,
    "satis": 3196,
    "ulle": 3197,
    "engaged": 3198,
    "pursu": 3199,
    "stud": 3200,
    "bij": 3201,
    "ungen": 3202,
    "gaz": 3203,
    "fruit": 3204,
    "calm": 3205,
    "itten": 3206,
    "honest": 3207,
    "ourselves": 3208,
    "fix": 3209,
    "happ": 3210,
    "36": 3211,
    "Bet": 3212,
    "unk": 3213,
    "opposite": 3214,
    "lose": 3215,
    "gan": 3216,
    "iff": 3217,
    "principal": 3218,
    "aba": 3219,
    "speed": 3220,
    "olly": 3221,
    "contin": 3222,
    "familiar": 3223,
    "cru": 3224,
    "limited": 3225,
    "37": 3226,
    "premi": 3227,
    "εί": 3228,
    "tee": 3229,
    "guess": 3230,
    "ule": 3231,
    "perce": 3232,
    "asse": 3233,
    "endre": 3234,
    "reply": 3235,
    "IV": 3236,
    "hang": 3237,
    "sons": 3238,
    "health": 3239,
    "colour": 3240,
    "hatte": 3241,
    "quarter": 3242,
    "finished": 3243,
    "inä": 3244,
    "harm": 3245,
    "dä": 3246,
    "seat": 3247,
    "travell": 3248,
    "lieu": 3249,
    "reat": 3250,
    "subst": 3251,
    "bin": 3252,
    "credit": 3253,
    "illustr": 3254,
    "zich": 3255,
    "=,": 3256,
    "Most": 3257,
    "uous": 3258,
    "published": 3259,
    "square": 3260,
    "esse": 3261,
    "aussi": 3262,
    "û": 3263,
    "toi": 3264,
    "Sy": 3265,
    "ara": 3266,
    "spr": 3267,
    "memory": 3268,
    "online": 3269,
    "prefer": 3270,
    "ladies": 3271,
    "approach": 3272,
    "CE": 3273,
    "minister": 3274,
    "intended": 3275,
    "fir": 3276,
    "avoir": 3277,
    "bou": 3278,
    "employed": 3279,
    "ihm": 3280,
    "suffer": 3281,
    "questions": 3282,
    "Mad": 3283,
    "Duke": 3284,
    "thrown": 3285,
    "clearly": 3286,
    "ING": 3287,
    "threat": 3288,
    "Dick": 3289,
    "indi": 3290,
    "gged": 3291,
    "furn": 3292,
    "ono": 3293,
    "Sha": 3294,
    "sake": 3295,
    "condu": 3296,
    "website": 3297,
    "amed": 3298,
    "mountains": 3299,
    "pron": 3300,
    "wonderful": 3301,
    "stage": 3302,
    "Egypt": 3303,
    "tres": 3304,
    "του": 3305,
    "rust": 3306,
    "roy": 3307,
    "squ": 3308,
    "crim": 3309,
    "happiness": 3310,
    "However": 3311,
    "spite": 3312,
    "ern": 3313,
    "established": 3314,
    "measure": 3315,
    "aur": 3316,
    "inte": 3317,
    "sharp": 3318,
    "omen": 3319,
    "curious": 3320,
    "Ham": 3321,
    "depend": 3322,
    "DE": 3323,
    "season": 3324,
    "greatly": 3325,
    "occupied": 3326,
    "mighty": 3327,
    "ida": 3328,
    "38": 3329,
    "vation": 3330,
    "peut": 3331,
    "willing": 3332,
    "sous": 3333,
    "stir": 3334,
    "looks": 3335,
    "ão": 3336,
    "sex": 3337,
    "Mc": 3338,
    "Pat": 3339,
    "Bra": 3340,
    "bill": 3341,
    "prince": 3342,
    "Never": 3343,
    "shut": 3344,
    "spoken": 3345,
    "Med": 3346,
    "kas": 3347,
    "affection": 3348,
    "Fo": 3349,
    "tour": 3350,
    "Red": 3351,
    "intellectual": 3352,
    "heat": 3353,
    "koh": 3354,
    "wouldn": 3355,
    "ona": 3356,
    "ige": 3357,
    "famous": 3358,
    "sua": 3359,
    "tel": 3360,
    "itted": 3361,
    "Pl": 3362,
    "mos": 3363,
    "rup": 3364,
    "ener": 3365,
    "lement": 3366,
    "blind": 3367,
    "local": 3368,
    "carefully": 3369,
    "faint": 3370,
    "34": 3371,
    "quest": 3372,
    "kal": 3373,
    "ridge": 3374,
    "nine": 3375,
    "establ": 3376,
    "pleas": 3377,
    "excellent": 3378,
    "más": 3379,
    "cere": 3380,
    "jon": 3381,
    "ose": 3382,
    "tall": 3383,
    "burst": 3384,
    "isin": 3385,
    "farm": 3386,
    "rist": 3387,
    "weeks": 3388,
    "weather": 3389,
    "Jud": 3390,
    "œ": 3391,
    "range": 3392,
    "march": 3393,
    "threw": 3394,
    "ib": 3395,
    "immer": 3396,
    "bur": 3397,
    "scar": 3398,
    "March": 3399,
    "travel": 3400,
    "facts": 3401,
    "odo": 3402,
    "Ter": 3403,
    "regarded": 3404,
    "abandon": 3405,
    "talking": 3406,
    "Gra": 3407,
    "style": 3408,
    "αι": 3409,
    "tw": 3410,
    "lla": 3411,
    "tö": 3412,
    "èrent": 3413,
    "coat": 3414,
    "gram": 3415,
    "zur": 3416,
    "promise": 3417,
    "kle": 3418,
    "itution": 3419,
    "anut": 3420,
    "olisi": 3421,
    "après": 3422,
    "report": 3423,
    "Cap": 3424,
    "remains": 3425,
    "settled": 3426,
    "pictures": 3427,
    "vet": 3428,
    "pag": 3429,
    "trop": 3430,
    "suo": 3431,
    "lets": 3432,
    "Gen": 3433,
    "ints": 3434,
    "Land": 3435,
    "concer": 3436,
    "vic": 3437,
    "IT": 3438,
    "continue": 3439,
    "cook": 3440,
    "bottom": 3441,
    "belong": 3442,
    "illes": 3443,
    "vell": 3444,
    "ique": 3445,
    "185": 3446,
    "mul": 3447,
    "grim": 3448,
    "clothes": 3449,
    "wash": 3450,
    "ias": 3451,
    "sett": 3452,
    "print": 3453,
    "sell": 3454,
    "cheer": 3455,
    "Arch": 3456,
    "false": 3457,
    "189": 3458,
    "ideas": 3459,
    "current": 3460,
    "crowd": 3461,
    "ald": 3462,
    "voy": 3463,
    "itse": 3464,
    "dust": 3465,
    "antes": 3466,
    "exactly": 3467,
    "ères": 3468,
    "affairs": 3469,
    "maid": 3470,
    "itable": 3471,
    "cruel": 3472,
    "assist": 3473,
    "stairs": 3474,
    "wealth": 3475,
    "custom": 3476,
    "ashed": 3477,
    "leading": 3478,
    "darkness": 3479,
    "puis": 3480,
    "dated": 3481,
    "villa": 3482,
    "countries": 3483,
    "fold": 3484,
    "heid": 3485,
    "advent": 3486,
    "umb": 3487,
    "aver": 3488,
    "June": 3489,
    "iste": 3490,
    "mol": 3491,
    "enjoy": 3492,
    "gio": 3493,
    "dare": 3494,
    "cos": 3495,
    "sn": 3496,
    "tail": 3497,
    "presented": 3498,
    "sanoi": 3499,
    "machine": 3500,
    "kann": 3501,
    "Son": 3502,
    "previous": 3503,
    "tage": 3504,
    "rec": 3505,
    "couldn": 3506,
    "!--": 3507,
    "loud": 3508,
    "luck": 3509,
    "kno": 3510,
    "för": 3511,
    "Court": 3512,
    "Cast": 3513,
    "ased": 3514,
    "dal": 3515,
    "roll": 3516,
    "anc": 3517,
    "olog": 3518,
    "inches": 3519,
    "ya": 3520,
    "entire": 3521,
    "190": 3522,
    "gri": 3523,
    "taste": 3524,
    "numerous": 3525,
    "sle": 3526,
    "kul": 3527,
    "EL": 3528,
    "kos": 3529,
    "oul": 3530,
    "shell": 3531,
    "worse": 3532,
    "grown": 3533,
    "reven": 3534,
    "contain": 3535,
    "Elle": 3536,
    "infer": 3537,
    "Mont": 3538,
    "equipment": 3539,
    "Vo": 3540,
    "yr": 3541,
    "?'": 3542,
    "us_": 3543,
    "proud": 3544,
    "eless": 3545,
    "indu": 3546,
    "base": 3547,
    "ake": 3548,
    "fü": 3549,
    "constant": 3550,
    "breast": 3551,
    "ail": 3552,
    "haar": 3553,
    "science": 3554,
    "correspond": 3555,
    "companion": 3556,
    "phen": 3557,
    "elä": 3558,
    "powers": 3559,
    "Ich": 3560,
    "ador": 3561,
    "soci": 3562,
    "hills": 3563,
    "First": 3564,
    "atur": 3565,
    "β": 3566,
    "Ven": 3567,
    "type": 3568,
    "olivat": 3569,
    "earnest": 3570,
    "faces": 3571,
    "amen": 3572,
    "advance": 3573,
    "birth": 3574,
    "tum": 3575,
    "Professor": 3576,
    "isn": 3577,
    "Richard": 3578,
    "coun": 3579,
    "mem": 3580,
    "_M": 3581,
    "uttered": 3582,
    "uch": 3583,
    "contribut": 3584,
    "Pi": 3585,
    "pointed": 3586,
    "brief": 3587,
    "practice": 3588,
    "level": 3589,
    "wil": 3590,
    "vielä": 3591,
    "anne": 3592,
    "More": 3593,
    "thr": 3594,
    "loose": 3595,
    "triumph": 3596,
    "ül": 3597,
    "pack": 3598,
    "atre": 3599,
    "grad": 3600,
    "stain": 3601,
    "Ros": 3602,
    "kel": 3603,
    "endo": 3604,
    "besides": 3605,
    "illä": 3606,
    "marry": 3607,
    "rang": 3608,
    "ED": 3609,
    "double": 3610,
    "keit": 3611,
    "opening": 3612,
    "tent": 3613,
    "servant": 3614,
    "judge": 3615,
    "relation": 3616,
    "stre": 3617,
    "remarkable": 3618,
    "imo": 3619,
    "blic": 3620,
    "ried": 3621,
    "moving": 3622,
    "Ger": 3623,
    "consequ": 3624,
    "cin": 3625,
    "dre": 3626,
    "woods": 3627,
    "rot": 3628,
    "dwell": 3629,
    "tea": 3630,
    "45": 3631,
    "succeeded": 3632,
    "superior": 3633,
    "Flor": 3634,
    "visible": 3635,
    "Are": 3636,
    "bless": 3637,
    "rising": 3638,
    "ouse": 3639,
    "ensä": 3640,
    "prit": 3641,
    "grande": 3642,
    "comfort": 3643,
    "served": 3644,
    "acle": 3645,
    "mill": 3646,
    "kaik": 3647,
    "David": 3648,
    "slo": 3649,
    "lake": 3650,
    "ading": 3651,
    "Que": 3652,
    "wis": 3653,
    "39": 3654,
    "kään": 3655,
    ".;": 3656,
    "watched": 3657,
    "lod": 3658,
    "conscious": 3659,
    "resem": 3660,
    "aware": 3661,
    "gt": 3662,
    "events": 3663,
    "cool": 3664,
    "event": 3665,
    "heure": 3666,
    "pract": 3667,
    "fool": 3668,
    "Saint": 3669,
    "deli": 3670,
    "highest": 3671,
    "gla": 3672,
    "based": 3673,
    "ody": 3674,
    "consul": 3675,
    "nest": 3676,
    "attached": 3677,
    "oder": 3678,
    "mess": 3679,
    "%": 3680,
    "vely": 3681,
    "vait": 3682,
    "_T": 3683,
    "tah": 3684,
    "omin": 3685,
    "distant": 3686,
    "ride": 3687,
    "_B": 3688,
    "cking": 3689,
    "iner": 3690,
    "July": 3691,
    "fant": 3692,
    "forces": 3693,
    "rum": 3694,
    "sword": 3695,
    "ancy": 3696,
    "yo": 3697,
    "roof": 3698,
    "anci": 3699,
    "worked": 3700,
    "thir": 3701,
    "caut": 3702,
    "Q": 3703,
    "High": 3704,
    "gard": 3705,
    "einer": 3706,
    "anno": 3707,
    "bold": 3708,
    "spar": 3709,
    "Sil": 3710,
    "70": 3711,
    "oro": 3712,
    "wounded": 3713,
    "Dar": 3714,
    "kau": 3715,
    "otherwise": 3716,
    "ache": 3717,
    "dish": 3718,
    "itor": 3719,
    "available": 3720,
    "ça": 3721,
    "sought": 3722,
    "ει": 3723,
    "werden": 3724,
    "centre": 3725,
    "links": 3726,
    "treatment": 3727,
    "smiled": 3728,
    "arts": 3729,
    "preced": 3730,
    "Spanish": 3731,
    "aper": 3732,
    "tied": 3733,
    "vision": 3734,
    "embar": 3735,
    "altogether": 3736,
    "rim": 3737,
    "distur": 3738,
    "preach": 3739,
    "signed": 3740,
    "obliged": 3741,
    "thank": 3742,
    "kaa": 3743,
    "IL": 3744,
    "chamber": 3745,
    "Jim": 3746,
    "growing": 3747,
    "shar": 3748,
    "beau": 3749,
    "ilo": 3750,
    "flat": 3751,
    "Tr": 3752,
    "prepare": 3753,
    "ws": 3754,
    "tis": 3755,
    "larger": 3756,
    "becomes": 3757,
    "wound": 3758,
    "sorry": 3759,
    "guns": 3760,
    "variety": 3761,
    "glance": 3762,
    "worn": 3763,
    "sigh": 3764,
    "illi": 3765,
    "belief": 3766,
    "nun": 3767,
    "CT": 3768,
    "recon": 3769,
    "usta": 3770,
    "tiin": 3771,
    "rob": 3772,
    "equ": 3773,
    "intim": 3774,
    "performing": 3775,
    "uno": 3776,
    "Den": 3777,
    "fly": 3778,
    "confidence": 3779,
    "ired": 3780,
    "storm": 3781,
    "noticed": 3782,
    "einem": 3783,
    "feelings": 3784,
    "estim": 3785,
    "education": 3786,
    "powerful": 3787,
    "shook": 3788,
    "glory": 3789,
    "introdu": 3790,
    "kingdom": 3791,
    "principle": 3792,
    "anywhere": 3793,
    "ellen": 3794,
    "Washington": 3795,
    "Had": 3796,
    "colon": 3797,
    "East": 3798,
    "patri": 3799,
    "48": 3800,
    "desc": 3801,
    "apparently": 3802,
    "dropped": 3803,
    "spir": 3804,
    "rooms": 3805,
    "Pres": 3806,
    "vy": 3807,
    "sever": 3808,
    "applicable": 3809,
    "Any": 3810,
    "!...": 3811,
    "philoso": 3812,
    "κα": 3813,
    "moins": 3814,
    "forgotten": 3815,
    "usion": 3816,
    "τι": 3817,
    "fate": 3818,
    "Street": 3819,
    "Far": 3820,
    "ihn": 3821,
    "liberty": 3822,
    "throughout": 3823,
    "sion": 3824,
    "ων": 3825,
    "autres": 3826,
    "lé": 3827,
    "zoo": 3828,
    "bridge": 3829,
    "tak": 3830,
    "lon": 3831,
    "employ": 3832,
    "Bro": 3833,
    "thed": 3834,
    "bent": 3835,
    "quarters": 3836,
    "addition": 3837,
    "Dan": 3838,
    "explained": 3839,
    "inet": 3840,
    "Hal": 3841,
    "mortal": 3842,
    "wag": 3843,
    "streets": 3844,
    "assistance": 3845,
    "Other": 3846,
    "ischen": 3847,
    "oted": 3848,
    "ede": 3849,
    "eren": 3850,
    "flu": 3851,
    "slow": 3852,
    "\"'": 3853,
    "hop": 3854,
    "aside": 3855,
    "mental": 3856,
    "vän": 3857,
    "Pla": 3858,
    "creating": 3859,
    "termin": 3860,
    "ira": 3861,
    "vasta": 3862,
    "fifteen": 3863,
    "invol": 3864,
    "link": 3865,
    "waren": 3866,
    "chose": 3867,
    "cious": 3868,
    "promised": 3869,
    "evidently": 3870,
    "abb": 3871,
    "ól": 3872,
    "aine": 3873,
    "allen": 3874,
    "Sidenote": 3875,
    "lass": 3876,
    "häntä": 3877,
    "stones": 3878,
    "nations": 3879,
    "valley": 3880,
    "ë": 3881,
    "vessel": 3882,
    "refused": 3883,
    "wal": 3884,
    "vac": 3885,
    "oo": 3886,
    "pages": 3887,
    "doch": 3888,
    "toute": 3889,
    "tou": 3890,
    "satisfied": 3891,
    "series": 3892,
    "lap": 3893,
    "dur": 3894,
    "accord": 3895,
    "42": 3896,
    "wore": 3897,
    "daily": 3898,
    "fancy": 3899,
    "consist": 3900,
    "quire": 3901,
    "dece": 3902,
    "cum": 3903,
    "igne": 3904,
    "ordin": 3905,
    "police": 3906,
    "¡": 3907,
    "olen": 3908,
    "waters": 3909,
    "otion": 3910,
    "esp": 3911,
    "During": 3912,
    "brave": 3913,
    "maintain": 3914,
    "mention": 3915,
    "jest": 3916,
    "Have": 3917,
    "mich": 3918,
    "stor": 3919,
    "vey": 3920,
    "tired": 3921,
    "eh": 3922,
    "remembered": 3923,
    "population": 3924,
    "wenn": 3925,
    "AG": 3926,
    "Por": 3927,
    "Pet": 3928,
    "mig": 3929,
    "eigh": 3930,
    "plate": 3931,
    "suggested": 3932,
    "increased": 3933,
    "Before": 3934,
    "educ": 3935,
    "lege": 3936,
    "ksen": 3937,
    "Philip": 3938,
    "defective": 3939,
    "reser": 3940,
    "rä": 3941,
    "judgment": 3942,
    "gentlemen": 3943,
    "actually": 3944,
    "yards": 3945,
    "endeav": 3946,
    "ival": 3947,
    "hur": 3948,
    "Phil": 3949,
    "isesti": 3950,
    "pride": 3951,
    "rupt": 3952,
    "smo": 3953,
    "About": 3954,
    "31": 3955,
    "rush": 3956,
    "lia": 3957,
    "volume": 3958,
    "Germany": 3959,
    "lichen": 3960,
    "dollars": 3961,
    "crit": 3962,
    "naturally": 3963,
    "err": 3964,
    "guer": 3965,
    "played": 3966,
    "exceed": 3967,
    "additional": 3968,
    "hearts": 3969,
    "Grand": 3970,
    "grate": 3971,
    "aring": 3972,
    "legs": 3973,
    "April": 3974,
    "Vi": 3975,
    "holy": 3976,
    "title": 3977,
    "Only": 3978,
    "imes": 3979,
    "mou": 3980,
    "toutes": 3981,
    "connected": 3982,
    "persu": 3983,
    "cript": 3984,
    "OU": 3985,
    "writ": 3986,
    "contrary": 3987,
    "estä": 3988,
    "equally": 3989,
    "ados": 3990,
    "knowing": 3991,
    "proportion": 3992,
    "solemn": 3993,
    "oft": 3994,
    "fingers": 3995,
    "sind": 3996,
    "cles": 3997,
    "s_": 3998,
    "profess": 3999,
    "té": 4000,
    "yard": 4001,
    "minds": 4002,
    "wet": 4003,
    "gesch": 4004,
    "umn": 4005,
    "payments": 4006,
    "sacred": 4007,
    "seek": 4008,
    "relief": 4009,
    "sar": 4010,
    "containing": 4011,
    "regret": 4012,
    "limitation": 4013,
    "pic": 4014,
    "results": 4015,
    "Look": 4016,
    "shows": 4017,
    "expressed": 4018,
    "Spain": 4019,
    "mois": 4020,
    "require": 4021,
    "mitä": 4022,
    "zes": 4023,
    "rapid": 4024,
    "hit": 4025,
    "!'": 4026,
    "bodies": 4027,
    "Its": 4028,
    "October": 4029,
    "figures": 4030,
    "bury": 4031,
    "failed": 4032,
    "Smith": 4033,
    "Edward": 4034,
    "speci": 4035,
    "astic": 4036,
    "Jac": 4037,
    "term": 4038,
    "kam": 4039,
    "explain": 4040,
    "purch": 4041,
    "ented": 4042,
    "paragraphs": 4043,
    "treas": 4044,
    "taught": 4045,
    "étaient": 4046,
    "bay": 4047,
    "priest": 4048,
    "pocket": 4049,
    "impression": 4050,
    "liqu": 4051,
    "delle": 4052,
    "advanced": 4053,
    "reign": 4054,
    "ops": 4055,
    "shoulder": 4056,
    "rolled": 4057,
    "price": 4058,
    "gue": 4059,
    "differ": 4060,
    "icial": 4061,
    "deck": 4062,
    "inner": 4063,
    "control": 4064,
    "distinguished": 4065,
    "kaikki": 4066,
    "production": 4067,
    "convi": 4068,
    "Sta": 4069,
    "carrying": 4070,
    "bearing": 4071,
    "divine": 4072,
    "NO": 4073,
    "lun": 4074,
    "ï": 4075,
    "Joseph": 4076,
    "principles": 4077,
    "papers": 4078,
    "development": 4079,
    "ror": 4080,
    "Van": 4081,
    "heit": 4082,
    "mile": 4083,
    "öl": 4084,
    "ßen": 4085,
    "cil": 4086,
    "shop": 4087,
    "Count": 4088,
    "asser": 4089,
    "nice": 4090,
    "completely": 4091,
    "strang": 4092,
    "hl": 4093,
    "ider": 4094,
    "bru": 4095,
    "Sunday": 4096,
    "revol": 4097,
    "necessity": 4098,
    "kein": 4099,
    "aller": 4100,
    "devil": 4101,
    "entity": 4102,
    "lection": 4103,
    "rapidly": 4104,
    "sorrow": 4105,
    "cé": 4106,
    "bted": 4107,
    "desired": 4108,
    "collect": 4109,
    "maar": 4110,
    "consequence": 4111,
    "wä": 4112,
    "Up": 4113,
    "muut": 4114,
    "infin": 4115,
    "Francis": 4116,
    "reve": 4117,
    "ither": 4118,
    "nek": 4119,
    "inside": 4120,
    "recogn": 4121,
    "occurred": 4122,
    "fields": 4123,
    "pounds": 4124,
    "iger": 4125,
    "sty": 4126,
    "lock": 4127,
    "appar": 4128,
    "taan": 4129,
    "stranger": 4130,
    "servants": 4131,
    "avan": 4132,
    "tus": 4133,
    "Del": 4134,
    "White": 4135,
    "mour": 4136,
    "subjects": 4137,
    "päiv": 4138,
    "shape": 4139,
    "vaan": 4140,
    "diam": 4141,
    "golden": 4142,
    "rocks": 4143,
    "pier": 4144,
    "cit": 4145,
    "uniform": 4146,
    "contre": 4147,
    "remarked": 4148,
    "quietly": 4149,
    "regul": 4150,
    "VI": 4151,
    "rable": 4152,
    "quand": 4153,
    "description": 4154,
    "spirits": 4155,
    "committed": 4156,
    "voc": 4157,
    "rub": 4158,
    "Hel": 4159,
    "clus": 4160,
    "πο": 4161,
    "stands": 4162,
    "River": 4163,
    "writer": 4164,
    "illy": 4165,
    "Eu": 4166,
    "supply": 4167,
    "interested": 4168,
    "shoulders": 4169,
    "numbers": 4170,
    "Str": 4171,
    "rights": 4172,
    "deta": 4173,
    "Sim": 4174,
    "soldier": 4175,
    "castle": 4176,
    "jan": 4177,
    "granted": 4178,
    "Pol": 4179,
    "beast": 4180,
    "ushed": 4181,
    "volution": 4182,
    "istic": 4183,
    "freedom": 4184,
    "suff": 4185,
    "Ze": 4186,
    "neighbour": 4187,
    "crossed": 4188,
    "flesh": 4189,
    "cloth": 4190,
    "labour": 4191,
    "windows": 4192,
    "India": 4193,
    "manifest": 4194,
    "ume": 4195,
    "theless": 4196,
    "usted": 4197,
    "needed": 4198,
    "Gal": 4199,
    "advan": 4200,
    "uncle": 4201,
    "fet": 4202,
    "princi": 4203,
    "Dis": 4204,
    "wra": 4205,
    "aksi": 4206,
    "is_": 4207,
    "gathered": 4208,
    "inhabitants": 4209,
    "survi": 4210,
    "tier": 4211,
    "pend": 4212,
    "task": 4213,
    "follows": 4214,
    "diff": 4215,
    "naar": 4216,
    "posed": 4217,
    "discus": 4218,
    "version": 4219,
    "gentle": 4220,
    "useful": 4221,
    "46": 4222,
    "novel": 4223,
    "soil": 4224,
    "derivative": 4225,
    "parties": 4226,
    "complying": 4227,
    "très": 4228,
    "zione": 4229,
    "Wat": 4230,
    "lou": 4231,
    "quelque": 4232,
    "creature": 4233,
    "join": 4234,
    ",—": 4235,
    "generations": 4236,
    "voi": 4237,
    "rendered": 4238,
    "worship": 4239,
    "Irish": 4240,
    "applied": 4241,
    "Intern": 4242,
    "rous": 4243,
    "replacement": 4244,
    "¿": 4245,
    "47": 4246,
    "successful": 4247,
    "Black": 4248,
    "Life": 4249,
    "bore": 4250,
    "satisfaction": 4251,
    "relations": 4252,
    "surprised": 4253,
    "royalties": 4254,
    "tongue": 4255,
    "ples": 4256,
    "gather": 4257,
    "arse": 4258,
    "zy": 4259,
    "suffered": 4260,
    "Pa": 4261,
    "ators": 4262,
    "worden": 4263,
    "toujours": 4264,
    "signific": 4265,
    "etta": 4266,
    "parents": 4267,
    "lest": 4268,
    "Ly": 4269,
    "redistribut": 4270,
    "lev": 4271,
    "performed": 4272,
    "enemies": 4273,
    "chain": 4274,
    "driven": 4275,
    "Mat": 4276,
    "esto": 4277,
    "cio": 4278,
    "unknown": 4279,
    "cial": 4280,
    "poem": 4281,
    "pris": 4282,
    "Fe": 4283,
    "ium": 4284,
    "bun": 4285,
    "cun": 4286,
    "vra": 4287,
    "sentiment": 4288,
    "dei": 4289,
    "iset": 4290,
    "remaining": 4291,
    "theory": 4292,
    "teh": 4293,
    "econom": 4294,
    "liber": 4295,
    "engine": 4296,
    "reported": 4297,
    "Sou": 4298,
    "Hand": 4299,
    "avoid": 4300,
    "wieder": 4301,
    "inch": 4302,
    "thro": 4303,
    "ulous": 4304,
    "telling": 4305,
    "eux": 4306,
    "nod": 4307,
    "brea": 4308,
    "admitted": 4309,
    "dressed": 4310,
    "breakfast": 4311,
    "divided": 4312,
    "fais": 4313,
    "methods": 4314,
    "τε": 4315,
    "Cam": 4316,
    "kn": 4317,
    "Those": 4318,
    "Another": 4319,
    "Ear": 4320,
    "choose": 4321,
    "finding": 4322,
    "deb": 4323,
    "Che": 4324,
    "ician": 4325,
    "Ke": 4326,
    "dangerous": 4327,
    "associ": 4328,
    "fighting": 4329,
    "Und": 4330,
    "accompanied": 4331,
    "cultiv": 4332,
    "Congress": 4333,
    "Mos": 4334,
    "Off": 4335,
    "dice": 4336,
    "transl": 4337,
    "ological": 4338,
    "problem": 4339,
    "Catholic": 4340,
    "terri": 4341,
    "Hen": 4342,
    "iva": 4343,
    "acity": 4344,
    "éta": 4345,
    "rested": 4346,
    "teeth": 4347,
    "Still": 4348,
    "cis": 4349,
    "Italy": 4350,
    "UN": 4351,
    "sano": 4352,
    "spiritual": 4353,
    "absence": 4354,
    "Hon": 4355,
    "loc": 4356,
    "seized": 4357,
    "terre": 4358,
    "IR": 4359,
    "secut": 4360,
    "mons": 4361,
    "schen": 4362,
    "expenses": 4363,
    "sag": 4364,
    "waited": 4365,
    "Coun": 4366,
    "fect": 4367,
    "arest": 4368,
    "rode": 4369,
    "correct": 4370,
    "atory": 4371,
    "mehr": 4372,
    "arrival": 4373,
    "pite": 4374,
    "scre": 4375,
    "Master": 4376,
    "Fer": 4377,
    "phys": 4378,
    "doors": 4379,
    "pau": 4380,
    "rever": 4381,
    "surely": 4382,
    "carriage": 4383,
    "represented": 4384,
    "uck": 4385,
    "treated": 4386,
    "oil": 4387,
    "wird": 4388,
    "sau": 4389,
    "Fri": 4390,
    "mony": 4391,
    "drive": 4392,
    "Nothing": 4393,
    "chest": 4394,
    "salt": 4395,
    "ijk": 4396,
    "gras": 4397,
    "ρα": 4398,
    "constru": 4399,
    "aking": 4400,
    "demanded": 4401,
    "ove": 4402,
    "wat": 4403,
    "ische": 4404,
    "defect": 4405,
    "Wes": 4406,
    "igh": 4407,
    "iin": 4408,
    "arily": 4409,
    "uel": 4410,
    "dozen": 4411,
    "AND": 4412,
    "sillä": 4413,
    "iting": 4414,
    "profession": 4415,
    "enthus": 4416,
    "bey": 4417,
    "donc": 4418,
    "library": 4419,
    "smoke": 4420,
    "hurt": 4421,
    "protest": 4422,
    "milk": 4423,
    "saved": 4424,
    "vät": 4425,
    "thern": 4426,
    "chez": 4427,
    "49": 4428,
    "cet": 4429,
    "proceeded": 4430,
    "oc": 4431,
    "gens": 4432,
    "touched": 4433,
    "hurried": 4434,
    "hole": 4435,
    "accordance": 4436,
    "intention": 4437,
    "rij": 4438,
    "final": 4439,
    "Clar": 4440,
    "twice": 4441,
    "talked": 4442,
    "iii": 4443,
    "immense": 4444,
    "connection": 4445,
    "struggle": 4446,
    "liked": 4447,
    "reck": 4448,
    "exten": 4449,
    "batt": 4450,
    "ox": 4451,
    "oles": 4452,
    "alive": 4453,
    "Jan": 4454,
    "rules": 4455,
    "exact": 4456,
    "cela": 4457,
    "Das": 4458,
    "ales": 4459,
    "itated": 4460,
    "dag": 4461,
    "eager": 4462,
    "rul": 4463,
    "sevent": 4464,
    "siitä": 4465,
    "ads": 4466,
    "cord": 4467,
    "pity": 4468,
    "anta": 4469,
    "Bon": 4470,
    "resto": 4471,
    "ος": 4472,
    "calling": 4473,
    "ità": 4474,
    "sec": 4475,
    "accident": 4476,
    "brain": 4477,
    "Company": 4478,
    "Thou": 4479,
    "gran": 4480,
    "notes": 4481,
    "toms": 4482,
    "tempt": 4483,
    "farther": 4484,
    "volt": 4485,
    "scen": 4486,
    "composed": 4487,
    "umes": 4488,
    "gods": 4489,
    "jamais": 4490,
    "dés": 4491,
    "whenever": 4492,
    "daar": 4493,
    "Rob": 4494,
    "watching": 4495,
    "Bal": 4496,
    "kne": 4497,
    "constitution": 4498,
    "laughter": 4499,
    "iously": 4500,
    "ird": 4501,
    "increase": 4502,
    "ustri": 4503,
    "Heaven": 4504,
    "Div": 4505,
    "gradually": 4506,
    "boats": 4507,
    "zie": 4508,
    "aft": 4509,
    "project": 4510,
    "Hor": 4511,
    "capable": 4512,
    "hide": 4513,
    "duties": 4514,
    "lifted": 4515,
    "llen": 4516,
    "caval": 4517,
    "imagination": 4518,
    "ître": 4519,
    "Cer": 4520,
    "ople": 4521,
    "possibly": 4522,
    "splendid": 4523,
    "audi": 4524,
    "fron": 4525,
    "solic": 4526,
    "profit": 4527,
    "reasonable": 4528,
    "valuable": 4529,
    "obtaining": 4530,
    "liche": 4531,
    "wasn": 4532,
    "dict": 4533,
    "lack": 4534,
    "introduced": 4535,
    "ids": 4536,
    "ston": 4537,
    "Emperor": 4538,
    "rue": 4539,
    "femme": 4540,
    "closely": 4541,
    "cen": 4542,
    "entrance": 4543,
    "uto": 4544,
    "founded": 4545,
    "remo": 4546,
    "Though": 4547,
    "happen": 4548,
    "quality": 4549,
    "Italian": 4550,
    "essä": 4551,
    "Bill": 4552,
    "dern": 4553,
    "consideration": 4554,
    "reader": 4555,
    "ution": 4556,
    "atives": 4557,
    "practical": 4558,
    "erson": 4559,
    "probable": 4560,
    "mann": 4561,
    "objects": 4562,
    "domin": 4563,
    "Mex": 4564,
    "provisions": 4565,
    "midst": 4566,
    "execut": 4567,
    "ENT": 4568,
    "whispered": 4569,
    "September": 4570,
    "Kun": 4571,
    "reaching": 4572,
    "Gree": 4573,
    "store": 4574,
    "sait": 4575,
    "manufact": 4576,
    "slave": 4577,
    "communic": 4578,
    "catch": 4579,
    "acqu": 4580,
    "concerned": 4581,
    "empty": 4582,
    "dia": 4583,
    "palace": 4584,
    "?--": 4585,
    "mounted": 4586,
    "xt": 4587,
    "hil": 4588,
    "ION": 4589,
    "quelques": 4590,
    "branches": 4591,
    "Han": 4592,
    "33": 4593,
    "performan": 4594,
    "Hy": 4595,
    "accoun": 4596,
    "quelle": 4597,
    "pardon": 4598,
    "rap": 4599,
    "actual": 4600,
    "suffering": 4601,
    "roi": 4602,
    "staff": 4603,
    "itary": 4604,
    "icious": 4605,
    "genius": 4606,
    "angry": 4607,
    "receipt": 4608,
    "usal": 4609,
    "swift": 4610,
    "listen": 4611,
    "Bob": 4612,
    "busy": 4613,
    "crime": 4614,
    "Ba": 4615,
    "handsome": 4616,
    "prayer": 4617,
    "gray": 4618,
    "bishop": 4619,
    "porte": 4620,
    "soit": 4621,
    "owns": 4622,
    "abund": 4623,
    "gos": 4624,
    "male": 4625,
    "dete": 4626,
    "putting": 4627,
    "highly": 4628,
    "Gre": 4629,
    "wand": 4630,
    "angel": 4631,
    "haben": 4632,
    "_F": 4633,
    "Indeed": 4634,
    "burning": 4635,
    "kar": 4636,
    "vap": 4637,
    "literature": 4638,
    "Mi": 4639,
    "180": 4640,
    "itti": 4641,
    "stars": 4642,
    "Law": 4643,
    "sitten": 4644,
    "walking": 4645,
    "flower": 4646,
    "ø": 4647,
    "pup": 4648,
    "grant": 4649,
    "excitement": 4650,
    "Book": 4651,
    "nights": 4652,
    "Among": 4653,
    "faithful": 4654,
    "ames": 4655,
    "bene": 4656,
    "jotka": 4657,
    "phy": 4658,
    "careful": 4659,
    "division": 4660,
    "ggl": 4661,
    "expense": 4662,
    "sinc": 4663,
    "isher": 4664,
    "flight": 4665,
    "derived": 4666,
    "Gi": 4667,
    "voyage": 4668,
    "Long": 4669,
    "anto": 4670,
    "vall": 4671,
    "seine": 4672,
    "stern": 4673,
    "μα": 4674,
    "plants": 4675,
    "obser": 4676,
    "zum": 4677,
    "Herr": 4678,
    "Again": 4679,
    "suis": 4680,
    "clu": 4681,
    "agent": 4682,
    "stated": 4683,
    "practically": 4684,
    "ula": 4685,
    "solid": 4686,
    "vano": 4687,
    "Harry": 4688,
    "informed": 4689,
    "aval": 4690,
    "iller": 4691,
    "iche": 4692,
    "domain": 4693,
    "tha": 4694,
    "belie": 4695,
    "appreci": 4696,
    "arr": 4697,
    "viously": 4698,
    "nell": 4699,
    "proposed": 4700,
    "excited": 4701,
    "interests": 4702,
    "lovely": 4703,
    "features": 4704,
    "bing": 4705,
    "region": 4706,
    "gained": 4707,
    "lee": 4708,
    "Major": 4709,
    "hö": 4710,
    "whe": 4711,
    "corps": 4712,
    "absolutely": 4713,
    "views": 4714,
    "Hall": 4715,
    "oit": 4716,
    "moder": 4717,
    "amongst": 4718,
    "bers": 4719,
    "ountain": 4720,
    "prompt": 4721,
    "bac": 4722,
    "positions": 4723,
    "vessels": 4724,
    "Non": 4725,
    "irs": 4726,
    "circle": 4727,
    "tho": 4728,
    "retreat": 4729,
    "olet": 4730,
    "butter": 4731,
    "idän": 4732,
    "welcome": 4733,
    "Royal": 4734,
    "falling": 4735,
    "stem": 4736,
    "hti": 4737,
    "mät": 4738,
    "ainen": 4739,
    "fund": 4740,
    "_L": 4741,
    "growth": 4742,
    "hearing": 4743,
    "arranged": 4744,
    "éri": 4745,
    "influ": 4746,
    "exha": 4747,
    "increasing": 4748,
    "ép": 4749,
    "haven": 4750,
    "enen": 4751,
    "extraordinary": 4752,
    "invent": 4753,
    "sympathy": 4754,
    "wants": 4755,
    "posing": 4756,
    "tale": 4757,
    "showing": 4758,
    "votre": 4759,
    "wei": 4760,
    "abo": 4761,
    "noise": 4762,
    "Pre": 4763,
    "vaik": 4764,
    "jok": 4765,
    "creation": 4766,
    "Sar": 4767,
    "bott": 4768,
    "remark": 4769,
    "Mus": 4770,
    "jun": 4771,
    "pendant": 4772,
    "necessarily": 4773,
    "moments": 4774,
    "prisoners": 4775,
    "History": 4776,
    "ross": 4777,
    "isch": 4778,
    "ovat": 4779,
    "gam": 4780,
    "buried": 4781,
    "protection": 4782,
    "exception": 4783,
    "Holy": 4784,
    "causes": 4785,
    "chè": 4786,
    "partly": 4787,
    "cler": 4788,
    "thoroughly": 4789,
    "faut": 4790,
    "assured": 4791,
    "desper": 4792,
    "comment": 4793,
    "iksi": 4794,
    "clam": 4795,
    "Little": 4796,
    "CO": 4797,
    "ech": 4798,
    "market": 4799,
    "orous": 4800,
    "eding": 4801,
    "syn": 4802,
    "inten": 4803,
    "änyt": 4804,
    "evident": 4805,
    "ounce": 4806,
    "imagine": 4807,
    "commit": 4808,
    "buy": 4809,
    "stories": 4810,
    "fru": 4811,
    "Brown": 4812,
    "iture": 4813,
    "fest": 4814,
    "quantity": 4815,
    "directed": 4816,
    "shire": 4817,
    "occ": 4818,
    "nose": 4819,
    "shout": 4820,
    "comfortable": 4821,
    "lux": 4822,
    "policy": 4823,
    "wret": 4824,
    "Nature": 4825,
    "cies": 4826,
    "virtue": 4827,
    "ού": 4828,
    "November": 4829,
    "hither": 4830,
    "quoi": 4831,
    "disease": 4832,
    "aling": 4833,
    "kins": 4834,
    "rin": 4835,
    "Gar": 4836,
    "icip": 4837,
    "descend": 4838,
    "formation": 4839,
    "cities": 4840,
    "psy": 4841,
    "January": 4842,
    "govern": 4843,
    "eten": 4844,
    "truly": 4845,
    "rag": 4846,
    "guar": 4847,
    "research": 4848,
    "intelli": 4849,
    "ois": 4850,
    "commission": 4851,
    "charged": 4852,
    "ower": 4853,
    "vos": 4854,
    "separ": 4855,
    "itute": 4856,
    "seated": 4857,
    "earlier": 4858,
    "ference": 4859,
    "usement": 4860,
    "Majesty": 4861,
    "scri": 4862,
    "observ": 4863,
    "advice": 4864,
    "shame": 4865,
    "fellows": 4866,
    "changes": 4867,
    "operation": 4868,
    "cad": 4869,
    "begun": 4870,
    "indign": 4871,
    "notre": 4872,
    "Isa": 4873,
    "meat": 4874,
    "presently": 4875,
    "bbe": 4876,
    "nearer": 4877,
    "cting": 4878,
    "tend": 4879,
    "fairly": 4880,
    "teenth": 4881,
    "32": 4882,
    "Very": 4883,
    "situ": 4884,
    "uma": 4885,
    "fault": 4886,
    "Res": 4887,
    "bres": 4888,
    "patience": 4889,
    "vul": 4890,
    "yeux": 4891,
    "unable": 4892,
    "lift": 4893,
    "huge": 4894,
    "tic": 4895,
    "Pri": 4896,
    "understanding": 4897,
    "City": 4898,
    "ception": 4899,
    "olf": 4900,
    "dread": 4901,
    "eni": 4902,
    "Under": 4903,
    "gloom": 4904,
    "anal": 4905,
    "ande": 4906,
    "surrounded": 4907,
    "minist": 4908,
    "ook": 4909,
    "dic": 4910,
    "NE": 4911,
    "tuo": 4912,
    "stic": 4913,
    "hid": 4914,
    "ahr": 4915,
    "100": 4916,
    "wholly": 4917,
    "skill": 4918,
    "vice": 4919,
    "female": 4920,
    "privi": 4921,
    "ikä": 4922,
    "kinds": 4923,
    "gang": 4924,
    "ols": 4925,
    "Like": 4926,
    "pac": 4927,
    "engage": 4928,
    "Art": 4929,
    "jam": 4930,
    "older": 4931,
    "neu": 4932,
    "clas": 4933,
    "fined": 4934,
    "emin": 4935,
    "drop": 4936,
    "Sto": 4937,
    "esti": 4938,
    "Monsieur": 4939,
    "ahead": 4940,
    "cart": 4941,
    "dol": 4942,
    "singular": 4943,
    "Emp": 4944,
    "Bay": 4945,
    "amid": 4946,
    "`": 4947,
    "acts": 4948,
    "hence": 4949,
    "remove": 4950,
    "cure": 4951,
    "sacrifice": 4952,
    "ason": 4953,
    "lis": 4954,
    "admit": 4955,
    "tribut": 4956,
    "Mau": 4957,
    "surround": 4958,
    "ceased": 4959,
    "indul": 4960,
    "myö": 4961,
    "nog": 4962,
    "ost": 4963,
    "stal": 4964,
    "article": 4965,
    "Na": 4966,
    "Pen": 4967,
    "rison": 4968,
    "worst": 4969,
    "wander": 4970,
    "ola": 4971,
    "energy": 4972,
    "Mid": 4973,
    "hut": 4974,
    "listened": 4975,
    "whilst": 4976,
    "Japan": 4977,
    "Ein": 4978,
    "relie": 4979,
    "fal": 4980,
    "obst": 4981,
    "Sol": 4982,
    "permanent": 4983,
    "leap": 4984,
    "adopted": 4985,
    "slightly": 4986,
    "becoming": 4987,
    "December": 4988,
    "repe": 4989,
    "olle": 4990,
    "wart": 4991,
    "wings": 4992,
    "Uncle": 4993,
    "classes": 4994,
    "affair": 4995,
    "ihin": 4996,
    "ement": 4997,
    "contained": 4998,
    "cloud": 4999,
    "ût": 5000,
    "pect": 5001,
    "rak": 5002,
    "Jean": 5003,
    "perform": 5004,
    "sink": 5005,
    "intelligence": 5006,
    "fleet": 5007,
    "sending": 5008,
    "Use": 5009,
    "ák": 5010,
    "SE": 5011,
    "chosen": 5012,
    "quella": 5013,
    "kindly": 5014,
    "couple": 5015,
    "statement": 5016,
    "gment": 5017,
    "nis": 5018,
    "stick": 5019,
    "cano": 5020,
    "ria": 5021,
    "hundreds": 5022,
    "costs": 5023,
    "dil": 5024,
    "terror": 5025,
    "thinks": 5026,
    "destroyed": 5027,
    "kön": 5028,
    "delay": 5029,
    "tait": 5030,
    "memor": 5031,
    "commercial": 5032,
    "chor": 5033,
    "total": 5034,
    "ience": 5035,
    "tto": 5036,
    "uli": 5037,
    "Society": 5038,
    "ght": 5039,
    "fourth": 5040,
    "izing": 5041,
    "oth": 5042,
    "exercise": 5043,
    "Besides": 5044,
    "separate": 5045,
    "deeply": 5046,
    "owed": 5047,
    "striking": 5048,
    "provin": 5049,
    "mont": 5050,
    "strict": 5051,
    "64": 5052,
    "monde": 5053,
    "fought": 5054,
    "smooth": 5055,
    "playing": 5056,
    "Ireland": 5057,
    "wisdom": 5058,
    "vez": 5059,
    "glow": 5060,
    "miel": 5061,
    "tells": 5062,
    "nim": 5063,
    "recomm": 5064,
    "flour": 5065,
    "desir": 5066,
    "leader": 5067,
    "Ku": 5068,
    "hate": 5069,
    "aves": 5070,
    "wheel": 5071,
    "issue": 5072,
    "bringing": 5073,
    "artist": 5074,
    "vention": 5075,
    "Sup": 5076,
    "drove": 5077,
    "visited": 5078,
    "instinct": 5079,
    "itter": 5080,
    "reasons": 5081,
    "receiving": 5082,
    "devoted": 5083,
    "ág": 5084,
    "_s": 5085,
    "nia": 5086,
    "lais": 5087,
    "rier": 5088,
    "Hill": 5089,
    "ainsi": 5090,
    "copied": 5091,
    "dying": 5092,
    "dle": 5093,
    "determin": 5094,
    "ivo": 5095,
    "quet": 5096,
    "sse": 5097,
    "fever": 5098,
    "betra": 5099,
    "mud": 5100,
    "mö": 5101,
    "mam": 5102,
    "services": 5103,
    "fy": 5104,
    "présent": 5105,
    "import": 5106,
    "innocent": 5107,
    "Island": 5108,
    "citizens": 5109,
    "yours": 5110,
    "constantly": 5111,
    "preva": 5112,
    "friendly": 5113,
    "Except": 5114,
    "ā": 5115,
    "extreme": 5116,
    "investig": 5117,
    "gay": 5118,
    "hell": 5119,
    "condem": 5120,
    "conscience": 5121,
    "Ori": 5122,
    "signs": 5123,
    "dull": 5124,
    "Reg": 5125,
    "safety": 5126,
    "ties": 5127,
    "την": 5128,
    "Parliament": 5129,
    "explo": 5130,
    "jusqu": 5131,
    "Jew": 5132,
    "Union": 5133,
    "references": 5134,
    "Sur": 5135,
    "BER": 5136,
    "με": 5137,
    "certa": 5138,
    "δι": 5139,
    "οι": 5140,
    "prisoner": 5141,
    "Repu": 5142,
    "finger": 5143,
    "weap": 5144,
    "_I": 5145,
    "parte": 5146,
    "dor": 5147,
    "hoped": 5148,
    "oblig": 5149,
    "179": 5150,
    "horn": 5151,
    "virtu": 5152,
    "goods": 5153,
    "delicate": 5154,
    "decor": 5155,
    "hopes": 5156,
    "ennen": 5157,
    "source": 5158,
    "doctrine": 5159,
    "kee": 5160,
    "aria": 5161,
    "tie": 5162,
    "disput": 5163,
    "Mur": 5164,
    "ala": 5165,
    "brilliant": 5166,
    "wicked": 5167,
    "pad": 5168,
    "supper": 5169,
    "section": 5170,
    "dogs": 5171,
    "Aunt": 5172,
    "improve": 5173,
    "oni": 5174,
    "pulled": 5175,
    "contem": 5176,
    "YOU": 5177,
    "bere": 5178,
    "agreeable": 5179,
    "queen": 5180,
    "slaves": 5181,
    "solicit": 5182,
    "Minä": 5183,
    "impul": 5184,
    "prud": 5185,
    "conclusion": 5186,
    "zing": 5187,
    "adi": 5188,
    "isters": 5189,
    "hommes": 5190,
    "jer": 5191,
    "recently": 5192,
    "susp": 5193,
    "falls": 5194,
    "mistake": 5195,
    "ioni": 5196,
    "vres": 5197,
    "resolved": 5198,
    "apply": 5199,
    "chiefly": 5200,
    "irt": 5201,
    "Tri": 5202,
    "Michael": 5203,
    "vote": 5204,
    "cli": 5205,
    "ima": 5206,
    "sugar": 5207,
    "laughing": 5208,
    "reas": 5209,
    "articles": 5210,
    "atively": 5211,
    "Cu": 5212,
    "administ": 5213,
    "rend": 5214,
    "hospital": 5215,
    "calcul": 5216,
    "sey": 5217,
    "_D": 5218,
    "itz": 5219,
    "factory": 5220,
    "utes": 5221,
    "seule": 5222,
    "offici": 5223,
    "gently": 5224,
    "borne": 5225,
    "sport": 5226,
    "exempt": 5227,
    "manage": 5228,
    "lice": 5229,
    "shine": 5230,
    "alles": 5231,
    "aten": 5232,
    "victory": 5233,
    "Ni": 5234,
    "ruin": 5235,
    "message": 5236,
    "Scott": 5237,
    "mult": 5238,
    "ae": 5239,
    "ester": 5240,
    "acted": 5241,
    "sumed": 5242,
    "guide": 5243,
    "80": 5244,
    "duc": 5245,
    "craft": 5246,
    "ams": 5247,
    "näh": 5248,
    "trial": 5249,
    "heav": 5250,
    "grey": 5251,
    "effects": 5252,
    "developed": 5253,
    "fication": 5254,
    "shelter": 5255,
    "natives": 5256,
    "unut": 5257,
    "calls": 5258,
    "escaped": 5259,
    "succeed": 5260,
    "horri": 5261,
    "Tä": 5262,
    "lue": 5263,
    "comple": 5264,
    "obsc": 5265,
    "atte": 5266,
    "lover": 5267,
    "grief": 5268,
    "consent": 5269,
    "doesn": 5270,
    "kot": 5271,
    "vious": 5272,
    "doct": 5273,
    "interval": 5274,
    "wilder": 5275,
    "emer": 5276,
    "despair": 5277,
    "smiling": 5278,
    "Take": 5279,
    "severe": 5280,
    "kings": 5281,
    "vot": 5282,
    "newsp": 5283,
    "fection": 5284,
    "rear": 5285,
    "Mit": 5286,
    "plenty": 5287,
    "Mother": 5288,
    "idence": 5289,
    "acles": 5290,
    "amo": 5291,
    "veget": 5292,
    "western": 5293,
    "sovereign": 5294,
    "Nat": 5295,
    "raise": 5296,
    "Ei": 5297,
    "tact": 5298,
    "tuli": 5299,
    "gé": 5300,
    "preci": 5301,
    "Governor": 5302,
    "ξ": 5303,
    "mode": 5304,
    "tort": 5305,
    "sheep": 5306,
    "hib": 5307,
    "ρι": 5308,
    "mechan": 5309,
    "aspect": 5310,
    "fed": 5311,
    "auto": 5312,
    "prosper": 5313,
    "Having": 5314,
    "attitude": 5315,
    "torn": 5316,
    "compr": 5317,
    "Latin": 5318,
    "Adam": 5319,
    "jat": 5320,
    "ussi": 5321,
    "folk": 5322,
    "idity": 5323,
    "pick": 5324,
    "prop": 5325,
    "blank": 5326,
    "Once": 5327,
    "quant": 5328,
    "cree": 5329,
    "ittä": 5330,
    "imag": 5331,
    "job": 5332,
    "vais": 5333,
    "irl": 5334,
    "temple": 5335,
    "nd": 5336,
    "oney": 5337,
    "Arthur": 5338,
    "disappeared": 5339,
    "althy": 5340,
    "cousin": 5341,
    "smaller": 5342,
    "Wood": 5343,
    "towns": 5344,
    "lab": 5345,
    "clouds": 5346,
    "federal": 5347,
    "Three": 5348,
    "needs": 5349,
    "62": 5350,
    "ief": 5351,
    "spl": 5352,
    "Rev": 5353,
    "cattle": 5354,
    "banks": 5355,
    "nervous": 5356,
    "contro": 5357,
    "reports": 5358,
    "registered": 5359,
    "employe": 5360,
    "rival": 5361,
    "lung": 5362,
    "rer": 5363,
    "cult": 5364,
    "minun": 5365,
    "union": 5366,
    "gleich": 5367,
    "poison": 5368,
    "Aus": 5369,
    "stuff": 5370,
    "pois": 5371,
    "sufficiently": 5372,
    "ustr": 5373,
    "Het": 5374,
    "thunder": 5375,
    "reference": 5376,
    "mercy": 5377,
    "amaan": 5378,
    "eden": 5379,
    "cker": 5380,
    "huom": 5381,
    "affected": 5382,
    "kol": 5383,
    "chte": 5384,
    "mistress": 5385,
    "critic": 5386,
    "äh": 5387,
    "avaient": 5388,
    "minded": 5389,
    "Plain": 5390,
    "arose": 5391,
    "bought": 5392,
    "jonka": 5393,
    "Indi": 5394,
    "nah": 5395,
    "compelled": 5396,
    "everywhere": 5397,
    "accustomed": 5398,
    "rir": 5399,
    "Chinese": 5400,
    "addressed": 5401,
    "victim": 5402,
    "urer": 5403,
    "desert": 5404,
    "consciousness": 5405,
    "purposes": 5406,
    "Day": 5407,
    "Rose": 5408,
    "poik": 5409,
    "stret": 5410,
    "critical": 5411,
    "European": 5412,
    "district": 5413,
    "ouver": 5414,
    "xed": 5415,
    "corrupt": 5416,
    "Green": 5417,
    "elled": 5418,
    "Oli": 5419,
    "transcri": 5420,
    "Tem": 5421,
    "Dou": 5422,
    "orted": 5423,
    "tower": 5424,
    "não": 5425,
    "trois": 5426,
    "throne": 5427,
    "specified": 5428,
    "dich": 5429,
    "thousands": 5430,
    "Mu": 5431,
    "extended": 5432,
    "National": 5433,
    "kys": 5434,
    "details": 5435,
    "reward": 5436,
    "appointment": 5437,
    "conse": 5438,
    "tai": 5439,
    "Trans": 5440,
    "eno": 5441,
    "isy": 5442,
    "schon": 5443,
    "Mel": 5444,
    "Mark": 5445,
    "vá": 5446,
    "route": 5447,
    "zou": 5448,
    "dus": 5449,
    "corpor": 5450,
    "hidden": 5451,
    "liance": 5452,
    "Sand": 5453,
    "aunt": 5454,
    "vine": 5455,
    "│": 5456,
    "fulness": 5457,
    "sprang": 5458,
    "provision": 5459,
    "lier": 5460,
    "lag": 5461,
    "aste": 5462,
    "chapter": 5463,
    "specim": 5464,
    "pled": 5465,
    "preserve": 5466,
    "recognized": 5467,
    "restrictions": 5468,
    "penet": 5469,
    "Bishop": 5470,
    "Doctor": 5471,
    "choice": 5472,
    "grou": 5473,
    "jum": 5474,
    "meal": 5475,
    "coura": 5476,
    "Bes": 5477,
    "intend": 5478,
    "advis": 5479,
    "ű": 5480,
    "violent": 5481,
    "gross": 5482,
    "Corn": 5483,
    "infant": 5484,
    "ader": 5485,
    "hurry": 5486,
    "XX": 5487,
    "Az": 5488,
    "ulated": 5489,
    "gegen": 5490,
    "painted": 5491,
    "anche": 5492,
    "fon": 5493,
    "idad": 5494,
    "quar": 5495,
    "affect": 5496,
    "contempt": 5497,
    "distress": 5498,
    "jd": 5499,
    "Tell": 5500,
    "koko": 5501,
    "ión": 5502,
    "praise": 5503,
    "dawn": 5504,
    "fled": 5505,
    "Each": 5506,
    "poetry": 5507,
    "Aber": 5508,
    "claimed": 5509,
    "Elizabeth": 5510,
    "odd": 5511,
    "Rel": 5512,
    "Martin": 5513,
    "displayed": 5514,
    "Gold": 5515,
    "moun": 5516,
    "frequent": 5517,
    "capit": 5518,
    "universal": 5519,
    "75": 5520,
    "ől": 5521,
    "jota": 5522,
    "attended": 5523,
    "IG": 5524,
    "illed": 5525,
    "pected": 5526,
    "cease": 5527,
    "jar": 5528,
    "tight": 5529,
    "rei": 5530,
    "knees": 5531,
    "expedition": 5532,
    "roads": 5533,
    "everybody": 5534,
    "supre": 5535,
    "dann": 5536,
    "argument": 5537,
    "Cent": 5538,
    "öt": 5539,
    "hotel": 5540,
    "brand": 5541,
    "Russian": 5542,
    "murm": 5543,
    "44": 5544,
    "Austri": 5545,
    "mitään": 5546,
    "indicate": 5547,
    "dance": 5548,
    "ecc": 5549,
    "grie": 5550,
    "strike": 5551,
    "Right": 5552,
    "baby": 5553,
    "outer": 5554,
    "há": 5555,
    "arise": 5556,
    "cz": 5557,
    "charm": 5558,
    "eggs": 5559,
    "bree": 5560,
    "entertain": 5561,
    "friendship": 5562,
    "secon": 5563,
    "seas": 5564,
    "itate": 5565,
    "transport": 5566,
    "ultim": 5567,
    "loro": 5568,
    "dignity": 5569,
    "plans": 5570,
    "absor": 5571,
    "handed": 5572,
    "flash": 5573,
    "repro": 5574,
    "uin": 5575,
    "extremely": 5576,
    "Stra": 5577,
    "exists": 5578,
    "pus": 5579,
    "Fin": 5580,
    "peas": 5581,
    "depends": 5582,
    "stup": 5583,
    "ideal": 5584,
    "Boston": 5585,
    "appe": 5586,
    "distingu": 5587,
    "destruction": 5588,
    "burden": 5589,
    "seldom": 5590,
    "ivan": 5591,
    "kuul": 5592,
    "element": 5593,
    "commanded": 5594,
    "habits": 5595,
    "bat": 5596,
    "organized": 5597,
    "branch": 5598,
    "reality": 5599,
    "charges": 5600,
    "sooner": 5601,
    "yesterday": 5602,
    "feather": 5603,
    "neighbor": 5604,
    "brothers": 5605,
    "properly": 5606,
    "singing": 5607,
    "oked": 5608,
    "medi": 5609,
    "fog": 5610,
    "negro": 5611,
    "coal": 5612,
    "Both": 5613,
    "knife": 5614,
    "Would": 5615,
    "discovery": 5616,
    "sav": 5617,
    "compet": 5618,
    "cken": 5619,
    "recent": 5620,
    "rece": 5621,
    "iny": 5622,
    "pipe": 5623,
    "nobody": 5624,
    "damages": 5625,
    "nau": 5626,
    "precious": 5627,
    "eness": 5628,
    "solution": 5629,
    "Virginia": 5630,
    "diese": 5631,
    "plat": 5632,
    "Britain": 5633,
    "Since": 5634,
    "compla": 5635,
    "jeune": 5636,
    "rés": 5637,
    "setting": 5638,
    "interrupted": 5639,
    "voit": 5640,
    "deem": 5641,
    "Pope": 5642,
    "ção": 5643,
    "interpre": 5644,
    "souls": 5645,
    "fatal": 5646,
    "ANT": 5647,
    "swal": 5648,
    "devant": 5649,
    "Spe": 5650,
    "oms": 5651,
    "admiration": 5652,
    "akin": 5653,
    "powder": 5654,
    "venir": 5655,
    "Tal": 5656,
    "tête": 5657,
    "attribut": 5658,
    "schools": 5659,
    "λλ": 5660,
    "Council": 5661,
    "hibition": 5662,
    "frame": 5663,
    "kap": 5664,
    "cabin": 5665,
    "promoting": 5666,
    "drun": 5667,
    "mate": 5668,
    "lá": 5669,
    "kum": 5670,
    "perpet": 5671,
    "°": 5672,
    "forming": 5673,
    "Sel": 5674,
    "tip": 5675,
    "alarm": 5676,
    "añ": 5677,
    "Dieu": 5678,
    "xx": 5679,
    "learning": 5680,
    "build": 5681,
    "denn": 5682,
    "exper": 5683,
    "void": 5684,
    "zza": 5685,
    "families": 5686,
    "vement": 5687,
    "million": 5688,
    "IC": 5689,
    "lights": 5690,
    "tages": 5691,
    "Bl": 5692,
    "compl": 5693,
    "stretched": 5694,
    "ancho": 5695,
    "medic": 5696,
    "decla": 5697,
    "cular": 5698,
    "jäl": 5699,
    "mint": 5700,
    "rejo": 5701,
    "Juli": 5702,
    "pie": 5703,
    "foolish": 5704,
    "Vous": 5705,
    "Pier": 5706,
    "display": 5707,
    "Earl": 5708,
    "liability": 5709,
    "metal": 5710,
    "versch": 5711,
    "koi": 5712,
    "emotion": 5713,
    "Lie": 5714,
    "Stu": 5715,
    "greet": 5716,
    "bot": 5717,
    "IM": 5718,
    "kitchen": 5719,
    "incess": 5720,
    "sais": 5721,
    "occasionally": 5722,
    "leaf": 5723,
    "rass": 5724,
    "majority": 5725,
    "obed": 5726,
    "counter": 5727,
    "mod": 5728,
    "gift": 5729,
    "Kar": 5730,
    "subsequ": 5731,
    "sinä": 5732,
    "ply": 5733,
    "pig": 5734,
    "bones": 5735,
    "contains": 5736,
    "approached": 5737,
    "Pap": 5738,
    "companions": 5739,
    "nella": 5740,
    "clever": 5741,
    "Ann": 5742,
    "qualities": 5743,
    "gging": 5744,
    "ape": 5745,
    "monarch": 5746,
    "mob": 5747,
    "πρ": 5748,
    "kindness": 5749,
    "avant": 5750,
    "jal": 5751,
    "όν": 5752,
    "saa": 5753,
    "incident": 5754,
    "embra": 5755,
    "pé": 5756,
    "resh": 5757,
    "Note": 5758,
    "dru": 5759,
    "Lou": 5760,
    "cade": 5761,
    "mixed": 5762,
    "abor": 5763,
    "throat": 5764,
    "Russia": 5765,
    "beha": 5766,
    "confusion": 5767,
    "itut": 5768,
    "tanto": 5769,
    "inut": 5770,
    "parent": 5771,
    "February": 5772,
    "Def": 5773,
    "rope": 5774,
    "governor": 5775,
    "acquaintance": 5776,
    "hren": 5777,
    "atto": 5778,
    "offen": 5779,
    "gets": 5780,
    ";--": 5781,
    "inka": 5782,
    "buildings": 5783,
    "voices": 5784,
    "kommen": 5785,
    "construction": 5786,
    "thrust": 5787,
    "schol": 5788,
    "widest": 5789,
    "northern": 5790,
    "computer": 5791,
    "contrast": 5792,
    "ington": 5793,
    "centuries": 5794,
    "fs": 5795,
    "Ty": 5796,
    "reckon": 5797,
    "countenance": 5798,
    "scientific": 5799,
    "lessly": 5800,
    "dien": 5801,
    "asleep": 5802,
    "characters": 5803,
    "acquainted": 5804,
    "docu": 5805,
    "£": 5806,
    "awful": 5807,
    "isa": 5808,
    "pound": 5809,
    "rant": 5810,
    "onde": 5811,
    "weary": 5812,
    "stepped": 5813,
    "Israel": 5814,
    "brig": 5815,
    "inher": 5816,
    "Scotland": 5817,
    "Napoleon": 5818,
    "mein": 5819,
    "formerly": 5820,
    "propri": 5821,
    "literary": 5822,
    "ario": 5823,
    "178": 5824,
    "dio": 5825,
    "arrange": 5826,
    "confirmed": 5827,
    "celui": 5828,
    "tex": 5829,
    "inclined": 5830,
    "ease": 5831,
    "accomplished": 5832,
    "younger": 5833,
    "inse": 5834,
    "Ap": 5835,
    "tradition": 5836,
    "tenden": 5837,
    "mme": 5838,
    "jes": 5839,
    "ounced": 5840,
    "pressure": 5841,
    "preserved": 5842,
    "returning": 5843,
    "fus": 5844,
    "prominently": 5845,
    "asking": 5846,
    "refer": 5847,
    "assu": 5848,
    "yttä": 5849,
    "difficulties": 5850,
    "Africa": 5851,
    "shed": 5852,
    "iding": 5853,
    "determine": 5854,
    "ettu": 5855,
    "insul": 5856,
    "Sea": 5857,
    "argu": 5858,
    "ners": 5859,
    "angle": 5860,
    "file": 5861,
    "\"--": 5862,
    "domestic": 5863,
    "shouted": 5864,
    "picked": 5865,
    "intense": 5866,
    "furnished": 5867,
    "Dor": 5868,
    "regiment": 5869,
    "pill": 5870,
    "rushed": 5871,
    "urious": 5872,
    "magn": 5873,
    "ßt": 5874,
    "writers": 5875,
    "counsel": 5876,
    "imm": 5877,
    "prise": 5878,
    "horizon": 5879,
    "spel": 5880,
    "Hart": 5881,
    "xim": 5882,
    ".«": 5883,
    "nin": 5884,
    "Accord": 5885,
    "tle": 5886,
    "Spirit": 5887,
    "lö": 5888,
    "flying": 5889,
    "Cla": 5890,
    "Out": 5891,
    "elling": 5892,
    "readable": 5893,
    "Secret": 5894,
    "commun": 5895,
    "delivered": 5896,
    "suiv": 5897,
    "eping": 5898,
    "génér": 5899,
    "Anton": 5900,
    "ieu": 5901,
    "collected": 5902,
    "fanci": 5903,
    "slip": 5904,
    "gover": 5905,
    "tul": 5906,
    "heap": 5907,
    "Zeit": 5908,
    "selbst": 5909,
    "cke": 5910,
    "Scho": 5911,
    "um_": 5912,
    "^": 5913,
    "ao": 5914,
    "Because": 5915,
    "aks": 5916,
    "wick": 5917,
    "ishes": 5918,
    "lighted": 5919,
    "wishes": 5920,
    "Cop": 5921,
    "celebrated": 5922,
    "opposition": 5923,
    "wes": 5924,
    "Joe": 5925,
    "UR": 5926,
    "frag": 5927,
    "Ox": 5928,
    "unge": 5929,
    "Cas": 5930,
    "tit": 5931,
    "hay": 5932,
    "uc": 5933,
    "waste": 5934,
    "gif": 5935,
    "disclaim": 5936,
    "urch": 5937,
    "absolute": 5938,
    "reduced": 5939,
    "Nous": 5940,
    "trace": 5941,
    "revi": 5942,
    "tempor": 5943,
    "crew": 5944,
    "ossa": 5945,
    "Bible": 5946,
    "Which": 5947,
    "sour": 5948,
    "odes": 5949,
    "Act": 5950,
    "Jews": 5951,
    "strongly": 5952,
    "lett": 5953,
    "atus": 5954,
    "εις": 5955,
    "sounds": 5956,
    "Tit": 5957,
    "_G": 5958,
    "warrant": 5959,
    "helped": 5960,
    "seed": 5961,
    "sixty": 5962,
    "depos": 5963,
    "Terms": 5964,
    "swept": 5965,
    "pent": 5966,
    "owing": 5967,
    "55": 5968,
    "proprietary": 5969,
    "cture": 5970,
    "asion": 5971,
    "mant": 5972,
    "settle": 5973,
    "icken": 5974,
    "central": 5975,
    "substance": 5976,
    "rated": 5977,
    "glorious": 5978,
    "breaking": 5979,
    "instantly": 5980,
    "calculated": 5981,
    "appearing": 5982,
    "movements": 5983,
    "Ti": 5984,
    "_E": 5985,
    "ager": 5986,
    "archite": 5987,
    "wan": 5988,
    "PG": 5989,
    "issance": 5990,
    "Ob": 5991,
    "elder": 5992,
    "imme": 5993,
    "philosophy": 5994,
    "weg": 5995,
    "eleven": 5996,
    "oting": 5997,
    "mies": 5998,
    "teous": 5999,
    "τον": 6000,
    "measures": 6001,
    "Sus": 6002,
    "actions": 6003,
    "ums": 6004,
    "Upon": 6005,
    "eth": 6006,
    "plor": 6007,
    "Ã": 6008,
    "pays": 6009,
    "dram": 6010,
    "Love": 6011,
    "marks": 6012,
    "Royalty": 6013,
    "ension": 6014,
    "tables": 6015,
    "Dun": 6016,
    "mano": 6017,
    "maxim": 6018,
    "dee": 6019,
    "Four": 6020,
    "computers": 6021,
    "image": 6022,
    "pless": 6023,
    "jur": 6024,
    "Although": 6025,
    "iones": 6026,
    "exer": 6027,
    "jours": 6028,
    "pace": 6029,
    "erst": 6030,
    "wers": 6031,
    "ushing": 6032,
    "aqu": 6033,
    "islands": 6034,
    "fright": 6035,
    "propos": 6036,
    "utterly": 6037,
    "onel": 6038,
    "rey": 6039,
    "tribes": 6040,
    "colle": 6041,
    "ridic": 6042,
    "ollen": 6043,
    "shr": 6044,
    "lijk": 6045,
    "Cham": 6046,
    "belle": 6047,
    "ught": 6048,
    "observation": 6049,
    "pest": 6050,
    "raw": 6051,
    "derni": 6052,
    "creatures": 6053,
    "issä": 6054,
    "conver": 6055,
    "affor": 6056,
    "inty": 6057,
    "érie": 6058,
    "spend": 6059,
    "visions": 6060,
    "chos": 6061,
    "waves": 6062,
    "afford": 6063,
    "fame": 6064,
    "ceux": 6065,
    "materi": 6066,
    "core": 6067,
    "enger": 6068,
    "precis": 6069,
    "ocean": 6070,
    "subscri": 6071,
    "thanks": 6072,
    "UT": 6073,
    "ela": 6074,
    "whence": 6075,
    "types": 6076,
    "commer": 6077,
    "Lake": 6078,
    "Rog": 6079,
    "rude": 6080,
    "kanssa": 6081,
    "toe": 6082,
    "pover": 6083,
    "habe": 6084,
    "suc": 6085,
    "referred": 6086,
    "Span": 6087,
    "ASCII": 6088,
    "quit": 6089,
    "paused": 6090,
    "conne": 6091,
    "conqu": 6092,
    "indis": 6093,
    "Arab": 6094,
    "disclaimer": 6095,
    "offers": 6096,
    "lors": 6097,
    "apparent": 6098,
    "revolution": 6099,
    "Dutch": 6100,
    "fatig": 6101,
    "formats": 6102,
    "curi": 6103,
    "Vanilla": 6104,
    "inquir": 6105,
    "43": 6106,
    "adop": 6107,
    "confirm": 6108,
    "tag": 6109,
    "ares": 6110,
    "deliber": 6111,
    "azt": 6112,
    "…": 6113,
    "jealous": 6114,
    "thetic": 6115,
    "LIMITED": 6116,
    "ihre": 6117,
    "county": 6118,
    "pushed": 6119,
    "instrument": 6120,
    "Donations": 6121,
    "announced": 6122,
    "batter": 6123,
    "punishment": 6124,
    "observe": 6125,
    "electronically": 6126,
    "Carol": 6127,
    "Redistribut": 6128,
    "appeal": 6129,
    "Alexander": 6130,
    "essential": 6131,
    "flag": 6132,
    "uta": 6133,
    "defence": 6134,
    "Mens": 6135,
    "entit": 6136,
    "prob": 6137,
    "Poor": 6138,
    "Est": 6139,
    "ulation": 6140,
    "appropri": 6141,
    "liest": 6142,
    "insp": 6143,
    "OL": 6144,
    "hanging": 6145,
    "mään": 6146,
    "dot": 6147,
    "massa": 6148,
    "anxiety": 6149,
    "inspir": 6150,
    "tämä": 6151,
    "guilty": 6152,
    "pression": 6153,
    "akes": 6154,
    "likewise": 6155,
    "heel": 6156,
    "écri": 6157,
    "walks": 6158,
    "ila": 6159,
    "répond": 6160,
    "FOR": 6161,
    "Ur": 6162,
    "aked": 6163,
    "cket": 6164,
    "Bru": 6165,
    "Mann": 6166,
    "photo": 6167,
    "eties": 6168,
    "errors": 6169,
    "Christmas": 6170,
    "loving": 6171,
    "generation": 6172,
    "ograph": 6173,
    "feast": 6174,
    "dieser": 6175,
    "seiner": 6176,
    "princes": 6177,
    "yd": 6178,
    "tän": 6179,
    "hyvä": 6180,
    "Hist": 6181,
    "suite": 6182,
    "achie": 6183,
    "anybody": 6184,
    "sei": 6185,
    "coffee": 6186,
    "inno": 6187,
    "silk": 6188,
    "père": 6189,
    "clergy": 6190,
    "acid": 6191,
    "alors": 6192,
    "Maria": 6193,
    "hollow": 6194,
    "celle": 6195,
    "conna": 6196,
    "RA": 6197,
    "assumed": 6198,
    "signal": 6199,
    "på": 6200,
    "viel": 6201,
    "sadd": 6202,
    "frightened": 6203,
    "missed": 6204,
    "experiment": 6205,
    "departure": 6206,
    "inquired": 6207,
    "mani": 6208,
    "Victor": 6209,
    "rical": 6210,
    "σι": 6211,
    "ev": 6212,
    "Kir": 6213,
    "faced": 6214,
    "community": 6215,
    "isation": 6216,
    "eleg": 6217,
    "sees": 6218,
    "enjoyed": 6219,
    "Sometimes": 6220,
    "Comp": 6221,
    "·": 6222,
    "ête": 6223,
    "zet": 6224,
    "altar": 6225,
    "Pour": 6226,
    "individu": 6227,
    "structure": 6228,
    "Mississippi": 6229,
    "seul": 6230,
    "wohl": 6231,
    "elements": 6232,
    "province": 6233,
    "arte": 6234,
    "zig": 6235,
    "Sax": 6236,
    "belonged": 6237,
    "secured": 6238,
    "related": 6239,
    "bility": 6240,
    "temporary": 6241,
    "wurde": 6242,
    "qué": 6243,
    "convinced": 6244,
    "της": 6245,
    "kki": 6246,
    "compass": 6247,
    "rapp": 6248,
    "idents": 6249,
    "anza": 6250,
    "risk": 6251,
    "Met": 6252,
    "returns": 6253,
    "hers": 6254,
    "shade": 6255,
    "hou": 6256,
    "readily": 6257,
    "csak": 6258,
    "läh": 6259,
    "activity": 6260,
    "noted": 6261,
    "tide": 6262,
    "_R": 6263,
    "porter": 6264,
    "Jos": 6265,
    "eikä": 6266,
    "abroad": 6267,
    "lust": 6268,
    "manners": 6269,
    "cham": 6270,
    "parti": 6271,
    "iana": 6272,
    "dreadful": 6273,
    "blessed": 6274,
    "arrangement": 6275,
    "miserable": 6276,
    "managed": 6277,
    "65": 6278,
    "await": 6279,
    "lace": 6280,
    "accurate": 6281,
    "doubtless": 6282,
    "discussion": 6283,
    "ision": 6284,
    "anda": 6285,
    "ignorant": 6286,
    "headed": 6287,
    "eternal": 6288,
    "',": 6289,
    "Bre": 6290,
    "aud": 6291,
    "Bas": 6292,
    "ζ": 6293,
    "warri": 6294,
    "omb": 6295,
    "Margaret": 6296,
    "coach": 6297,
    "flood": 6298,
    "career": 6299,
    "iseen": 6300,
    "iced": 6301,
    "somewhere": 6302,
    "toire": 6303,
    "yks": 6304,
    "charming": 6305,
    "gust": 6306,
    "deliver": 6307,
    "fier": 6308,
    "horror": 6309,
    "mystery": 6310,
    "chang": 6311,
    "China": 6312,
    "humble": 6313,
    "portions": 6314,
    "chten": 6315,
    "independent": 6316,
    "steel": 6317,
    "characteristic": 6318,
    "stiff": 6319,
    "ello": 6320,
    "distinction": 6321,
    "atmosphere": 6322,
    "ague": 6323,
    "Camp": 6324,
    "nic": 6325,
    "iel": 6326,
    "Bab": 6327,
    "compag": 6328,
    "interior": 6329,
    "communication": 6330,
    "riding": 6331,
    "scattered": 6332,
    "ricult": 6333,
    "pero": 6334,
    "examination": 6335,
    "withstanding": 6336,
    "clair": 6337,
    "bone": 6338,
    "separated": 6339,
    "curiosity": 6340,
    "imposed": 6341,
    "southern": 6342,
    "Anne": 6343,
    "bir": 6344,
    "uge": 6345,
    "Sat": 6346,
    "imagin": 6347,
    "Athen": 6348,
    "mysterious": 6349,
    "alike": 6350,
    "possibility": 6351,
    "depuis": 6352,
    "opinions": 6353,
    "egli": 6354,
    "monsieur": 6355,
    "Conf": 6356,
    "aces": 6357,
    "pull": 6358,
    "widow": 6359,
    "pine": 6360,
    "favou": 6361,
    "kka": 6362,
    "sagte": 6363,
    "Fa": 6364,
    "degrees": 6365,
    "barbar": 6366,
    "Mas": 6367,
    "excuse": 6368,
    "unfortunate": 6369,
    "vide": 6370,
    "millions": 6371,
    "aina": 6372,
    "benefit": 6373,
    "»,": 6374,
    "empire": 6375,
    "sco": 6376,
    "burgh": 6377,
    "assez": 6378,
    "wooden": 6379,
    "vom": 6380,
    "langu": 6381,
    "zal": 6382,
    "oso": 6383,
    "hunting": 6384,
    "Made": 6385,
    "Rus": 6386,
    "tomb": 6387,
    "steep": 6388,
    "wondered": 6389,
    "area": 6390,
    "Please": 6391,
    "ichts": 6392,
    "univers": 6393,
    "ως": 6394,
    "expend": 6395,
    "nte": 6396,
    "belonging": 6397,
    "patron": 6398,
    "echo": 6399,
    "loyal": 6400,
    "adm": 6401,
    "household": 6402,
    "commen": 6403,
    ";\"": 6404,
    "forbid": 6405,
    "sibility": 6406,
    "hänelle": 6407,
    "madame": 6408,
    "compared": 6409,
    "Alex": 6410,
    "heim": 6411,
    "accompl": 6412,
    "tois": 6413,
    "nap": 6414,
    "exposed": 6415,
    "Ara": 6416,
    "Jes": 6417,
    "hypo": 6418,
    "softly": 6419,
    "edition": 6420,
    "monu": 6421,
    "chem": 6422,
    "reli": 6423,
    "lait": 6424,
    "claims": 6425,
    "rus": 6426,
    "TER": 6427,
    "uer": 6428,
    "renew": 6429,
    "execution": 6430,
    "dreams": 6431,
    "shared": 6432,
    "publi": 6433,
    "approaching": 6434,
    "Ten": 6435,
    "paign": 6436,
    "ouv": 6437,
    "frank": 6438,
    "Produ": 6439,
    "tir": 6440,
    "cid": 6441,
    "retired": 6442,
    "statements": 6443,
    "bbing": 6444,
    "drift": 6445,
    "authorities": 6446,
    "inci": 6447,
    "avy": 6448,
    "united": 6449,
    "testim": 6450,
    "average": 6451,
    "irrit": 6452,
    "mü": 6453,
    "acces": 6454,
    "meer": 6455,
    "ifies": 6456,
    "weigh": 6457,
    "crow": 6458,
    "convers": 6459,
    "benef": 6460,
    "hoe": 6461,
    "HA": 6462,
    "jà": 6463,
    "Ri": 6464,
    "itty": 6465,
    "supported": 6466,
    "prendre": 6467,
    "feared": 6468,
    "issued": 6469,
    "export": 6470,
    "isk": 6471,
    "acknowled": 6472,
    "intent": 6473,
    "ße": 6474,
    "leton": 6475,
    "attempted": 6476,
    "oman": 6477,
    "mia": 6478,
    "petit": 6479,
    "ystä": 6480,
    "Sure": 6481,
    "priests": 6482,
    "Thy": 6483,
    "sci": 6484,
    "fierce": 6485,
    "refuse": 6486,
    "mille": 6487,
    "icians": 6488,
    "profound": 6489,
    "council": 6490,
    "scheme": 6491,
    "uksen": 6492,
    "Frau": 6493,
    "Ref": 6494,
    "disposition": 6495,
    "zte": 6496,
    "Lieutenant": 6497,
    "Tor": 6498,
    "fired": 6499,
    "Nap": 6500,
    "covering": 6501,
    "dow": 6502,
    "violence": 6503,
    "wür": 6504,
    "abri": 6505,
    "shining": 6506,
    "include": 6507,
    "lamp": 6508,
    "Pan": 6509,
    "occasions": 6510,
    "ían": 6511,
    "hänet": 6512,
    "respond": 6513,
    "savage": 6514,
    "cheeks": 6515,
    "rolling": 6516,
    "8vo": 6517,
    "alas": 6518,
    "ec": 6519,
    "cents": 6520,
    "ount": 6521,
    "Author": 6522,
    "onne": 6523,
    "absurd": 6524,
    "modest": 6525,
    "anni": 6526,
    "viewed": 6527,
    "heidän": 6528,
    "estate": 6529,
    "muß": 6530,
    "awak": 6531,
    "ganz": 6532,
    "University": 6533,
    "VIII": 6534,
    "bras": 6535,
    "appreh": 6536,
    "cence": 6537,
    "Say": 6538,
    "ternal": 6539,
    "Cat": 6540,
    "Second": 6541,
    "delighted": 6542,
    "commenced": 6543,
    "ignorance": 6544,
    "trail": 6545,
    "Cur": 6546,
    "experienced": 6547,
    "nt": 6548,
    "casa": 6549,
    "jag": 6550,
    "Tro": 6551,
    "manager": 6552,
    "Through": 6553,
    "financial": 6554,
    "sehr": 6555,
    "Jane": 6556,
    "mai": 6557,
    "zon": 6558,
    "consci": 6559,
    "circumst": 6560,
    "aker": 6561,
    "Youn": 6562,
    "partic": 6563,
    "cris": 6564,
    "ude": 6565,
    "Vor": 6566,
    "meas": 6567,
    "bosom": 6568,
    "Bor": 6569,
    "Therefore": 6570,
    "completed": 6571,
    "legisl": 6572,
    "idi": 6573,
    "sobre": 6574,
    "remarks": 6575,
    "fortun": 6576,
    "industry": 6577,
    "burned": 6578,
    "saint": 6579,
    "colored": 6580,
    "Bud": 6581,
    "neighb": 6582,
    "noon": 6583,
    "brow": 6584,
    "territory": 6585,
    "institut": 6586,
    "defend": 6587,
    "grounds": 6588,
    "bind": 6589,
    "disposed": 6590,
    "tren": 6591,
    "inscri": 6592,
    "sket": 6593,
    "lof": 6594,
    "Fair": 6595,
    "Marie": 6596,
    "magnificent": 6597,
    "reputation": 6598,
    "uine": 6599,
    "swell": 6600,
    "generous": 6601,
    "gates": 6602,
    "ornament": 6603,
    "prospect": 6604,
    "SEE": 6605,
    "greg": 6606,
    "opportunities": 6607,
    "match": 6608,
    "consists": 6609,
    "thread": 6610,
    "thence": 6611,
    "täyty": 6612,
    "hibit": 6613,
    "passes": 6614,
    "Wel": 6615,
    "keeper": 6616,
    "ihen": 6617,
    "mankind": 6618,
    "demonstr": 6619,
    "aming": 6620,
    "slept": 6621,
    "sively": 6622,
    "itely": 6623,
    "nagy": 6624,
    "fortunately": 6625,
    "tranqu": 6626,
    "adt": 6627,
    "Sud": 6628,
    "encounter": 6629,
    "lately": 6630,
    "soll": 6631,
    "ashes": 6632,
    "concluded": 6633,
    "useless": 6634,
    "discipl": 6635,
    "independ": 6636,
    "damage": 6637,
    "decision": 6638,
    "questo": 6639,
    "bask": 6640,
    "så": 6641,
    "Fr": 6642,
    "todo": 6643,
    "humanity": 6644,
    "crowded": 6645,
    "suspicion": 6646,
    "detach": 6647,
    "(?),": 6648,
    "Chief": 6649,
    "rar": 6650,
    "tribe": 6651,
    "utmost": 6652,
    "ème": 6653,
    "glanced": 6654,
    "hea": 6655,
    "grav": 6656,
    "Niin": 6657,
    "käy": 6658,
    "libert": 6659,
    "enormous": 6660,
    "Jour": 6661,
    "abled": 6662,
    "heeft": 6663,
    "êtes": 6664,
    "troubles": 6665,
    "eut": 6666,
    "Ye": 6667,
    "weakness": 6668,
    "Nu": 6669,
    "hebben": 6670,
    "eagerly": 6671,
    "wire": 6672,
    "rog": 6673,
    "eût": 6674,
    "ghost": 6675,
    "standard": 6676,
    "Mission": 6677,
    "dent": 6678,
    "lease": 6679,
    "Hence": 6680,
    "dix": 6681,
    "ît": 6682,
    "acquired": 6683,
    "invited": 6684,
    "urged": 6685,
    "incol": 6686,
    "aving": 6687,
    "vant": 6688,
    "forgot": 6689,
    "attered": 6690,
    "inclu": 6691,
    "rebel": 6692,
    "ción": 6693,
    "whatsoever": 6694,
    "churches": 6695,
    "Ik": 6696,
    "fathers": 6697,
    "composition": 6698,
    "iful": 6699,
    "nombre": 6700,
    "attacked": 6701,
    "convention": 6702,
    "bler": 6703,
    "plainly": 6704,
    "guests": 6705,
    "feat": 6706,
    "permit": 6707,
    "quires": 6708,
    "amour": 6709,
    "operations": 6710,
    "Christians": 6711,
    "Rich": 6712,
    "college": 6713,
    "cliff": 6714,
    "Inst": 6715,
    "gaze": 6716,
    "application": 6717,
    "pause": 6718,
    "aveva": 6719,
    "dimin": 6720,
    "dedu": 6721,
    "saf": 6722,
    "largely": 6723,
    "quarrel": 6724,
    "data": 6725,
    "quando": 6726,
    "redu": 6727,
    "Princess": 6728,
    "scorn": 6729,
    "Service": 6730,
    "Anna": 6731,
    "steady": 6732,
    "peci": 6733,
    "fif": 6734,
    "num": 6735,
    "Ital": 6736,
    "hosp": 6737,
    "deed": 6738,
    "whisper": 6739,
    "ork": 6740,
    "hist": 6741,
    "――": 6742,
    "preh": 6743,
    "pole": 6744,
    "kans": 6745,
    "gry": 6746,
    "orge": 6747,
    "shad": 6748,
    "Ä": 6749,
    "Mart": 6750,
    "develop": 6751,
    "hind": 6752,
    "cto": 6753,
    "rau": 6754,
    "dign": 6755,
    "corre": 6756,
    "clusion": 6757,
    "Som": 6758,
    "liter": 6759,
    "kok": 6760,
    "lij": 6761,
    "unity": 6762,
    "ronic": 6763,
    "recogni": 6764,
    "surpr": 6765,
    "lik": 6766,
    "conclu": 6767,
    "enem": 6768,
    "ù": 6769,
    "õ": 6770,
    "obli": 6771,
    "major": 6772,
    "Scot": 6773,
    "Afri": 6774,
    "iving": 6775,
    "preser": 6776,
    "streng": 6777,
    "Rep": 6778,
    "scho": 6779,
    "gress": 6780,
    "emplo": 6781,
    "priv": 6782,
    "necess": 6783,
    "ignor": 6784,
    "excell": 6785,
    "promin": 6786,
    "succ": 6787,
    "mê": 6788,
    "Illustr": 6789,
    "Americ": 6790,
    "fem": 6791,
    "cond": 6792,
    "cred": 6793,
    "velop": 6794,
    "mitted": 6795,
    "aint": 6796,
    "daugh": 6797,
    "mains": 6798,
    "Wo": 6799,
    "jus": 6800,
    "Ill": 6801,
    "invest": 6802,
    "inct": 6803,
    "τη": 6804,
    "Æ": 6805,
    "ī": 6806,
    "intellect": 6807,
    "attle": 6808,
    "whis": 6809,
    "Vir": 6810,
    "beaut": 6811,
    "hus": 6812,
    "peror": 6813,
    "compan": 6814,
    "Α": 6815,
    "gare": 6816,
    "jor": 6817,
    "numer": 6818,
    "cret": 6819,
    "§": 6820,
    "distri": 6821,
    "issu": 6822,
    "sacri": 6823,
    "affe": 6824,
    "replace": 6825,
    "mom": 6826,
    "guest": 6827,
    "consid": 6828,
    "yty": 6829,
    "Ir": 6830,
    "tran": 6831,
    "Dav": 6832,
    "þ": 6833,
    "glor": 6834,
    "sess": 6835,
    "pread": 6836,
    "possi": 6837,
    "utenant": 6838,
    "accus": 6839,
    "vere": 6840,
    "bran": 6841,
    "citiz": 6842,
    "reco": 6843,
    "kit": 6844,
    "stair": 6845,
    "bab": 6846,
    "Joh": 6847,
    "Cour": 6848,
    "resul": 6849,
    "Af": 6850,
    "´": 6851,
    "egg": 6852,
    "fortunate": 6853,
    "ō": 6854,
    "delic": 6855,
    "thorough": 6856,
    "jesty": 6857,
    "disci": 6858,
    "accur": 6859,
    "sequ": 6860,
    "deg": 6861,
    "ential": 6862,
    "monstr": 6863,
    "Aug": 6864,
    "Κ": 6865,
    "а": 6866,
    "celebr": 6867,
    "lief": 6868,
    "lid": 6869,
    "forts": 6870,
    "adv": 6871,
    "sper": 6872,
    "jot": 6873,
    "splend": 6874,
    "enjo": 6875,
    "ween": 6876,
    "fles": 6877,
    "rine": 6878,
    "hunt": 6879,
    "Apr": 6880,
    "incl": 6881,
    "miser": 6882,
    "ilar": 6883,
    "hors": 6884,
    "reed": 6885,
    "appoint": 6886,
    "comfor": 6887,
    "cim": 6888,
    "proble": 6889,
    "Eli": 6890,
    "wur": 6891,
    "prote": 6892,
    "experien": 6893,
    "restri": 6894,
    "shel": 6895,
    "absol": 6896,
    "valu": 6897,
    "bst": 6898,
    "sympa": 6899,
    "propriet": 6900,
    "exerc": 6901,
    "ulty": 6902,
    "cely": 6903,
    "Virgin": 6904,
    "quir": 6905,
    "vict": 6906,
    "ady": 6907,
    "Lat": 6908,
    "unteers": 6909,
    "heb": 6910,
    "circum": 6911,
    "ē": 6912,
    "Prof": 6913,
    "Ü": 6914,
    "peri": 6915,
    "exem": 6916,
    "atever": 6917,
    "pond": 6918,
    "cau": 6919,
    "Brit": 6920,
    "gén": 6921,
    "Thom": 6922,
    "о": 6923,
    "Â": 6924,
    "ð": 6925,
    "osity": 6926,
    "..": 6927,
    "conv": 6928,
    "iloso": 6929,
    "nag": 6930,
    "thor": 6931,
    "creat": 6932,
    "istribut": 6933,
    "unte": 6934,
    "leng": 6935,
    "alth": 6936,
    "complet": 6937,
    "½": 6938,
    "sacrif": 6939,
    "Ε": 6940,
    "dollar": 6941,
    "е": 6942,
    "augh": 6943,
    "relig": 6944,
    "clothe": 6945,
    "selves": 6946,
    "provid": 6947,
    "oppos": 6948,
    "sphere": 6949,
    "Τ": 6950,
    "cous": 6951,
    "divid": 6952,
    "escap": 6953,
    "ellow": 6954,
    "uries": 6955,
    "ĝ": 6956,
    "elds": 6957,
    "poses": 6958,
    "Ale": 6959,
    "ſ": 6960,
    "gni": 6961,
    "liament": 6962,
    "\\": 6963,
    "и": 6964,
    "Cong": 6965,
    "tong": 6966,
    "ivity": 6967,
    "pho": 6968,
    "myster": 6969,
    "twi": 6970,
    "ĉ": 6971,
    "ŭ": 6972,
    "Π": 6973,
    "morn": 6974,
    "mater": 6975,
    "‰": 6976,
    "ention": 6977,
    "incre": 6978,
    "orm": 6979,
    "brary": 6980,
    "artic": 6981,
    "cott": 6982,
    "especi": 6983,
    "ψ": 6984,
    "territ": 6985,
    "reput": 6986,
    "": 6987,
    "ored": 6988,
    "perman": 6989,
    "Á": 6990,
    "﻿": 6991,
    "fing": 6992,
    "extrem": 6993,
    "thod": 6994,
    "cean": 6995,
    "alous": 6996,
    "raid": 6997,
    "̃": 6998,
    "À": 6999,
    "Univers": 7000,
    "È": 7001,
    "sak": 7002,
    "Μ": 7003,
    "orig": 7004,
    "opin": 7005,
    "outh": 7006,
    "anced": 7007,
    "Mich": 7008,
    "extre": 7009,
    "º": 7010,
    "frequ": 7011,
    "eft": 7012,
    "umph": 7013,
    "pict": 7014,
    "ł": 7015,
    "vour": 7016,
    "equi": 7017,
    "utely": 7018,
    "Sep": 7019,
    "Ο": 7020,
    "dut": 7021,
    "avail": 7022,
    "Stre": 7023,
    "Fir": 7024,
    "uary": 7025,
    "manif": 7026,
    "Σ": 7027,
    "isl": 7028,
    "wenty": 7029,
    "ĳ": 7030,
    "ouses": 7031,
    "diffic": 7032,
    "magnific": 7033,
    "beth": 7034,
    "brilli": 7035,
    "plained": 7036,
    "Ö": 7037,
    "popul": 7038,
    "gious": 7039,
    "destru": 7040,
    "excite": 7041,
    "ã": 7042,
    "inhabit": 7043,
    "acquaint": 7044,
    "tries": 7045,
    "Russi": 7046,
    "utch": 7047,
    "indust": 7048,
    "rès": 7049,
    "freed": 7050,
    "ū": 7051,
    "immen": 7052,
    "Amer": 7053,
    "stren": 7054,
    "š": 7055,
    "seless": 7056,
    "conom": 7057,
    "suspic": 7058,
    "increas": 7059,
    "н": 7060,
    "evid": 7061,
    "Egy": 7062,
    "enses": 7063,
    "Δ": 7064,
    "Acc": 7065,
    "natur": 7066,
    "faction": 7067,
    "т": 7068,
    "ἐ": 7069,
    "applic": 7070,
    "rench": 7071,
    "plent": 7072,
    "ὶ": 7073,
    "scient": 7074,
    "ă": 7075,
    "soever": 7076,
    "commiss": 7077,
    "с": 7078,
    "swi": 7079,
    "Gover": 7080,
    "ilies": 7081,
    "deter": 7082,
    "Cath": 7083,
    ">": 7084,
    "ŝ": 7085,
    "rance": 7086,
    "arrang": 7087,
    "explan": 7088,
    "tue": 7089,
    "ʼ": 7090,
    "р": 7091,
    "lear": 7092,
    "ἀ": 7093,
    "strugg": 7094,
    "ael": 7095,
    "dden": 7096,
    "‐": 7097,
    "olic": 7098,
    "ę": 7099,
    "Eliza": 7100,
    "ě": 7101,
    "twel": 7102,
    "ppi": 7103,
    "ecut": 7104,
    "Chin": 7105,
    "ilst": 7106,
    "¶": 7107,
    "distin": 7108,
    "clou": 7109,
    "undred": 7110,
    "в": 7111,
    "Engl": 7112,
    "intel": 7113,
    "yal": 7114,
    "Uni": 7115,
    "convinc": 7116,
    "abs": 7117,
    "Lon": 7118,
    "Soci": 7119,
    "ligence": 7120,
    "ž": 7121,
    "": 7122,
    "register": 7123,
    "pop": 7124,
    "′": 7125,
    "ingu": 7126,
    "ὸ": 7127,
    "wom": 7128,
    "manu": 7129,
    "eks": 7130,
    "recei": 7131,
    "к": 7132,
    "ince": 7133,
    "(?": 7134,
    "leep": 7135,
    "ą": 7136,
    "д": 7137,
    "л": 7138,
    "ə": 7139,
    "liar": 7140,
    "Foot": 7141,
    "atmo": 7142,
    "prin": 7143,
    "ceed": 7144,
    "м": 7145,
    "andon": 7146,
    "č": 7147,
    "firmed": 7148,
    "ittle": 7149,
    "mber": 7150,
    "Jose": 7151,
    "×": 7152,
    "individ": 7153,
    "Η": 7154,
    "Λ": 7155,
    "Ν": 7156,
    "ῖ": 7157,
    "ῦ": 7158,
    "alties": 7159,
    "ῶ": 7160,
    "Β": 7161,
    "riage": 7162,
    "Jap": 7163,
    "agra": 7164,
    "Γ": 7165,
    "ousand": 7166,
    "у": 7167,
    "†": 7168,
    "rote": 7169,
    "interrup": 7170,
    "kni": 7171,
    "Ι": 7172,
    "perfor": 7173,
    "ὰ": 7174,
    "Wash": 7175,
    "ř": 7176,
    "ý": 7177,
    "famili": 7178,
    "¼": 7179,
    "ś": 7180,
    "enorm": 7181,
    "superi": 7182,
    "issi": 7183,
    "terday": 7184,
    "ὐ": 7185,
    "Ç": 7186,
    "ż": 7187,
    "financi": 7188,
    "Θ": 7189,
    "cape": 7190,
    "п": 7191,
    "urches": 7192,
    "suffici": 7193,
    "Found": 7194,
    "guil": 7195,
    "√": 7196,
    "counten": 7197,
    "intro": 7198,
    "ª": 7199,
    "deriv": 7200,
    "soldi": 7201,
    "，": 7202,
    "ribut": 7203,
    "comput": 7204,
    "horiz": 7205,
    "ὲ": 7206,
    "Spir": 7207,
    "quired": 7208,
    "@": 7209,
    "": 7210,
    "Έ": 7211,
    "anxi": 7212,
    "ȝ": 7213,
    "offee": 7214,
    "leav": 7215,
    "disco": 7216,
    "›": 7217,
    "ὴ": 7218,
    "fash": 7219,
    "cele": 7220,
    "Lic": 7221,
    "nment": 7222,
    "Ρ": 7223,
    "‹": 7224,
    "Í": 7225,
    "ῆ": 7226,
    "Ó": 7227,
    "¨": 7228,
    "pow": 7229,
    "larg": 7230,
    "Χ": 7231,
    "blished": 7232,
    "Ï": 7233,
    "asions": 7234,
    "": 7235,
    "‚": 7236,
    "domest": 7237,
    "Φ": 7238,
    "¹": 7239,
    "♦": 7240,
    "essor": 7241,
    "з": 7242,
    "ć": 7243,
    "gether": 7244,
    "ẻ": 7245,
    "Å": 7246,
    "opport": 7247,
    "₂": 7248,
    "webs": 7249,
    "б": 7250,
    "Ό": 7251,
    "ἰ": 7252,
    "ĵ": 7253,
    "Ú": 7254,
    "Ő": 7255,
    "equip": 7256,
    "г": 7257,
    "perience": 7258,
    "Ø": 7259,
    "accompan": 7260,
    "Ê": 7261,
    "ʹ": 7262,
    "¾": 7263,
    "solem": 7264,
    "absur": 7265,
    "offic": 7266,
    "Œ": 7267,
    "anx": 7268,
    "ⁿ": 7269,
    "ἔ": 7270,
    "opportun": 7271,
    "Isra": 7272,
    "ĕ": 7273,
    "mith": 7274,
    "sieur": 7275,
    "Ά": 7276,
    "tomed": 7277,
    "ĭ": 7278,
    "Ñ": 7279,
    "ș": 7280,
    "ч": 7281,
    "ὁ": 7282,
    "distribut": 7283,
    "ǣ": 7284,
    "я": 7285,
    "Napole": 7286,
    "ἄ": 7287,
    "‖": 7288,
    "Ĉ": 7289,
    "<": 7290,
    "MIT": 7291,
    "ш": 7292,
    "ɐ": 7293,
    "Þ": 7294,
    "ὑ": 7295,
    "sugg": 7296,
    "neigh": 7297,
    "ḥ": 7298,
    "ᵉ": 7299,
    "ј": 7300,
    "ἡ": 7301,
    "₁": 7302,
    "immedi": 7303,
    "⁄": 7304,
    "haps": 7305,
    "¤": 7306,
    "ů": 7307,
    "unday": 7308,
    "ldom": 7309,
    "ъ": 7310,
    "ainted": 7311,
    "thur": 7312,
    "Dece": 7313,
    "。": 7314,
    "Ô": 7315,
    "ϊ": 7316,
    "ἱ": 7317,
    "Ω": 7318,
    "ὺ": 7319,
    "י": 7320,
    "²": 7321,
    "": 7322,
    "ˈ": 7323,
    "″": 7324,
    "Υ": 7325,
    "х": 7326,
    "Ἀ": 7327,
    "ʻ": 7328,
    "agraph": 7329,
    "ṭ": 7330,
    "licy": 7331,
    "₄": 7332,
    "Margare": 7333,
    "₃": 7334,
    "³": 7335,
    "ж": 7336,
    "Ĭ": 7337,
    "Febru": 7338,
    "ו": 7339,
    "―": 7340,
    "Ā": 7341,
    "ῷ": 7342,
    "ˆ": 7343,
    "й": 7344,
    "✿": 7345,
    "Ano": 7346,
    "ῳ": 7347,
    "א": 7348,
    "ṇ": 7349,
    "ὅ": 7350,
    "Ή": 7351,
    "᾽": 7352,
    "Ð": 7353,
    "Ý": 7354,
    "ה": 7355,
    "ė": 7356,
    "÷": 7357,
    "‒": 7358,
    "ț": 7359,
    "illiam": 7360,
    "�": 7361,
    "Î": 7362,
    "Ζ": 7363,
    "tember": 7364,
    "⸺": 7365,
    "⁂": 7366,
    "ь": 7367,
    "Ḥ": 7368,
    "¢": 7369,
    "ᾶ": 7370,
    "一": 7371,
    "‎": 7372,
    "ń": 7373,
    "µ": 7374,
    "‏": 7375,
    "了": 7376,
    "rase": 7377,
    "®": 7378,
    "ר": 7379,
    "ц": 7380,
    "ы": 7381,
    "ŏ": 7382,
    "­": 7383,
    "ἑ": 7384,
    "ὀ": 7385,
    "ל": 7386,
    "ἶ": 7387,
    "ṣ": 7388,
    "prep": 7389,
    "ἴ": 7390,
    "→": 7391,
    "ῇ": 7392,
    "¯": 7393,
    "‑": 7394,
    "ẽ": 7395,
    "的": 7396,
    "Ξ": 7397,
    "ASC": 7398,
    "": 7399,
    "ḍ": 7400,
    "་": 7401,
    "ᵗ": 7402,
    "ב": 7403,
    "culiar": 7404,
    "±": 7405,
    "ש": 7406,
    "ת": 7407,
    "ῃ": 7408,
    "ḳ": 7409,
    "מ": 7410,
    "¬": 7411,
    "щ": 7412,
    "之": 7413,
    "": 7414,
    "‡": 7415,
    "": 7416,
    "grees": 7417,
    "人": 7418,
    "Š": 7419,
    "ʿ": 7420,
    "是": 7421,
    "⁠": 7422,
    "С": 7423,
    "Nove": 7424,
    "Ŝ": 7425,
    "Ire": 7426,
    "": 7427,
    "ȳ": 7428,
    "ͤ": 7429,
    "ΐ": 7430,
    "Ë": 7431,
    "⅓": 7432,
    "Ō": 7433,
    "Û": 7434,
    "Н": 7435,
    "ὡ": 7436,
    "ῥ": 7437,
    "ὄ": 7438,
    "А": 7439,
    "¸": 7440,
    "道": 7441,
    "ŋ": 7442,
    "□": 7443,
    "ƚ": 7444,
    "ʳ": 7445,
    "₀": 7446,
    "：": 7447,
    "我": 7448,
    "ע": 7449,
    "ᵒ": 7450,
    "Octo": 7451,
    "來": 7452,
    "̄": 7453,
    "ἁ": 7454,
    "ww": 7455,
    "「": 7456,
    "ὼ": 7457,
    "Т": 7458,
    "ÿ": 7459,
    "ὕ": 7460,
    "♂": 7461,
    "Ĝ": 7462,
    "ד": 7463,
    "Ἐ": 7464,
    "ا": 7465,
    "̂": 7466,
    "ὔ": 7467,
    "ź": 7468,
    "Mississi": 7469,
    "Ĕ": 7470,
    "◆": 7471,
    "": 7472,
    "子": 7473,
    "Ē": 7474,
    "⅛": 7475,
    "○": 7476,
    "נ": 7477,
    "他": 7478,
    "ם": 7479,
    "‛": 7480,
    "＞": 7481,
    "₆": 7482,
    "不": 7483,
    "個": 7484,
    "─": 7485,
    "Ί": 7486,
    "ћ": 7487,
    "ἢ": 7488,
    "ὖ": 7489,
    "И": 7490,
    "Ś": 7491,
    "有": 7492,
    "Ì": 7493,
    "¦": 7494,
    "ἕ": 7495,
    "љ": 7496,
    "Ī": 7497,
    "њ": 7498,
    "₅": 7499,
    "ᾳ": 7500,
    "ċ": 7501,
    "也": 7502,
    "П": 7503,
    "ť": 7504,
    "̆": 7505,
    "⁴": 7506,
    "ח": 7507,
    "Ṣ": 7508,
    "К": 7509,
    "ָ": 7510,
    "Siden": 7511,
    "Ă": 7512,
    "Ḳ": 7513,
    "ּ": 7514,
    "Ἰ": 7515,
    "ἦ": 7516,
    "ю": 7517,
    "": 7518,
    "ᵐ": 7519,
    "О": 7520,
    "ˢ": 7521,
    "ἵ": 7522,
    "這": 7523,
    "ᵃ": 7524,
    "那": 7525,
    "ϋ": 7526,
    "Ŭ": 7527,
    "ὥ": 7528,
    "ḋ": 7529,
    "М": 7530,
    "": 7531,
    "ȧ": 7532,
    "כ": 7533,
    "ἂ": 7534,
    "‟": 7535,
    "ἅ": 7536,
    "得": 7537,
    "♀": 7538,
    "去": 7539,
    "−": 7540,
    "​": 7541,
    "說": 7542,
    "⅔": 7543,
    "ḃ": 7544,
    "ishop": 7545,
    "在": 7546,
    "ɑ": 7547,
    "Ŏ": 7548,
    "ἠ": 7549,
    "⁵": 7550,
    "ṡ": 7551,
    "В": 7552,
    "ل": 7553,
    "到": 7554,
    "Д": 7555,
    "ἤ": 7556,
    "ַ": 7557,
    "₈": 7558,
    "〃": 7559,
    "Ἑ": 7560,
    "Ψ": 7561,
    "ְ": 7562,
    "∕": 7563,
    "ĥ": 7564,
    "ǫ": 7565,
    "ˀ": 7566,
    "以": 7567,
    "」": 7568,
    "Ū": 7569,
    "̱": 7570,
    "ק": 7571,
    "Ṭ": 7572,
    "פ": 7573,
    "ŷ": 7574,
    "knowled": 7575,
    "Е": 7576,
    "♭": 7577,
    "ṃ": 7578,
    "上": 7579,
    "ġ": 7580,
    "⁷": 7581,
    "̅": 7582,
    "ן": 7583,
    "": 7584,
    "ᵈ": 7585,
    "ي": 7586,
    "⁊": 7587,
    "ر": 7588,
    "⁶": 7589,
    "ִ": 7590,
    "्": 7591,
    "౎": 7592,
    "Č": 7593,
    "而": 7594,
    "⅜": 7595,
    "ʰ": 7596,
    "ʒ": 7597,
    "Ύ": 7598,
    "ṛ": 7599,
    "⁸": 7600,
    "大": 7601,
    "ṫ": 7602,
    "ф": 7603,
    "家": 7604,
    "要": 7605,
    "᪐": 7606,
    "ἷ": 7607,
    "、": 7608,
    "見": 7609,
    "̍": 7610,
    "Ἄ": 7611,
    "℥": 7612,
    "出": 7613,
    "⁹": 7614,
    "ḫ": 7615,
    "ň": 7616,
    "⅝": 7617,
    "？": 7618,
    "其": 7619,
    "ђ": 7620,
    "ũ": 7621,
    "⁰": 7622,
    "你": 7623,
    "́": 7624,
    "צ": 7625,
    "etimes": 7626,
    "Ώ": 7627,
    "೿": 7628,
    "便": 7629,
    "ẹ": 7630,
    "Б": 7631,
    "者": 7632,
    "為": 7633,
    "下": 7634,
    "●": 7635,
    "Ò": 7636,
    "天": 7637,
    "ὗ": 7638,
    "ὃ": 7639,
    "਍": 7640,
    "": 7641,
    "و": 7642,
    "Ù": 7643,
    "生": 7644,
    "←": 7645,
    "知": 7646,
    "Ἡ": 7647,
    "事": 7648,
    "又": 7649,
    "ἥ": 7650,
    "裡": 7651,
    "ṯ": 7652,
    "ď": 7653,
    "ƒ": 7654,
    "ס": 7655,
    "م": 7656,
    "ֹ": 7657,
    "著": 7658,
    "ὦ": 7659,
    "ṁ": 7660,
    "ب": 7661,
    "Ž": 7662,
    "ˡ": 7663,
    "ħ": 7664,
    "好": 7665,
    "ẓ": 7666,
    "ǽ": 7667,
    "此": 7668,
    "ن": 7669,
    "ג": 7670,
    "║": 7671,
    "ˌ": 7672,
    "☞": 7673,
    "ꝓ": 7674,
    "": 7675,
    "；": 7676,
    "ས": 7677,
    "ı": 7678,
    "ᾷ": 7679,
    "於": 7680,
    "℞": 7681,
    "就": 7682,
    "З": 7683,
    "然": 7684,
    "ֶ": 7685,
    "時": 7686,
    "⭘": 7687,
    "⅞": 7688,
    "✠": 7689,
    "看": 7690,
    "可": 7691,
    "Ȝ": 7692,
    "中": 7693,
    "ǝ": 7694,
    "過": 7695,
    "所": 7696,
    "自": 7697,
    "小": 7698,
    "ག": 7699,
    "如": 7700,
    "日": 7701,
    "無": 7702,
    "心": 7703,
    "！": 7704,
    "Ɏ": 7705,
    "頭": 7706,
    "Ὁ": 7707,
    "ɔ": 7708,
    "Ὀ": 7709,
    "ṅ": 7710,
    "ѣ": 7711,
    "起": 7712,
    "ῤ": 7713,
    "ׁ": 7714,
    "老": 7715,
    "麼": 7716,
    "ὠ": 7717,
    "只": 7718,
    "ه": 7719,
    "د": 7720,
    "Г": 7721,
    "ད": 7722,
    "✱": 7723,
    "ᄰ": 7724,
    "ᶜ": 7725,
    "〰": 7726,
    "乎": 7727,
    "兩": 7728,
    "Ἔ": 7729,
    "̤": 7730,
    "ט": 7731,
    "Р": 7732,
    "₇": 7733,
    "བ": 7734,
    "ा": 7735,
    "ֵ": 7736,
    "二": 7737,
    "ོ": 7738,
    "ὧ": 7739,
    "ז": 7740,
    "і": 7741,
    "還": 7742,
    "wever": 7743,
    "र": 7744,
    "☐": 7745,
    "多": 7746,
    "ọ": 7747,
    "回": 7748,
    "做": 7749,
    "＜": 7750,
    "Ῥ": 7751,
    "ʾ": 7752,
    "十": 7753,
    "面": 7754,
    "୎": 7755,
    "後": 7756,
    "言": 7757,
    "♃": 7758,
    "त": 7759,
    "ꝭ": 7760,
    "勿": 7761,
    "⅙": 7762,
    "ạ": 7763,
    "": 7764,
    "三": 7765,
    "ʽ": 7766,
    "公": 7767,
    "書": 7768,
    "У": 7769,
    "行": 7770,
    "年": 7771,
    "‪": 7772,
    "∞": 7773,
    "明": 7774,
    "文": 7775,
    "Ἱ": 7776,
    "ϲ": 7777,
    "理": 7778,
    "字": 7779,
    "把": 7780,
    "叫": 7781,
    "ت": 7782,
    "當": 7783,
    "Ч": 7784,
    "本": 7785,
    "Ż": 7786,
    "曰": 7787,
    "何": 7788,
    "地": 7789,
    "才": 7790,
    "Ј": 7791,
    "問": 7792,
    "charact": 7793,
    "س": 7794,
    "太": 7795,
    "Ḫ": 7796,
    "ང": 7797,
    "ⲉ": 7798,
    "外": 7799,
    "ʺ": 7800,
    "౏": 7801,
    "ך": 7802,
    "今": 7803,
    "ع": 7804,
    "མ": 7805,
    "話": 7806,
    "ȼ": 7807,
    "པ": 7808,
    "Ἕ": 7809,
    "沒": 7810,
    "ི": 7811,
    "卻": 7812,
    "ན": 7813,
    "前": 7814,
    "甚": 7815,
    "ق": 7816,
    "能": 7817,
    "《": 7818,
    "》": 7819,
    "夫": 7820,
    "ṉ": 7821,
    "門": 7822,
    "": 7823,
    "ུ": 7824,
    "同": 7825,
    "們": 7826,
    "ར": 7827,
    "走": 7828,
    "ϑ": 7829,
    "の": 7830,
    "ὤ": 7831,
    "Л": 7832,
    "ẏ": 7833,
    "聽": 7834,
    "ƕ": 7835,
    "房": 7836,
    "ͦ": 7837,
    "͠": 7838,
    "ヿ": 7839,
    "想": 7840,
    "": 7841,
    "都": 7842,
    "౶": 7843,
    "開": 7844,
    "呢": 7845,
    "則": 7846,
    "正": 7847,
    "分": 7848,
    "ŵ": 7849,
    "ἃ": 7850,
    "ΰ": 7851,
    "已": 7852,
    "⅕": 7853,
    "ʇ": 7854,
    "方": 7855,
    "幾": 7856,
    "Ὑ": 7857,
    "氣": 7858,
    "ि": 7859,
    "相": 7860,
    "打": 7861,
    "ἧ": 7862,
    "˘": 7863,
    "『": 7864,
    "國": 7865,
    "ح": 7866,
    "౛": 7867,
    "ϰ": 7868,
    "Ὅ": 7869,
    "官": 7870,
    "』": 7871,
    "Ł": 7872,
    "用": 7873,
    "作": 7874,
    "性": 7875,
    "འ": 7876,
    "ἣ": 7877,
    "ͣ": 7878,
    "ⲛ": 7879,
    "與": 7880,
    "ᇿ": 7881,
    "（": 7882,
    "‬": 7883,
    "म": 7884,
    "ེ": 7885,
    "♄": 7886,
    "兒": 7887,
    "爺": 7888,
    "ⁱ": 7889,
    "᷵": 7890,
    "Ș": 7891,
    "意": 7892,
    "和": 7893,
    "Ϲ": 7894,
    "）": 7895,
    "Я": 7896,
    "先": 7897,
    "Ć": 7898,
    "ف": 7899,
    "ྱ": 7900,
    "身": 7901,
    "Х": 7902,
    "न": 7903,
    "Ĥ": 7904,
    "會": 7905,
    "ⲁ": 7906,
    "ལ": 7907,
    "¥": 7908,
    "情": 7909,
    "將": 7910,
    "等": 7911,
    "處": 7912,
    "Ц": 7913,
    "य": 7914,
    "口": 7915,
    "住": 7916,
    "手": 7917,
    "錢": 7918,
    "ֲ": 7919,
    "四": 7920,
    "謂": 7921,
    "從": 7922,
    "໿": 7923,
    "ᵛ": 7924,
    "뿿": 7925,
    "ك": 7926,
    "ج": 7927,
    "ẖ": 7928,
    "拿": 7929,
    "東": 7930,
    "̀": 7931,
    "梁": 7932,
    "ش": 7933,
    "因": 7934,
    "仿": 7935,
    "水": 7936,
    "ⲟ": 7937,
    "五": 7938,
    "學": 7939,
    "至": 7940,
    "̣": 7941,
    "非": 7942,
    "原": 7943,
    "∴": 7944,
    "進": 7945,
    "ϛ": 7946,
    "َ": 7947,
    "ꝥ": 7948,
    "點": 7949,
    "♯": 7950,
    "月": 7951,
    "請": 7952,
    "☉": 7953,
    "ḷ": 7954,
    "百": 7955,
    "‿": 7956,
    "張": 7957,
    "罷": 7958,
    "經": 7959,
    "物": 7960,
    "⁻": 7961,
    "に": 7962,
    "故": 7963,
    "౓": 7964,
    "ᤰ": 7965,
    "❦": 7966,
    "聲": 7967,
    "क": 7968,
    "必": 7969,
    "Ĵ": 7970,
    "ꝑ": 7971,
    "": 7972,
    "≈": 7973,
    "葎": 7974,
    "少": 7975,
    "死": 7976,
    "훿": 7977,
    "信": 7978,
    "ː": 7979,
    "女": 7980,
    "ᾧ": 7981,
    "₉": 7982,
    "動": 7983,
    "ὢ": 7984,
    "西": 7985,
    "虎": 7986,
    "未": 7987,
    "ϖ": 7988,
    "號": 7989,
    "伯": 7990,
    "親": 7991,
    "ḟ": 7992,
    "禮": 7993,
    "定": 7994,
    "成": 7995,
    "뱵": 7996,
    "ḗ": 7997,
    "些": 7998,
    "間": 7999
  },
  "id2token": {
    "0": "<PAD>",
    "1": "<UNK>",
    "2": "<BOS>",
    "3": "<EOS>",
    "4": "<MASK>",
    "5": "<SEP>",
    "6": ",",
    "7": "the",
    "8": ".",
    "9": "of",
    "10": "and",
    "11": "to",
    "12": "a",
    "13": "in",
    "14": "is",
    "15": "that",
    "16": "I",
    "17": "was",
    "18": "it",
    "19": "s",
    "20": "as",
    "21": "he",
    "22": ";",
    "23": "on",
    "24": "with",
    "25": "de",
    "26": "-",
    "27": "\"",
    "28": "his",
    "29": "for",
    "30": "_",
    "31": "be",
    "32": "or",
    "33": "at",
    "34": "en",
    "35": "'",
    "36": "ing",
    "37": "you",
    "38": "not",
    "39": "by",
    "40": "an",
    "41": "had",
    "42": "The",
    "43": "ed",
    "44": "her",
    "45": "which",
    "46": "es",
    "47": "from",
    "48": "this",
    "49": "all",
    "50": "are",
    "51": "y",
    "52": "have",
    "53": "er",
    "54": "le",
    "55": "me",
    "56": "la",
    "57": "t",
    "58": "but",
    "59": "--",
    "60": "re",
    "61": "so",
    "62": "i",
    "63": "e",
    "64": "’",
    "65": "un",
    "66": "d",
    "67": "k",
    "68": ":",
    "69": "were",
    "70": "et",
    "71": "S",
    "72": "o",
    "73": "him",
    "74": "l",
    "75": "they",
    "76": "al",
    "77": "we",
    "78": "“",
    "79": "one",
    "80": "'s",
    "81": "A",
    "82": "no",
    "83": "n",
    "84": "she",
    "85": "se",
    "86": "my",
    "87": "p",
    "88": "ly",
    "89": "us",
    "90": "their",
    "91": "il",
    "92": "b",
    "93": "am",
    "94": "ch",
    "95": "C",
    "96": "u",
    "97": "m",
    "98": "do",
    "99": "te",
    "100": "man",
    "101": "g",
    "102": "(",
    "103": "ar",
    "104": "!",
    "105": "out",
    "106": "f",
    "107": "z",
    "108": "c",
    "109": "He",
    "110": "who",
    "111": "B",
    "112": "been",
    "113": "them",
    "114": "é",
    "115": "M",
    "116": "E",
    "117": "up",
    "118": "P",
    "119": "el",
    "120": "que",
    "121": "said",
    "122": "would",
    "123": "will",
    "124": "ne",
    "125": "if",
    "126": "T",
    "127": "h",
    "128": "its",
    "129": "?",
    "130": "there",
    "131": "D",
    "132": ".\"",
    "133": "ent",
    "134": "any",
    "135": "F",
    "136": "It",
    "137": "v",
    "138": "ge",
    "139": "when",
    "140": "L",
    "141": ",\"",
    "142": "G",
    "143": "has",
    "144": "more",
    "145": "est",
    "146": "ation",
    "147": "th",
    "148": "st",
    "149": "our",
    "150": "H",
    "151": "sa",
    "152": "1",
    "153": "ta",
    "154": "im",
    "155": "r",
    "156": "ers",
    "157": "can",
    "158": "into",
    "159": "ant",
    "160": "les",
    "161": "In",
    "162": "other",
    "163": "di",
    "164": "si",
    "165": "men",
    "166": "j",
    "167": "der",
    "168": "ic",
    "169": "qu",
    "170": "K",
    "171": "ra",
    "172": "Project",
    "173": "W",
    "174": "some",
    "175": "des",
    "176": "Gutenberg",
    "177": "work",
    "178": "con",
    "179": "ad",
    "180": "ver",
    "181": "R",
    "182": "very",
    "183": "w",
    "184": "over",
    "185": "than",
    "186": "per",
    "187": "And",
    "188": "li",
    "189": "ri",
    "190": "à",
    "191": "ja",
    "192": "But",
    "193": "what",
    "194": "N",
    "195": "time",
    "196": "could",
    "197": "O",
    "198": "may",
    "199": "about",
    "200": "lo",
    "201": "ve",
    "202": "um",
    "203": "your",
    "204": "ment",
    "205": "upon",
    "206": "den",
    "207": "ur",
    "208": "ut",
    "209": "only",
    "210": "ma",
    "211": "end",
    "212": "ate",
    "213": "go",
    "214": "dis",
    "215": "then",
    "216": "ce",
    "217": "au",
    "218": "like",
    "219": "ro",
    "220": "ter",
    "221": "now",
    "222": "ä",
    "223": ")",
    "224": "ke",
    "225": "che",
    "226": "ine",
    "227": "must",
    "228": "om",
    "229": "em",
    "230": "ist",
    "231": "two",
    "232": "little",
    "233": "made",
    "234": "'t",
    "235": "able",
    "236": "such",
    "237": "par",
    "238": "ia",
    "239": "where",
    "240": "vi",
    "241": "day",
    "242": "und",
    "243": "ion",
    "244": "ten",
    "245": "ir",
    "246": "son",
    "247": "these",
    "248": "ha",
    "249": "before",
    "250": "should",
    "251": "po",
    "252": "V",
    "253": "great",
    "254": "way",
    "255": "did",
    "256": "see",
    "257": "most",
    "258": "ity",
    "259": "id",
    "260": "die",
    "261": "ab",
    "262": "old",
    "263": "much",
    "264": "ie",
    "265": "after",
    "266": "ol",
    "267": "co",
    "268": "down",
    "269": "first",
    "270": "pe",
    "271": "ig",
    "272": "well",
    "273": "—",
    "274": "os",
    "275": "long",
    "276": "You",
    "277": "á",
    "278": "under",
    "279": "ag",
    "280": "good",
    "281": "res",
    "282": "Mr",
    "283": "su",
    "284": "3",
    "285": "ul",
    "286": "know",
    "287": "mo",
    "288": "own",
    "289": "du",
    "290": "ated",
    "291": "part",
    "292": "come",
    "293": "ck",
    "294": "She",
    "295": "red",
    "296": ".”",
    "297": "ac",
    "298": "5",
    "299": "ti",
    "300": "op",
    "301": "We",
    "302": "2",
    "303": "?\"",
    "304": "ou",
    "305": ",”",
    "306": "If",
    "307": "ex",
    "308": "J",
    "309": "being",
    "310": "ot",
    "311": "ty",
    "312": "pro",
    "313": "ci",
    "314": "without",
    "315": "This",
    "316": "never",
    "317": "those",
    "318": "back",
    "319": "qui",
    "320": "less",
    "321": "6",
    "322": "[",
    "323": "gen",
    "324": "through",
    "325": "let",
    "326": "off",
    "327": "how",
    "328": "even",
    "329": "hand",
    "330": "une",
    "331": "van",
    "332": "came",
    "333": "ions",
    "334": "8",
    "335": "many",
    "336": "life",
    "337": "ure",
    "338": "ap",
    "339": "ous",
    "340": "make",
    "341": "don",
    "342": "ations",
    "343": "va",
    "344": "use",
    "345": "They",
    "346": "7",
    "347": "ill",
    "348": "ces",
    "349": "found",
    "350": "There",
    "351": "ance",
    "352": "ies",
    "353": "himself",
    "354": "4",
    "355": "here",
    "356": "place",
    "357": "als",
    "358": "same",
    "359": "too",
    "360": "just",
    "361": "ts",
    "362": "shall",
    "363": "ere",
    "364": "na",
    "365": "art",
    "366": "9",
    "367": "ness",
    "368": "ak",
    "369": "ze",
    "370": "x",
    "371": "ens",
    "372": "say",
    "373": "sp",
    "374": "ö",
    "375": "ik",
    "376": "might",
    "377": "ard",
    "378": "je",
    "379": "ence",
    "380": "every",
    "381": "ins",
    "382": "last",
    "383": "mon",
    "384": "people",
    "385": "tu",
    "386": "ct",
    "387": "ans",
    "388": "right",
    "389": "works",
    "390": "also",
    "391": "again",
    "392": "while",
    "393": "land",
    "394": "set",
    "395": "pre",
    "396": "elle",
    "397": "ry",
    "398": "ful",
    "399": "ish",
    "400": "ings",
    "401": "away",
    "402": "tra",
    "403": "!\"",
    "404": "ni",
    "405": "av",
    "406": "vo",
    "407": "U",
    "408": "mer",
    "409": "age",
    "410": "An",
    "411": "war",
    "412": "sh",
    "413": "ite",
    "414": "get",
    "415": "thought",
    "416": "still",
    "417": "ho",
    "418": "think",
    "419": "ors",
    "420": "ast",
    "421": "ven",
    "422": "night",
    "423": "pu",
    "424": "led",
    "425": "went",
    "426": "pi",
    "427": "take",
    "428": "No",
    "429": "To",
    "430": "St",
    "431": "ung",
    "432": "head",
    "433": "com",
    "434": "min",
    "435": "ber",
    "436": "fe",
    "437": "sc",
    "438": "met",
    "439": "ons",
    "440": "form",
    "441": "int",
    "442": "Le",
    "443": "years",
    "444": "mar",
    "445": "ser",
    "446": "far",
    "447": "ó",
    "448": "house",
    "449": "pas",
    "450": "ess",
    "451": "bo",
    "452": "sur",
    "453": "ever",
    "454": "De",
    "455": "Y",
    "456": "ue",
    "457": "three",
    "458": "tr",
    "459": "ka",
    "460": "ary",
    "461": "put",
    "462": "ait",
    "463": "As",
    "464": "ks",
    "465": "ass",
    "466": "God",
    "467": "ical",
    "468": "Al",
    "469": "eyes",
    "470": "oli",
    "471": "though",
    "472": "side",
    "473": "give",
    "474": "against",
    "475": "For",
    "476": "ire",
    "477": "new",
    "478": "world",
    "479": "lu",
    "480": "ang",
    "481": "car",
    "482": "rest",
    "483": "pour",
    "484": "thing",
    "485": "tä",
    "486": "),",
    "487": "val",
    "488": "light",
    "489": "da",
    "490": "What",
    "491": "ted",
    "492": "pl",
    "493": "another",
    "494": "pa",
    "495": "és",
    "496": "jo",
    "497": "ble",
    "498": "each",
    "499": "sch",
    "500": "ru",
    "501": "del",
    "502": "left",
    "503": "”",
    "504": "young",
    "505": "ise",
    "506": "face",
    "507": "yet",
    "508": "full",
    "509": "ale",
    "510": "country",
    "511": "od",
    "512": "once",
    "513": "ph",
    "514": "io",
    "515": "hän",
    "516": "That",
    "517": "br",
    "518": "When",
    "519": "dans",
    "520": "=",
    "521": "few",
    "522": "pr",
    "523": "At",
    "524": "bed",
    "525": "water",
    "526": "seen",
    "527": "ay",
    "528": "sent",
    "529": "mi",
    "530": "between",
    "531": ".,",
    "532": "things",
    "533": "ian",
    "534": "...",
    "535": "called",
    "536": "electronic",
    "537": "His",
    "538": "het",
    "539": "took",
    "540": "Then",
    "541": "vol",
    "542": "az",
    "543": "mind",
    "544": "ive",
    "545": "nothing",
    "546": "On",
    "547": "used",
    "548": "è",
    "549": "ating",
    "550": "days",
    "551": "bl",
    "552": "room",
    "553": "saw",
    "554": "Re",
    "555": "ments",
    "556": "mis",
    "557": "king",
    "558": "ich",
    "559": "ally",
    "560": "ud",
    "561": "ü",
    "562": "find",
    "563": "zu",
    "564": "att",
    "565": "heart",
    "566": "inter",
    "567": "ves",
    "568": "bar",
    "569": "än",
    "570": "ton",
    "571": "course",
    "572": "ction",
    "573": "So",
    "574": "gi",
    "575": "ken",
    "576": "dé",
    "577": "always",
    "578": "mit",
    "579": "non",
    "580": "Foundation",
    "581": "because",
    "582": "aan",
    "583": "half",
    "584": "both",
    "585": "got",
    "586": "ell",
    "587": "name",
    "588": "ran",
    "589": "small",
    "590": "States",
    "591": "Ch",
    "592": "ée",
    "593": "father",
    "594": "ann",
    "595": "ys",
    "596": "]",
    "597": "ff",
    "598": "terms",
    "599": "law",
    "600": "col",
    "601": "whole",
    "602": "door",
    "603": "gu",
    "604": "moment",
    "605": "present",
    "606": "tell",
    "607": "love",
    "608": "18",
    "609": "ps",
    "610": "Ar",
    "611": "los",
    "612": "»",
    "613": "ob",
    "614": "Mrs",
    "615": "ko",
    "616": "cr",
    "617": "ll",
    "618": "having",
    "619": "Mar",
    "620": "af",
    "621": "going",
    "622": "ling",
    "623": "whom",
    "624": "í",
    "625": "mu",
    "626": "ily",
    "627": "ben",
    "628": "ren",
    "629": "look",
    "630": "taken",
    "631": "looked",
    "632": "home",
    "633": "ile",
    "634": "fer",
    "635": "almost",
    "636": "‘",
    "637": "ach",
    "638": "ku",
    "639": "mother",
    "640": "United",
    "641": "sen",
    "642": "certain",
    "643": "told",
    "644": "ner",
    "645": "ille",
    "646": "ais",
    "647": "ok",
    "648": "ved",
    "649": "α",
    "650": "gr",
    "651": "een",
    "652": "done",
    "653": ".--",
    "654": "iv",
    "655": "dem",
    "656": "seemed",
    "657": "ste",
    "658": "ates",
    "659": "«",
    "660": "ged",
    "661": "given",
    "662": "plus",
    "663": "ier",
    "664": "low",
    "665": "fa",
    "666": "Z",
    "667": "ki",
    "668": "por",
    "669": "heard",
    "670": "Se",
    "671": "person",
    "672": "best",
    "673": "lie",
    "674": "woman",
    "675": "however",
    "676": "vers",
    "677": "ein",
    "678": "En",
    "679": "sie",
    "680": "kin",
    "681": "ils",
    "682": "cu",
    "683": "order",
    "684": "Be",
    "685": "among",
    "686": "asked",
    "687": "ré",
    "688": "hu",
    "689": "large",
    "690": "nor",
    "691": "better",
    "692": "point",
    "693": "ink",
    "694": "soon",
    "695": "mal",
    "696": "cannot",
    "697": "16",
    "698": "ust",
    "699": "15",
    "700": "four",
    "701": "ny",
    "702": "knew",
    "703": "copyright",
    "704": "ah",
    "705": "until",
    "706": "ely",
    "707": "arm",
    "708": "read",
    "709": "vous",
    "710": "ges",
    "711": "ca",
    "712": "ain",
    "713": "state",
    "714": "ind",
    "715": "ε",
    "716": "enough",
    "717": "ches",
    "718": "ien",
    "719": "19",
    "720": "0",
    "721": "something",
    "722": "ger",
    "723": "does",
    "724": "ai",
    "725": "wi",
    "726": "words",
    "727": "?”",
    "728": "act",
    "729": "mes",
    "730": "Her",
    "731": ",--",
    "732": "air",
    "733": "hands",
    "734": "med",
    "735": "quite",
    "736": "want",
    "737": "fact",
    "738": "power",
    "739": "word",
    "740": "sin",
    "741": "fl",
    "742": "itt",
    "743": "bre",
    "744": "ret",
    "745": "others",
    "746": "kind",
    "747": "gra",
    "748": "gave",
    "749": "'ll",
    "750": "σ",
    "751": "Th",
    "752": "vel",
    "753": "agreement",
    "754": "ker",
    "755": "ses",
    "756": "bes",
    "757": "public",
    "758": "urs",
    "759": "lay",
    "760": "ää",
    "761": "Lord",
    "762": "year",
    "763": "sel",
    "764": "Con",
    "765": "brought",
    "766": "pass",
    "767": "har",
    "768": "La",
    "769": "von",
    "770": "white",
    "771": "within",
    "772": "ship",
    "773": "das",
    "774": "Oh",
    "775": "leg",
    "776": "ow",
    "777": "John",
    "778": "pt",
    "779": ").",
    "780": "death",
    "781": "often",
    "782": "whose",
    "783": "ina",
    "784": "ort",
    "785": "og",
    "786": "ei",
    "787": "17",
    "788": "ting",
    "789": "ään",
    "790": "number",
    "791": "forth",
    "792": "high",
    "793": "body",
    "794": "case",
    "795": "iss",
    "796": "till",
    "797": "bu",
    "798": "My",
    "799": "sk",
    "800": "means",
    "801": "All",
    "802": "round",
    "803": "hy",
    "804": "sure",
    "805": "lui",
    "806": "ving",
    "807": "Qu",
    "808": "ν",
    "809": "themselves",
    "810": "inc",
    "811": "Il",
    "812": "cor",
    "813": "ba",
    "814": "Ma",
    "815": "pen",
    "816": "fully",
    "817": "fin",
    "818": "Do",
    "819": "Com",
    "820": "second",
    "821": "turned",
    "822": "feet",
    "823": "keep",
    "824": "ple",
    "825": "New",
    "826": "pp",
    "827": "known",
    "828": "ère",
    "829": "gar",
    "830": "gl",
    "831": "ward",
    "832": "cy",
    "833": "near",
    "834": "ep",
    "835": "ice",
    "836": "pla",
    "837": "sun",
    "838": "alle",
    "839": "money",
    "840": "sal",
    "841": "10",
    "842": "By",
    "843": "cer",
    "844": "ial",
    "845": "morning",
    "846": "ient",
    "847": "cur",
    "848": "open",
    "849": "since",
    "850": "real",
    "851": "cher",
    "852": "ition",
    "853": "ents",
    "854": "rather",
    "855": "ages",
    "856": "ord",
    "857": "cht",
    "858": ".]",
    "859": "fo",
    "860": "fire",
    "861": "nature",
    "862": "ctions",
    "863": "ants",
    "864": "matter",
    "865": "kun",
    "866": "tri",
    "867": "next",
    "868": "™",
    "869": "pal",
    "870": "org",
    "871": "ined",
    "872": "ets",
    "873": "felt",
    "874": "aux",
    "875": "inen",
    "876": "comp",
    "877": "English",
    "878": "fi",
    "879": "cted",
    "880": "kä",
    "881": "together",
    "882": "began",
    "883": "With",
    "884": "received",
    "885": "sy",
    "886": "alla",
    "887": "ced",
    "888": "ley",
    "889": "Miss",
    "890": "auf",
    "891": "sto",
    "892": "sub",
    "893": "above",
    "894": "ris",
    "895": "ath",
    "896": "free",
    "897": "poor",
    "898": "ron",
    "899": "cent",
    "900": "12",
    "901": "ism",
    "902": "gy",
    "903": "help",
    "904": "hold",
    "905": "care",
    "906": "line",
    "907": "cut",
    "908": "una",
    "909": "thus",
    "910": "ρ",
    "911": "hear",
    "912": "ss",
    "913": "ched",
    "914": "held",
    "915": "bra",
    "916": "â",
    "917": "along",
    "918": "Now",
    "919": "ars",
    "920": "child",
    "921": "mat",
    "922": "nu",
    "923": "Sch",
    "924": "ities",
    "925": "How",
    "926": "ped",
    "927": "either",
    "928": "/",
    "929": "true",
    "930": "sz",
    "931": "ear",
    "932": "ont",
    "933": "æ",
    "934": "following",
    "935": "general",
    "936": "ground",
    "937": "Well",
    "938": "anything",
    "939": "laws",
    "940": "hi",
    "941": "ole",
    "942": "says",
    "943": "gh",
    "944": "las",
    "945": "ane",
    "946": "ici",
    "947": "stood",
    "948": "children",
    "949": "ato",
    "950": "'d",
    "951": "question",
    "952": "ters",
    "953": "short",
    "954": "different",
    "955": "ently",
    "956": "ene",
    "957": "voice",
    "958": "passed",
    "959": "grand",
    "960": "τ",
    "961": "ux",
    "962": "girl",
    "963": "cl",
    "964": "city",
    "965": "King",
    "966": "boy",
    "967": "during",
    "968": "friend",
    "969": "vä",
    "970": "five",
    "971": "ado",
    "972": "ft",
    "973": "hard",
    "974": "several",
    "975": "lic",
    "976": "thy",
    "977": "π",
    "978": "era",
    "979": "tre",
    "980": "amp",
    "981": "sat",
    "982": "sich",
    "983": "aus",
    "984": "ς",
    "985": "ref",
    "986": "Sir",
    "987": "One",
    "988": "wh",
    "989": "vent",
    "990": "Of",
    "991": "six",
    "992": "hundred",
    "993": "pain",
    "994": "!”",
    "995": "était",
    "996": "ative",
    "997": "wife",
    "998": "common",
    "999": "var",
    "1000": "ér",
    "1001": "ye",
    "1002": "tal",
    "1003": "sum",
    "1004": "times",
    "1005": "Pro",
    "1006": "ista",
    "1007": "already",
    "1008": "että",
    "1009": "ures",
    "1010": "ster",
    "1011": "tt",
    "1012": "ery",
    "1013": "cks",
    "1014": "speak",
    "1015": "table",
    "1016": "alone",
    "1017": "ß",
    "1018": "ita",
    "1019": "myself",
    "1020": "ante",
    "1021": "14",
    "1022": "position",
    "1023": "za",
    "1024": "hope",
    "1025": "gli",
    "1026": "ug",
    "1027": "ats",
    "1028": "ime",
    "1029": "ő",
    "1030": "hen",
    "1031": "return",
    "1032": "run",
    "1033": "believe",
    "1034": "main",
    "1035": "strong",
    "1036": "chen",
    "1037": "ended",
    "1038": "reason",
    "1039": "sol",
    "1040": "perhaps",
    "1041": "pit",
    "1042": "copy",
    "1043": "black",
    "1044": "mag",
    "1045": "town",
    "1046": "vis",
    "1047": "call",
    "1048": "sea",
    "1049": "need",
    "1050": "nä",
    "1051": "view",
    "1052": "Archive",
    "1053": "avec",
    "1054": "ring",
    "1055": "gro",
    "1056": "least",
    "1057": "Literary",
    "1058": "port",
    "1059": "nous",
    "1060": "French",
    "1061": "itself",
    "1062": "hal",
    "1063": "ide",
    "1064": "ured",
    "1065": "ά",
    "1066": "letter",
    "1067": "ines",
    "1068": "England",
    "1069": "iz",
    "1070": "dit",
    "1071": "subject",
    "1072": "ler",
    "1073": "stand",
    "1074": "force",
    "1075": "herself",
    "1076": "gone",
    "1077": "pos",
    "1078": "trademark",
    "1079": "rom",
    "1080": "Yes",
    "1081": "pet",
    "1082": "Un",
    "1083": "app",
    "1084": "ious",
    "1085": "Or",
    "1086": "dear",
    "1087": "20",
    "1088": "els",
    "1089": "women",
    "1090": "sort",
    "1091": "wel",
    "1092": "nicht",
    "1093": "λ",
    "1094": "charge",
    "1095": "hat",
    "1096": "ban",
    "1097": "cre",
    "1098": "13",
    "1099": "ened",
    "1100": "looking",
    "1101": "possible",
    "1102": "&",
    "1103": "earth",
    "1104": "ij",
    "1105": "rel",
    "1106": "human",
    "1107": "ky",
    "1108": "respect",
    "1109": "bon",
    "1110": "dead",
    "1111": "mean",
    "1112": "fore",
    "1113": ".'",
    "1114": "nen",
    "1115": "access",
    "1116": "ning",
    "1117": "ual",
    "1118": "ond",
    "1119": "therefore",
    "1120": "became",
    "1121": "wo",
    "1122": "Je",
    "1123": "ju",
    "1124": "μ",
    "1125": "turn",
    "1126": "ds",
    "1127": "mir",
    "1128": "indeed",
    "1129": "aut",
    "1130": "wer",
    "1131": "book",
    "1132": "ER",
    "1133": "character",
    "1134": "bien",
    "1135": "ade",
    "1136": "Col",
    "1137": "ksi",
    "1138": "ull",
    "1139": "avait",
    "1140": "ano",
    "1141": "Is",
    "1142": "sil",
    "1143": "donations",
    "1144": "ê",
    "1145": "making",
    "1146": "road",
    "1147": "reg",
    "1148": "Me",
    "1149": "unt",
    "1150": "hour",
    "1151": "become",
    "1152": "vin",
    "1153": "κ",
    "1154": "bel",
    "1155": "sha",
    "1156": "ick",
    "1157": "early",
    "1158": "ham",
    "1159": "business",
    "1160": "past",
    "1161": "chief",
    "1162": "ave",
    "1163": "cause",
    "1164": "ç",
    "1165": "arms",
    "1166": "General",
    "1167": "paid",
    "1168": "Why",
    "1169": "sive",
    "1170": "sem",
    "1171": "foot",
    "1172": "len",
    "1173": "stra",
    "1174": "mais",
    "1175": "wish",
    "1176": "ought",
    "1177": "leave",
    "1178": "Car",
    "1179": "dat",
    "1180": "ther",
    "1181": "around",
    "1182": "Ro",
    "1183": "ously",
    "1184": "post",
    "1185": "ip",
    "1186": "thou",
    "1187": "whether",
    "1188": "lich",
    "1189": "wind",
    "1190": "Per",
    "1191": "change",
    "1192": "ered",
    "1193": "manner",
    "1194": "visit",
    "1195": "ore",
    "1196": "Par",
    "1197": "friends",
    "1198": "After",
    "1199": "fear",
    "1200": "ata",
    "1201": "bs",
    "1202": "ih",
    "1203": "later",
    "1204": "tem",
    "1205": "Er",
    "1206": "coming",
    "1207": "cing",
    "1208": "iled",
    "1209": "tout",
    "1210": "dra",
    "1211": "vor",
    "1212": "family",
    "1213": "behind",
    "1214": "X",
    "1215": "pri",
    "1216": "ät",
    "1217": "cal",
    "1218": "show",
    "1219": "feel",
    "1220": "close",
    "1221": "Not",
    "1222": "lost",
    "1223": "why",
    "1224": "ele",
    "1225": "doubt",
    "1226": "hel",
    "1227": "cried",
    "1228": "lim",
    "1229": "'m",
    "1230": "These",
    "1231": "conf",
    "1232": "ada",
    "1233": "Bar",
    "1234": "fell",
    "1235": "ett",
    "1236": "using",
    "1237": "ash",
    "1238": "sight",
    "1239": ".)",
    "1240": "Ne",
    "1241": "regard",
    "1242": "ished",
    "1243": "000",
    "1244": "kept",
    "1245": ",'",
    "1246": "pres",
    "1247": "fine",
    "1248": "effect",
    "1249": "tro",
    "1250": "mel",
    "1251": "sho",
    "1252": "necessary",
    "1253": "00",
    "1254": "self",
    "1255": "comme",
    "1256": "η",
    "1257": "replied",
    "1258": "assa",
    "1259": "cont",
    "1260": "ingly",
    "1261": "Ver",
    "1262": "dark",
    "1263": "beautiful",
    "1264": "ο",
    "1265": "án",
    "1266": "ited",
    "1267": "Lu",
    "1268": "ask",
    "1269": "AR",
    "1270": "enn",
    "1271": "Mon",
    "1272": "Some",
    "1273": "Bo",
    "1274": "See",
    "1275": "aw",
    "1276": "written",
    "1277": "sign",
    "1278": "eBook",
    "1279": "kes",
    "1280": "Don",
    "1281": "Co",
    "1282": "gel",
    "1283": "tern",
    "1284": "twenty",
    "1285": "ony",
    "1286": "orn",
    "1287": "wood",
    "1288": "tain",
    "1289": "hr",
    "1290": "ette",
    "1291": "rit",
    "1292": "ana",
    "1293": "horse",
    "1294": "really",
    "1295": "illa",
    "1296": "paragraph",
    "1297": "party",
    "1298": "bit",
    "1299": "bad",
    "1300": "ando",
    "1301": "bal",
    "1302": "seems",
    "1303": "lady",
    "1304": "clo",
    "1305": "truth",
    "1306": "ared",
    "1307": "ult",
    "1308": "except",
    "1309": "cost",
    "1310": "answered",
    "1311": "ld",
    "1312": "esta",
    "1313": "else",
    "1314": "natural",
    "1315": "mas",
    "1316": "ably",
    "1317": "tes",
    "1318": "ago",
    "1319": "mä",
    "1320": "towards",
    "1321": "rid",
    "1322": "story",
    "1323": "fee",
    "1324": "deep",
    "1325": "object",
    "1326": "ics",
    "1327": "pay",
    "1328": "Let",
    "1329": "acc",
    "1330": "live",
    "1331": "sound",
    "1332": "lies",
    "1333": "won",
    "1334": "mission",
    "1335": "oh",
    "1336": "died",
    "1337": "ek",
    "1338": "ied",
    "1339": "bound",
    "1340": "ists",
    "1341": "including",
    "1342": "fu",
    "1343": "ded",
    "1344": "From",
    "1345": "enter",
    "1346": "El",
    "1347": "river",
    "1348": "Nor",
    "1349": "ank",
    "1350": "master",
    "1351": "seem",
    "1352": "έ",
    "1353": "bring",
    "1354": "ances",
    "1355": "'ve",
    "1356": "Dr",
    "1357": "nearly",
    "1358": "France",
    "1359": "clear",
    "1360": "ned",
    "1361": "sir",
    "1362": "isi",
    "1363": "further",
    "1364": "ú",
    "1365": "cette",
    "1366": "ute",
    "1367": "fort",
    "1368": "thousand",
    "1369": "rich",
    "1370": "ready",
    "1371": "ident",
    "1372": "followed",
    "1373": "exp",
    "1374": "tax",
    "1375": "parts",
    "1376": "mor",
    "1377": "understand",
    "1378": "late",
    "1379": "cou",
    "1380": "han",
    "1381": "wa",
    "1382": "sou",
    "1383": "trans",
    "1384": "www",
    "1385": "lin",
    "1386": "gutenberg",
    "1387": "cour",
    "1388": "account",
    "1389": "play",
    "1390": "ory",
    "1391": "ised",
    "1392": "big",
    "1393": "bus",
    "1394": "pur",
    "1395": "Man",
    "1396": "char",
    "1397": "cked",
    "1398": "cap",
    "1399": "Po",
    "1400": "ί",
    "1401": "ò",
    "1402": "ms",
    "1403": "period",
    "1404": "brother",
    "1405": "kuin",
    "1406": "carried",
    "1407": "cra",
    "1408": "lot",
    "1409": "idea",
    "1410": "zen",
    "1411": "ging",
    "1412": "soul",
    "1413": "meet",
    "1414": "miles",
    "1415": "lä",
    "1416": "blood",
    "1417": "hänen",
    "1418": "nyt",
    "1419": "top",
    "1420": "Ge",
    "1421": "taking",
    "1422": "purpose",
    "1423": "returned",
    "1424": "mot",
    "1425": "IN",
    "1426": "ét",
    "1427": "London",
    "1428": "pol",
    "1429": "Here",
    "1430": "row",
    "1431": "across",
    "1432": "niin",
    "1433": "agree",
    "1434": "EN",
    "1435": "gn",
    "1436": "sometimes",
    "1437": "answer",
    "1438": "ino",
    "1439": "spirit",
    "1440": "ong",
    "1441": "placed",
    "1442": "May",
    "1443": "ía",
    "1444": "bi",
    "1445": "Ex",
    "1446": "command",
    "1447": "interest",
    "1448": "pped",
    "1449": "pat",
    "1450": "mus",
    "1451": "bly",
    "1452": "isen",
    "1453": "field",
    "1454": "blo",
    "1455": "30",
    "1456": "sense",
    "1457": "fall",
    "1458": "evening",
    "1459": "church",
    "1460": "ert",
    "1461": "én",
    "1462": "below",
    "1463": "cts",
    "1464": "ό",
    "1465": "cold",
    "1466": "ator",
    "1467": "gent",
    "1468": "ying",
    "1469": "ili",
    "1470": "paper",
    "1471": "ES",
    "1472": "å",
    "1473": "beg",
    "1474": "trou",
    "1475": "dar",
    "1476": "fair",
    "1477": "sm",
    "1478": "bri",
    "1479": "cas",
    "1480": "som",
    "1481": "eye",
    "1482": "front",
    "1483": "Ber",
    "1484": "ards",
    "1485": "atta",
    "1486": "ends",
    "1487": "success",
    "1488": "yn",
    "1489": "ité",
    "1490": "ater",
    "1491": "sus",
    "1492": "plan",
    "1493": "school",
    "1494": "bla",
    "1495": "hon",
    "1496": "ending",
    "1497": "happy",
    "1498": "fast",
    "1499": "Au",
    "1500": "knowledge",
    "1501": "important",
    "1502": "ι",
    "1503": "reached",
    "1504": "stone",
    "1505": "ours",
    "1506": "str",
    "1507": "secret",
    "1508": "ately",
    "1509": "bow",
    "1510": "fr",
    "1511": "ding",
    "1512": "ön",
    "1513": "ander",
    "1514": "bli",
    "1515": "add",
    "1516": "License",
    "1517": "American",
    "1518": "Illustration",
    "1519": "appeared",
    "1520": "–",
    "1521": "vu",
    "1522": "leur",
    "1523": "ix",
    "1524": "25",
    "1525": "future",
    "1526": "dr",
    "1527": "ef",
    "1528": "itä",
    "1529": "*",
    "1530": "bro",
    "1531": "particular",
    "1532": "ON",
    "1533": "fra",
    "1534": "pers",
    "1535": "forward",
    "1536": "aj",
    "1537": "continued",
    "1538": "asi",
    "1539": "thee",
    "1540": "ii",
    "1541": "press",
    "1542": "hair",
    "1543": "vain",
    "1544": "peace",
    "1545": "Can",
    "1546": "lan",
    "1547": "bled",
    "1548": "uri",
    "1549": "AN",
    "1550": "Gu",
    "1551": "ild",
    "1552": "latter",
    "1553": "iden",
    "1554": "hours",
    "1555": "ese",
    "1556": "mé",
    "1557": "spe",
    "1558": "net",
    "1559": "rose",
    "1560": "company",
    "1561": "vast",
    "1562": "ura",
    "1563": "ase",
    "1564": "service",
    "1565": "prim",
    "1566": "cri",
    "1567": "fellow",
    "1568": "ress",
    "1569": "--\"",
    "1570": "start",
    "1571": "alt",
    "1572": "zo",
    "1573": "longer",
    "1574": "individual",
    "1575": "ör",
    "1576": "lect",
    "1577": "husband",
    "1578": "Christ",
    "1579": "stri",
    "1580": "history",
    "1581": "wonder",
    "1582": "Ad",
    "1583": "ua",
    "1584": "issa",
    "1585": "especially",
    "1586": "sw",
    "1587": "....",
    "1588": "deal",
    "1589": "action",
    "1590": "fle",
    "1591": "fla",
    "1592": "ences",
    "1593": "appear",
    "1594": "German",
    "1595": "II",
    "1596": "hum",
    "1597": "dan",
    "1598": "Su",
    "1599": "rad",
    "1600": "né",
    "1601": "teen",
    "1602": "ga",
    "1603": "provide",
    "1604": "try",
    "1605": "fac",
    "1606": "cast",
    "1607": "rie",
    "1608": "RE",
    "1609": "tar",
    "1610": "pot",
    "1611": "bear",
    "1612": "ey",
    "1613": "même",
    "1614": "probably",
    "1615": "wild",
    "1616": "itude",
    "1617": "hall",
    "1618": "inf",
    "1619": "vid",
    "1620": "cul",
    "1621": "ras",
    "1622": "sleep",
    "1623": "added",
    "1624": "yt",
    "1625": "ush",
    "1626": "jour",
    "1627": "super",
    "1628": "imp",
    "1629": "represent",
    "1630": "sä",
    "1631": "det",
    "1632": "ight",
    "1633": "Paris",
    "1634": "ign",
    "1635": "mouth",
    "1636": "follow",
    "1637": "lar",
    "1638": "50",
    "1639": "lad",
    "1640": "Hän",
    "1641": "alter",
    "1642": "covered",
    "1643": "associated",
    "1644": "+",
    "1645": "race",
    "1646": "beyond",
    "1647": "ero",
    "1648": "stu",
    "1649": "oun",
    "1650": "pon",
    "1651": "γ",
    "1652": "ices",
    "1653": "υ",
    "1654": "ked",
    "1655": "camp",
    "1656": "worth",
    "1657": "gold",
    "1658": "24",
    "1659": "kö",
    "1660": "zz",
    "1661": "ones",
    "1662": "glad",
    "1663": "everything",
    "1664": "dou",
    "1665": "Mo",
    "1666": "ali",
    "1667": "occasion",
    "1668": "ford",
    "1669": "information",
    "1670": "allow",
    "1671": "system",
    "1672": "feeling",
    "1673": "length",
    "1674": "hem",
    "1675": "pes",
    "1676": "tun",
    "1677": "support",
    "1678": "hä",
    "1679": "quel",
    "1680": "cia",
    "1681": "ena",
    "1682": "ñ",
    "1683": "zt",
    "1684": "refund",
    "1685": "cry",
    "1686": "hun",
    "1687": "fit",
    "1688": "living",
    "1689": "talk",
    "1690": "toward",
    "1691": "cir",
    "1692": "san",
    "1693": "eld",
    "1694": "Go",
    "1695": "although",
    "1696": "tim",
    "1697": "bas",
    "1698": "ico",
    "1699": "stay",
    "1700": "vir",
    "1701": "laid",
    "1702": "didn",
    "1703": "lead",
    "1704": "ella",
    "1705": "sed",
    "1706": "suddenly",
    "1707": "copies",
    "1708": "cla",
    "1709": "sit",
    "1710": "strange",
    "1711": "makes",
    "1712": "army",
    "1713": "pan",
    "1714": "consider",
    "1715": "Har",
    "1716": "fun",
    "1717": "remember",
    "1718": "Cor",
    "1719": "wie",
    "1720": "ound",
    "1721": "arri",
    "1722": "cro",
    "1723": "Pr",
    "1724": "boys",
    "1725": "igen",
    "1726": "para",
    "1727": "δ",
    "1728": "bor",
    "1729": "attention",
    "1730": "Du",
    "1731": "eng",
    "1732": "office",
    "1733": "vie",
    "1734": "Gr",
    "1735": "William",
    "1736": "rep",
    "1737": "OR",
    "1738": "ár",
    "1739": "trees",
    "1740": "Christian",
    "1741": "mil",
    "1742": "distance",
    "1743": "lat",
    "1744": "comes",
    "1745": "cam",
    "1746": "tor",
    "1747": "located",
    "1748": "organ",
    "1749": "writing",
    "1750": "ues",
    "1751": "daughter",
    "1752": "ivat",
    "1753": "vé",
    "1754": "ani",
    "1755": "28",
    "1756": "ching",
    "1757": "ison",
    "1758": "ray",
    "1759": "government",
    "1760": "llä",
    "1761": "hom",
    "1762": "comb",
    "1763": "spoke",
    "1764": "sweet",
    "1765": "enemy",
    "1766": "pou",
    "1767": "|",
    "1768": "~",
    "1769": "zijn",
    "1770": "due",
    "1771": "inst",
    "1772": "'re",
    "1773": "della",
    "1774": "prof",
    "1775": "states",
    "1776": "asta",
    "1777": "permission",
    "1778": "ome",
    "1779": "sta",
    "1780": "pra",
    "1781": "tos",
    "1782": "tin",
    "1783": "ques",
    "1784": "être",
    "1785": "various",
    "1786": "daß",
    "1787": "Ab",
    "1788": "boat",
    "1789": "nat",
    "1790": "prom",
    "1791": "eu",
    "1792": "sing",
    "1793": "suppose",
    "1794": "demand",
    "1795": "test",
    "1796": "fait",
    "1797": "oll",
    "1798": "green",
    "1799": "ui",
    "1800": "hood",
    "1801": "conce",
    "1802": "sans",
    "1803": "formed",
    "1804": "class",
    "1805": "ius",
    "1806": "iter",
    "1807": "vat",
    "1808": "star",
    "1809": "doing",
    "1810": "board",
    "1811": "Captain",
    "1812": "iles",
    "1813": "York",
    "1814": "dig",
    "1815": "books",
    "1816": "nes",
    "1817": "TH",
    "1818": "ric",
    "1819": "entered",
    "1820": "Section",
    "1821": "greater",
    "1822": "remain",
    "1823": "dire",
    "1824": "none",
    "1825": "cell",
    "1826": "Lo",
    "1827": "eine",
    "1828": "outside",
    "1829": "vert",
    "1830": "mine",
    "1831": "Et",
    "1832": "teach",
    "1833": "Si",
    "1834": "Pe",
    "1835": "pretty",
    "1836": "bright",
    "1837": "Ah",
    "1838": "plain",
    "1839": "ctor",
    "1840": "nur",
    "1841": "θ",
    "1842": "British",
    "1843": "nem",
    "1844": "opened",
    "1845": "cross",
    "1846": "note",
    "1847": "saying",
    "1848": "cle",
    "1849": "nel",
    "1850": "Where",
    "1851": "joka",
    "1852": "dam",
    "1853": "court",
    "1854": "eds",
    "1855": "ées",
    "1856": "dies",
    "1857": "ava",
    "1858": "ente",
    "1859": "oi",
    "1860": "Who",
    "1861": "born",
    "1862": "protected",
    "1863": "pää",
    "1864": "beginning",
    "1865": "Church",
    "1866": "ering",
    "1867": "eight",
    "1868": "faire",
    "1869": "sim",
    "1870": "civil",
    "1871": "usual",
    "1872": "vit",
    "1873": "11",
    "1874": "dest",
    "1875": "ways",
    "1876": "tree",
    "1877": "Tom",
    "1878": "iness",
    "1879": "distributing",
    "1880": "22",
    "1881": "produ",
    "1882": "ville",
    "1883": "dy",
    "1884": "ified",
    "1885": "anti",
    "1886": "cons",
    "1887": "pose",
    "1888": "über",
    "1889": "ή",
    "1890": "wall",
    "1891": "atic",
    "1892": "tan",
    "1893": "cat",
    "1894": "minutes",
    "1895": "former",
    "1896": "atter",
    "1897": "Ho",
    "1898": "hast",
    "1899": "sul",
    "1900": "hij",
    "1901": "considerable",
    "1902": "certainly",
    "1903": "Ste",
    "1904": "iling",
    "1905": "neither",
    "1906": "yed",
    "1907": "opinion",
    "1908": "loved",
    "1909": "instru",
    "1910": "Thus",
    "1911": "heaven",
    "1912": "dro",
    "1913": "ram",
    "1914": "ough",
    "1915": "fel",
    "1916": "pressed",
    "1917": "lied",
    "1918": "nos",
    "1919": "ically",
    "1920": "places",
    "1921": "eBooks",
    "1922": "lived",
    "1923": "blue",
    "1924": "tot",
    "1925": "icht",
    "1926": "dress",
    "1927": "ense",
    "1928": "hot",
    "1929": "tried",
    "1930": "band",
    "1931": "prevent",
    "1932": "kat",
    "1933": "condition",
    "1934": "Les",
    "1935": "ora",
    "1936": "wide",
    "1937": "bell",
    "1938": "pel",
    "1939": "chair",
    "1940": "George",
    "1941": "rock",
    "1942": "according",
    "1943": "kon",
    "1944": "warm",
    "1945": "ister",
    "1946": "north",
    "1947": "ises",
    "1948": "át",
    "1949": "_S",
    "1950": "distribution",
    "1951": "Am",
    "1952": "faith",
    "1953": "vag",
    "1954": "Mary",
    "1955": "attempt",
    "1956": "23",
    "1957": "LA",
    "1958": "food",
    "1959": "ini",
    "1960": "wanted",
    "1961": "collection",
    "1962": "filled",
    "1963": "pleasure",
    "1964": "lord",
    "1965": "mad",
    "1966": "kan",
    "1967": "ders",
    "1968": "seven",
    "1969": "Min",
    "1970": "dev",
    "1971": "och",
    "1972": "auch",
    "1973": "sible",
    "1974": "comm",
    "1975": "$",
    "1976": "ext",
    "1977": "persons",
    "1978": "ries",
    "1979": "itu",
    "1980": "verse",
    "1981": "lines",
    "1982": "ening",
    "1983": "broken",
    "1984": "uit",
    "1985": "expected",
    "1986": "fish",
    "1987": "easy",
    "1988": "generally",
    "1989": "unless",
    "1990": "nach",
    "1991": "process",
    "1992": "ace",
    "1993": "Es",
    "1994": "où",
    "1995": "Die",
    "1996": "carry",
    "1997": "appearance",
    "1998": "Lady",
    "1999": "notice",
    "2000": "influence",
    "2001": "Ja",
    "2002": "heavy",
    "2003": "habit",
    "2004": "battle",
    "2005": "chance",
    "2006": "property",
    "2007": "bles",
    "2008": "third",
    "2009": "niet",
    "2010": "century",
    "2011": "piece",
    "2012": "original",
    "2013": "pun",
    "2014": "win",
    "2015": "ame",
    "2016": "amb",
    "2017": "din",
    "2018": "trust",
    "2019": "Jack",
    "2020": "flo",
    "2021": "mie",
    "2022": "anyone",
    "2023": "ized",
    "2024": "uni",
    "2025": "pping",
    "2026": "wed",
    "2027": "gg",
    "2028": "IS",
    "2029": "inn",
    "2030": "remained",
    "2031": "window",
    "2032": "ising",
    "2033": "ati",
    "2034": "months",
    "2035": "easily",
    "2036": "ths",
    "2037": "simple",
    "2038": "dri",
    "2039": "eli",
    "2040": "duty",
    "2041": "él",
    "2042": "hol",
    "2043": "cho",
    "2044": "yl",
    "2045": "produced",
    "2046": "sla",
    "2047": "strength",
    "2048": "elect",
    "2049": "date",
    "2050": "learn",
    "2051": "save",
    "2052": "standing",
    "2053": "dec",
    "2054": "glass",
    "2055": "origin",
    "2056": "aber",
    "2057": "26",
    "2058": "suit",
    "2059": "ama",
    "2060": "voor",
    "2061": "ica",
    "2062": "arch",
    "2063": "west",
    "2064": "taa",
    "2065": "chi",
    "2066": "spring",
    "2067": "rate",
    "2068": "sens",
    "2069": "ack",
    "2070": "figure",
    "2071": "ree",
    "2072": "wor",
    "2073": "wing",
    "2074": "forms",
    "2075": "single",
    "2076": "itation",
    "2077": "rain",
    "2078": "ου",
    "2079": "voir",
    "2080": "nal",
    "2081": "sten",
    "2082": "zij",
    "2083": "week",
    "2084": "firm",
    "2085": "receive",
    "2086": "eder",
    "2087": "expect",
    "2088": "27",
    "2089": "ature",
    "2090": "plant",
    "2091": "ining",
    "2092": "nation",
    "2093": "drew",
    "2094": "license",
    "2095": "West",
    "2096": "giving",
    "2097": "trouble",
    "2098": "immediately",
    "2099": "break",
    "2100": "iron",
    "2101": "sein",
    "2102": "kir",
    "2103": "grace",
    "2104": "kaan",
    "2105": "result",
    "2106": "desire",
    "2107": "hor",
    "2108": "το",
    "2109": "proper",
    "2110": "impossible",
    "2111": "south",
    "2112": "wrong",
    "2113": "hogy",
    "2114": "medium",
    "2115": "lying",
    "2116": "deux",
    "2117": "gest",
    "2118": "quis",
    "2119": "author",
    "2120": "lle",
    "2121": "lands",
    "2122": "blow",
    "2123": "comply",
    "2124": "gs",
    "2125": "guard",
    "2126": "quiet",
    "2127": "kom",
    "2128": "ination",
    "2129": "San",
    "2130": "Charles",
    "2131": "ives",
    "2132": "fresh",
    "2133": "αν",
    "2134": "AT",
    "2135": "mutta",
    "2136": "cc",
    "2137": "pure",
    "2138": "dist",
    "2139": "send",
    "2140": "cases",
    "2141": "moral",
    "2142": "silence",
    "2143": "vig",
    "2144": "ô",
    "2145": "getting",
    "2146": "ende",
    "2147": "courage",
    "2148": "Li",
    "2149": "list",
    "2150": "host",
    "2151": "urn",
    "2152": "gentleman",
    "2153": "tur",
    "2154": "pens",
    "2155": "fur",
    "2156": "thick",
    "2157": "miss",
    "2158": "perfect",
    "2159": "shot",
    "2160": "middle",
    "2161": "sis",
    "2162": "supp",
    "2163": "ori",
    "2164": "lips",
    "2165": "„",
    "2166": "beauty",
    "2167": "graph",
    "2168": "uring",
    "2169": "ming",
    "2170": "ump",
    "2171": "inv",
    "2172": "bb",
    "2173": "ancient",
    "2174": "THE",
    "2175": "gun",
    "2176": "accept",
    "2177": "Des",
    "2178": "rou",
    "2179": "mid",
    "2180": "efforts",
    "2181": "eat",
    "2182": "dog",
    "2183": "Jo",
    "2184": "cus",
    "2185": "fol",
    "2186": "hardly",
    "2187": "lt",
    "2188": "unto",
    "2189": "temper",
    "2190": "direction",
    "2191": "horses",
    "2192": "exist",
    "2193": "appears",
    "2194": "letters",
    "2195": "sont",
    "2196": "Henry",
    "2197": "iment",
    "2198": "effort",
    "2199": "ible",
    "2200": "qual",
    "2201": "utter",
    "2202": "vre",
    "2203": "complete",
    "2204": "iten",
    "2205": "afterwards",
    "2206": "happened",
    "2207": "aff",
    "2208": "exc",
    "2209": "stream",
    "2210": "reading",
    "2211": "houses",
    "2212": "jä",
    "2213": "ros",
    "2214": "street",
    "2215": "amente",
    "2216": "rig",
    "2217": "page",
    "2218": "Sie",
    "2219": "ney",
    "2220": "ym",
    "2221": "rat",
    "2222": "State",
    "2223": "village",
    "2224": "evil",
    "2225": ");",
    "2226": "bert",
    "2227": "dream",
    "2228": "path",
    "2229": "tom",
    "2230": "pä",
    "2231": "χ",
    "2232": "hes",
    "2233": "kk",
    "2234": "bling",
    "2235": "nom",
    "2236": "discovered",
    "2237": "sister",
    "2238": "dos",
    "2239": "bet",
    "2240": "loss",
    "2241": "draw",
    "2242": "obtain",
    "2243": "noble",
    "2244": "aa",
    "2245": "War",
    "2246": "iti",
    "2247": "ians",
    "2248": "personal",
    "2249": "joy",
    "2250": "instead",
    "2251": "eff",
    "2252": "changed",
    "2253": "ott",
    "2254": "South",
    "2255": "danger",
    "2256": "utta",
    "2257": "ury",
    "2258": "tained",
    "2259": "29",
    "2260": "Ru",
    "2261": "presence",
    "2262": "ball",
    "2263": "exclaimed",
    "2264": "serious",
    "2265": "Every",
    "2266": "While",
    "2267": "mere",
    "2268": "def",
    "2269": "ari",
    "2270": "occup",
    "2271": "regular",
    "2272": "wrote",
    "2273": "Char",
    "2274": "meant",
    "2275": "aik",
    "2276": "vil",
    "2277": "entirely",
    "2278": "marked",
    "2279": "lig",
    "2280": "watch",
    "2281": "moved",
    "2282": "ito",
    "2283": "pré",
    "2284": "raised",
    "2285": "dom",
    "2286": "built",
    "2287": "North",
    "2288": "trem",
    "2289": "Yet",
    "2290": "grow",
    "2291": "eter",
    "2292": "drink",
    "2293": "OF",
    "2294": "merely",
    "2295": "cel",
    "2296": "quer",
    "2297": "takes",
    "2298": "meg",
    "2299": "ès",
    "2300": "ith",
    "2301": "started",
    "2302": "youth",
    "2303": "bul",
    "2304": "Just",
    "2305": "arrived",
    "2306": "jud",
    "2307": "ns",
    "2308": "Europe",
    "2309": "proved",
    "2310": "expression",
    "2311": "check",
    "2312": "reach",
    "2313": "î",
    "2314": "considered",
    "2315": "été",
    "2316": "similar",
    "2317": ".’",
    "2318": "ôt",
    "2319": "freely",
    "2320": "thinking",
    "2321": "_C",
    "2322": "Ju",
    "2323": "q",
    "2324": "cha",
    "2325": "ability",
    "2326": "Bu",
    "2327": "wit",
    "2328": "hin",
    "2329": "Br",
    "2330": "girls",
    "2331": "Hu",
    "2332": "bt",
    "2333": "ég",
    "2334": "House",
    "2335": "entre",
    "2336": "record",
    "2337": "somewhat",
    "2338": "21",
    "2339": "passion",
    "2340": "drawn",
    "2341": "etc",
    "2342": "const",
    "2343": "Indian",
    "2344": "Sam",
    "2345": "closed",
    "2346": "sky",
    "2347": "news",
    "2348": "lau",
    "2349": "moi",
    "2350": "lam",
    "2351": "ament",
    "2352": "aded",
    "2353": "caught",
    "2354": "clock",
    "2355": "jos",
    "2356": "ido",
    "2357": "Our",
    "2358": "usually",
    "2359": "phrase",
    "2360": "slowly",
    "2361": "straight",
    "2362": "ete",
    "2363": "este",
    "2364": "claim",
    "2365": "fut",
    "2366": "män",
    "2367": "aled",
    "2368": "ior",
    "2369": "America",
    "2370": "Im",
    "2371": "yourself",
    "2372": "CH",
    "2373": "yer",
    "2374": "py",
    "2375": "ew",
    "2376": "noch",
    "2377": "hill",
    "2378": "elen",
    "2379": "struck",
    "2380": "rent",
    "2381": "ites",
    "2382": "yi",
    "2383": "fight",
    "2384": "ption",
    "2385": "fre",
    "2386": "onder",
    "2387": "learned",
    "2388": "minä",
    "2389": "possession",
    "2390": "Wh",
    "2391": "mass",
    "2392": "married",
    "2393": "Vol",
    "2394": "polit",
    "2395": "AL",
    "2396": "keeping",
    "2397": "emp",
    "2398": "Mor",
    "2399": "acy",
    "2400": "tut",
    "2401": "Great",
    "2402": "elt",
    "2403": "smile",
    "2404": "whatever",
    "2405": "broad",
    "2406": "anim",
    "2407": "spo",
    "2408": "key",
    "2409": "experience",
    "2410": "aries",
    "2411": "isted",
    "2412": "uns",
    "2413": "knows",
    "2414": "language",
    "2415": "Ed",
    "2416": "Sa",
    "2417": "ün",
    "2418": "difficult",
    "2419": "value",
    "2420": "Ph",
    "2421": "Te",
    "2422": "walked",
    "2423": "tous",
    "2424": "ify",
    "2425": "summer",
    "2426": "address",
    "2427": "removed",
    "2428": "directly",
    "2429": "fro",
    "2430": "dess",
    "2431": "officers",
    "2432": "zi",
    "2433": "egy",
    "2434": "modern",
    "2435": "vou",
    "2436": "contra",
    "2437": "ls",
    "2438": "oper",
    "2439": "pleasant",
    "2440": "continu",
    "2441": "indic",
    "2442": "ansa",
    "2443": "capt",
    "2444": "wir",
    "2445": "step",
    "2446": "ento",
    "2447": "delight",
    "2448": "James",
    "2449": "chap",
    "2450": "special",
    "2451": "seeing",
    "2452": "respon",
    "2453": "thin",
    "2454": "design",
    "2455": "LI",
    "2456": "throw",
    "2457": "inal",
    "2458": "winter",
    "2459": "ots",
    "2460": "ually",
    "2461": "tte",
    "2462": "walk",
    "2463": "spot",
    "2464": "wait",
    "2465": "ilt",
    "2466": "favor",
    "2467": "lower",
    "2468": "orders",
    "2469": "provided",
    "2470": "É",
    "2471": "swe",
    "2472": "nie",
    "2473": "direct",
    "2474": "box",
    "2475": "_P",
    "2476": "isto",
    "2477": "afraid",
    "2478": "wn",
    "2479": "sam",
    "2480": "pret",
    "2481": "grave",
    "2482": "bil",
    "2483": "required",
    "2484": "como",
    "2485": "40",
    "2486": "ships",
    "2487": "equal",
    "2488": "enden",
    "2489": "rank",
    "2490": "ivät",
    "2491": "sad",
    "2492": "cess",
    "2493": "mort",
    "2494": "express",
    "2495": ",’",
    "2496": "186",
    "2497": "eur",
    "2498": "quickly",
    "2499": "content",
    "2500": "mun",
    "2501": "fortune",
    "2502": "sup",
    "2503": "bank",
    "2504": "August",
    "2505": "itive",
    "2506": "Paul",
    "2507": "greatest",
    "2508": "ellä",
    "2509": "please",
    "2510": "jet",
    "2511": "flow",
    "2512": "dry",
    "2513": "allowed",
    "2514": "thoughts",
    "2515": "observed",
    "2516": "Their",
    "2517": "Mutta",
    "2518": "official",
    "2519": "Mais",
    "2520": "religion",
    "2521": "}",
    "2522": "Roman",
    "2523": "thirty",
    "2524": "elles",
    "2525": "aim",
    "2526": "tender",
    "2527": "circumstances",
    "2528": "Rome",
    "2529": "pair",
    "2530": "song",
    "2531": "lang",
    "2532": "wear",
    "2533": "described",
    "2534": "attack",
    "2535": "sor",
    "2536": "existence",
    "2537": "justice",
    "2538": "dont",
    "2539": "stä",
    "2540": "hero",
    "2541": "opportunity",
    "2542": "music",
    "2543": "tele",
    "2544": "showed",
    "2545": "elo",
    "2546": "a_",
    "2547": "appro",
    "2548": "stopped",
    "2549": "snow",
    "2550": "leaving",
    "2551": "leaves",
    "2552": "fashion",
    "2553": "ishing",
    "2554": "distribute",
    "2555": "olo",
    "2556": "ject",
    "2557": "ione",
    "2558": "τα",
    "2559": "proceed",
    "2560": "society",
    "2561": "Bur",
    "2562": "gon",
    "2563": "Di",
    "2564": "Fran",
    "2565": "shadow",
    "2566": "clim",
    "2567": "sand",
    "2568": "peculiar",
    "2569": "cab",
    "2570": "treat",
    "2571": "ively",
    "2572": "eas",
    "2573": "picture",
    "2574": "mur",
    "2575": "Information",
    "2576": "attend",
    "2577": "eral",
    "2578": "Der",
    "2579": "uu",
    "2580": "Will",
    "2581": "gives",
    "2582": "är",
    "2583": "killed",
    "2584": "compar",
    "2585": "forest",
    "2586": "zer",
    "2587": "fig",
    "2588": "hab",
    "2589": "sym",
    "2590": "search",
    "2591": "mut",
    "2592": "deser",
    "2593": "spread",
    "2594": "phe",
    "2595": "scene",
    "2596": "dinner",
    "2597": "extra",
    "2598": "floor",
    "2599": "für",
    "2600": "lem",
    "2601": "walls",
    "2602": "tone",
    "2603": "ì",
    "2604": "grew",
    "2605": "rice",
    "2606": "fil",
    "2607": "ould",
    "2608": "alo",
    "2609": "via",
    "2610": "owner",
    "2611": "goes",
    "2612": "sick",
    "2613": "Good",
    "2614": "steps",
    "2615": "shown",
    "2616": "uk",
    "2617": "Prince",
    "2618": "hung",
    "2619": "gate",
    "2620": "Men",
    "2621": "fat",
    "2622": "supposed",
    "2623": "Even",
    "2624": "worthy",
    "2625": "poet",
    "2626": "write",
    "2627": "rise",
    "2628": "temps",
    "2629": "study",
    "2630": "isten",
    "2631": "φ",
    "2632": "passage",
    "2633": "_The",
    "2634": "surface",
    "2635": "Ser",
    "2636": "building",
    "2637": "cover",
    "2638": "scarcely",
    "2639": "lives",
    "2640": "suggest",
    "2641": "ided",
    "2642": "wr",
    "2643": "donate",
    "2644": "royal",
    "2645": "vari",
    "2646": "sufficient",
    "2647": "Come",
    "2648": "ational",
    "2649": "asti",
    "2650": "_A",
    "2651": "Government",
    "2652": "Fre",
    "2653": "edge",
    "2654": "rail",
    "2655": "Tur",
    "2656": ".=",
    "2657": "mach",
    "2658": "decided",
    "2659": "cot",
    "2660": "Em",
    "2661": "concerning",
    "2662": "active",
    "2663": "difference",
    "2664": "ization",
    "2665": "spect",
    "2666": "Wil",
    "2667": "laughed",
    "2668": "forty",
    "2669": "autre",
    "2670": "RI",
    "2671": "chant",
    "2672": "encore",
    "2673": "broke",
    "2674": "fixed",
    "2675": "wen",
    "2676": "Queen",
    "2677": "grat",
    "2678": "troops",
    "2679": "sig",
    "2680": "flowers",
    "2681": "cand",
    "2682": "durch",
    "2683": "waiting",
    "2684": "Sh",
    "2685": "soft",
    "2686": "likely",
    "2687": "uses",
    "2688": "yh",
    "2689": "animal",
    "2690": "cs",
    "2691": "ires",
    "2692": "ST",
    "2693": "gal",
    "2694": "hath",
    "2695": "histor",
    "2696": "nam",
    "2697": "mentioned",
    "2698": "ál",
    "2699": "native",
    "2700": "national",
    "2701": "sole",
    "2702": "Mag",
    "2703": "antly",
    "2704": "wise",
    "2705": "{",
    "2706": "ades",
    "2707": "lum",
    "2708": "ür",
    "2709": "motion",
    "2710": "soldiers",
    "2711": "sudden",
    "2712": "attra",
    "2713": "ollut",
    "2714": "prepared",
    "2715": "fri",
    "2716": "Rom",
    "2717": "peu",
    "2718": "Louis",
    "2719": "pul",
    "2720": "ific",
    "2721": "proof",
    "2722": "species",
    "2723": "editions",
    "2724": "#",
    "2725": "possess",
    "2726": "Mer",
    "2727": "accepted",
    "2728": "captain",
    "2729": "physical",
    "2730": "90",
    "2731": "kill",
    "2732": "afternoon",
    "2733": "coast",
    "2734": "ctive",
    "2735": "lit",
    "2736": "private",
    "2737": "members",
    "2738": "interesting",
    "2739": "fied",
    "2740": "distributed",
    "2741": "exam",
    "2742": "social",
    "2743": "Val",
    "2744": "bis",
    "2745": "cup",
    "2746": "sli",
    "2747": "slight",
    "2748": "group",
    "2749": "ück",
    "2750": "LE",
    "2751": "dir",
    "2752": "bei",
    "2753": "lor",
    "2754": "Pal",
    "2755": "inde",
    "2756": "begin",
    "2757": "names",
    "2758": "sail",
    "2759": "political",
    "2760": "Indians",
    "2761": "narrow",
    "2762": "nut",
    "2763": "determined",
    "2764": "aster",
    "2765": "garden",
    "2766": "ás",
    "2767": "rare",
    "2768": "passing",
    "2769": "religious",
    "2770": "nak",
    "2771": "Father",
    "2772": "fond",
    "2773": "gle",
    "2774": "Such",
    "2775": "tears",
    "2776": "ύ",
    "2777": "sche",
    "2778": "breath",
    "2779": "log",
    "2780": "island",
    "2781": "authority",
    "2782": "labor",
    "2783": "contact",
    "2784": "sides",
    "2785": "fare",
    "2786": "skin",
    "2787": "Fig",
    "2788": "ω",
    "2789": "là",
    "2790": "loin",
    "2791": "printed",
    "2792": "isse",
    "2793": "declared",
    "2794": "aged",
    "2795": "asc",
    "2796": "wij",
    "2797": "ordered",
    "2798": "ht",
    "2799": "maan",
    "2800": "sitting",
    "2801": "armed",
    "2802": "shore",
    "2803": "rem",
    "2804": "bitter",
    "2805": "beside",
    "2806": "ears",
    "2807": "kt",
    "2808": "fran",
    "2809": "sti",
    "2810": "moon",
    "2811": "ον",
    "2812": "train",
    "2813": "mark",
    "2814": "til",
    "2815": "space",
    "2816": "fifty",
    "2817": "bare",
    "2818": "bread",
    "2819": "confess",
    "2820": "olla",
    "2821": "particularly",
    "2822": "zel",
    "2823": "Cha",
    "2824": "instant",
[...]
