{
  "merges": [
    [
      "t",
      "h"
    ],
    [
      "i",
      "n"
    ],
    [
      "e",
      "r"
    ],
    [
      "a",
      "n"
    ],
    [
      "th",
      "e"
    ],
    [
      "e",
      "n"
    ],
    [
      "o",
      "n"
    ],
    [
      "r",
      "e"
    ],
    [
      "a",
      "t"
    ],
    [
      "i",
      "s"
    ],
    [
      "o",
      "u"
    ],
    [
      "e",
      "d"
    ],
    [
      "e",
      "s"
    ],
    [
      "o",
      "r"
    ],
    [
      "o",
      "f"
    ],
    [
      "an",
      "d"
    ],
    [
      "a",
      "s"
    ],
    [
      "t",
      "o"
    ],
    [
      "a",
      "r"
    ],
    [
      "i",
      "t"
    ],
    [
      "a",
      "l"
    ],
    [
      "in",
      "g"
    ],
    [
      "h",
      "e"
    ],
    [
      "l",
      "e"
    ],
    [
      "c",
      "h"
    ],
    [
      "s",
      "e"
    ],
    [
      "s",
      "t"
    ],
    [
      "o",
      "m"
    ],
    [
      "d",
      "e"
    ],
    [
      "i",
      "l"
    ],
    [
      "b",
      "e"
    ],
    [
      "en",
      "t"
    ],
    [
      "i",
      "on"
    ],
    [
      "a",
      "d"
    ],
    [
      "w",
      "h"
    ],
    [
      "e",
      "l"
    ],
    [
      "n",
      "o"
    ],
    [
      "u",
      "t"
    ],
    [
      "r",
      "o"
    ],
    [
      "c",
      "e"
    ],
    [
      "u",
      "n"
    ],
    [
      "i",
      "m"
    ],
    [
      "l",
      "i"
    ],
    [
      "v",
      "e"
    ],
    [
      "l",
      "y"
    ],
    [
      "c",
      "t"
    ],
    [
      "l",
      "a"
    ],
    [
      "r",
      "i"
    ],
    [
      "f",
      "or"
    ],
    [
      "e",
      "t"
    ],
    [
      "v",
      "er"
    ],
    [
      "i",
      "r"
    ],
    [
      "th",
      "at"
    ],
    [
      "a",
      "m"
    ],
    [
      "w",
      "i"
    ],
    [
      "g",
      "h"
    ],
    [
      "w",
      "as"
    ],
    [
      "o",
      "l"
    ],
    [
      "er",
      "e"
    ],
    [
      "u",
      "r"
    ],
    [
      "i",
      "d"
    ],
    [
      "l",
      "o"
    ],
    [
      "q",
      "u"
    ],
    [
      "wi",
      "th"
    ],
    [
      "t",
      "er"
    ],
    [
      "r",
      "a"
    ],
    [
      "i",
      "c"
    ],
    [
      "t",
      "a"
    ],
    [
      "h",
      "is"
    ],
    [
      "u",
      "s"
    ],
    [
      "a",
      "y"
    ],
    [
      "y",
      "ou"
    ],
    [
      "h",
      "a"
    ],
    [
      "al",
      "l"
    ],
    [
      "t",
      "e"
    ],
    [
      "c",
      "on"
    ],
    [
      "n",
      "e"
    ],
    [
      "s",
      "u"
    ],
    [
      "m",
      "e"
    ],
    [
      "a",
      "g"
    ],
    [
      "p",
      "o"
    ],
    [
      "l",
      "d"
    ],
    [
      "m",
      "o"
    ],
    [
      "no",
      "t"
    ],
    [
      "T",
      "he"
    ],
    [
      "gh",
      "t"
    ],
    [
      "a",
      "b"
    ],
    [
      "u",
      "l"
    ],
    [
      "th",
      "er"
    ],
    [
      "i",
      "ch"
    ],
    [
      "s",
      "a"
    ],
    [
      "at",
      "ion"
    ],
    [
      "d",
      "i"
    ],
    [
      "s",
      "o"
    ],
    [
      "c",
      "om"
    ],
    [
      "a",
      "re"
    ],
    [
      "h",
      "ad"
    ],
    [
      "p",
      "e"
    ],
    [
      "k",
      "e"
    ],
    [
      "b",
      "y"
    ],
    [
      "es",
      "t"
    ],
    [
      "s",
      "i"
    ],
    [
      "d",
      "o"
    ],
    [
      "re",
      "s"
    ],
    [
      "p",
      "er"
    ],
    [
      "ou",
      "r"
    ],
    [
      "es",
      "s"
    ],
    [
      "w",
      "e"
    ],
    [
      "il",
      "l"
    ],
    [
      "h",
      "er"
    ],
    [
      "ou",
      "t"
    ],
    [
      "-",
      "-"
    ],
    [
      "m",
      "a"
    ],
    [
      "ou",
      "ld"
    ],
    [
      "ou",
      "n"
    ],
    [
      "r",
      "om"
    ],
    [
      "on",
      "e"
    ],
    [
      "s",
      "h"
    ],
    [
      "d",
      "er"
    ],
    [
      "g",
      "e"
    ],
    [
      "a",
      "c"
    ],
    [
      "an",
      "t"
    ],
    [
      "f",
      "e"
    ],
    [
      "wh",
      "ich"
    ],
    [
      "m",
      "an"
    ],
    [
      "b",
      "ut"
    ],
    [
      "is",
      "t"
    ],
    [
      "e",
      "x"
    ],
    [
      "o",
      "d"
    ],
    [
      "u",
      "p"
    ],
    [
      "w",
      "or"
    ],
    [
      "a",
      "p"
    ],
    [
      "ou",
      "s"
    ],
    [
      "o",
      "p"
    ],
    [
      "f",
      "rom"
    ],
    [
      "th",
      "is"
    ],
    [
      "p",
      "ro"
    ],
    [
      "p",
      "ar"
    ],
    [
      "ha",
      "ve"
    ],
    [
      "m",
      "ent"
    ],
    [
      "h",
      "im"
    ],
    [
      "b",
      "er"
    ],
    [
      "en",
      "d"
    ],
    [
      "o",
      "w"
    ],
    [
      "ar",
      "d"
    ],
    [
      "g",
      "o"
    ],
    [
      "a",
      "u"
    ],
    [
      "u",
      "st"
    ],
    [
      "m",
      "y"
    ],
    [
      "c",
      "i"
    ],
    [
      "f",
      "a"
    ],
    [
      "i",
      "f"
    ],
    [
      "el",
      "l"
    ],
    [
      "w",
      "ere"
    ],
    [
      "at",
      "e"
    ],
    [
      "the",
      "y"
    ],
    [
      "u",
      "m"
    ],
    [
      "o",
      "k"
    ],
    [
      "as",
      "t"
    ],
    [
      "c",
      "k"
    ],
    [
      "'",
      "s"
    ],
    [
      "s",
      "he"
    ],
    [
      "t",
      "r"
    ],
    [
      "wh",
      "o"
    ],
    [
      "v",
      "i"
    ],
    [
      "e",
      "m"
    ],
    [
      "j",
      "e"
    ],
    [
      "om",
      "e"
    ],
    [
      "oun",
      "d"
    ],
    [
      "no",
      "w"
    ],
    [
      "in",
      "d"
    ],
    [
      "on",
      "g"
    ],
    [
      "a",
      "in"
    ],
    [
      "i",
      "g"
    ],
    [
      "se",
      "l"
    ],
    [
      "T",
      "h"
    ],
    [
      "the",
      "ir"
    ],
    [
      "v",
      "en"
    ],
    [
      "an",
      "y"
    ],
    [
      "p",
      "r"
    ],
    [
      "c",
      "o"
    ],
    [
      "an",
      "s"
    ],
    [
      "in",
      "e"
    ],
    [
      "u",
      "re"
    ],
    [
      "er",
      "s"
    ],
    [
      "f",
      "o"
    ],
    [
      "is",
      "h"
    ],
    [
      "the",
      "m"
    ],
    [
      "am",
      "e"
    ],
    [
      "o",
      "ther"
    ],
    [
      "it",
      "y"
    ],
    [
      "ver",
      "y"
    ],
    [
      "or",
      "t"
    ],
    [
      "b",
      "o"
    ],
    [
      "lo",
      "w"
    ],
    [
      "it",
      "t"
    ],
    [
      "i",
      "ve"
    ],
    [
      "d",
      "es"
    ],
    [
      "H",
      "e"
    ],
    [
      "l",
      "es"
    ],
    [
      "qu",
      "e"
    ],
    [
      "i",
      "e"
    ],
    [
      "in",
      "t"
    ],
    [
      "wor",
      "k"
    ],
    [
      "a",
      "f"
    ],
    [
      "be",
      "en"
    ],
    [
      "re",
      "d"
    ],
    [
      "A",
      "n"
    ],
    [
      "th",
      "ing"
    ],
    [
      "ou",
      "gh"
    ],
    [
      "w",
      "ay"
    ],
    [
      "en",
      "ce"
    ],
    [
      "o",
      "t"
    ],
    [
      "as",
      "s"
    ],
    [
      "th",
      "ere"
    ],
    [
      "je",
      "ct"
    ],
    [
      "w",
      "ould"
    ],
    [
      "i",
      "ght"
    ],
    [
      "a",
      "v"
    ],
    [
      "w",
      "ill"
    ],
    [
      "p",
      "la"
    ],
    [
      "ä",
      "n"
    ],
    [
      "i",
      "v"
    ],
    [
      "sa",
      "id"
    ],
    [
      "I",
      "n"
    ],
    [
      "i",
      "es"
    ],
    [
      "re",
      "at"
    ],
    [
      "I",
      "t"
    ],
    [
      "an",
      "ce"
    ],
    [
      "it",
      "s"
    ],
    [
      "c",
      "an"
    ],
    [
      "d",
      "is"
    ],
    [
      "s",
      "ome"
    ],
    [
      "p",
      "re"
    ],
    [
      "t",
      "y"
    ],
    [
      "b",
      "le"
    ],
    [
      "ol",
      "d"
    ],
    [
      "h",
      "o"
    ],
    [
      "po",
      "s"
    ],
    [
      "f",
      "ul"
    ],
    [
      "ar",
      "t"
    ],
    [
      "re",
      "e"
    ],
    [
      "p",
      "t"
    ],
    [
      ".",
      "\""
    ],
    [
      "w",
      "n"
    ],
    [
      "l",
      "l"
    ],
    [
      "g",
      "r"
    ],
    [
      "wh",
      "en"
    ],
    [
      "ct",
      "ion"
    ],
    [
      "ab",
      "le"
    ],
    [
      "p",
      "l"
    ],
    [
      "s",
      "on"
    ],
    [
      "a",
      "ch"
    ],
    [
      "t",
      "im"
    ],
    [
      "w",
      "o"
    ],
    [
      "it",
      "e"
    ],
    [
      "ut",
      "en"
    ],
    [
      "m",
      "en"
    ],
    [
      "p",
      "res"
    ],
    [
      ",",
      "\""
    ],
    [
      "P",
      "ro"
    ],
    [
      "e",
      "ar"
    ],
    [
      "d",
      "en"
    ],
    [
      "h",
      "as"
    ],
    [
      "mo",
      "re"
    ],
    [
      "ta",
      "in"
    ],
    [
      "r",
      "u"
    ],
    [
      "fo",
      "re"
    ],
    [
      "l",
      "u"
    ],
    [
      "an",
      "g"
    ],
    [
      "ber",
      "g"
    ],
    [
      "d",
      "u"
    ],
    [
      "ar",
      "y"
    ],
    [
      "sel",
      "f"
    ],
    [
      "c",
      "he"
    ],
    [
      "a",
      "k"
    ],
    [
      "f",
      "f"
    ],
    [
      "un",
      "d"
    ],
    [
      "for",
      "m"
    ],
    [
      "at",
      "ed"
    ],
    [
      "uten",
      "berg"
    ],
    [
      "p",
      "p"
    ],
    [
      "al",
      "ly"
    ],
    [
      "t",
      "en"
    ],
    [
      "in",
      "to"
    ],
    [
      "t",
      "ra"
    ],
    [
      "W",
      "h"
    ],
    [
      "s",
      "p"
    ],
    [
      "el",
      "y"
    ],
    [
      "k",
      "now"
    ],
    [
      "d",
      "ay"
    ],
    [
      "par",
      "t"
    ],
    [
      "o",
      "ver"
    ],
    [
      "m",
      "ar"
    ],
    [
      "g",
      "en"
    ],
    [
      "v",
      "o"
    ],
    [
      "e",
      "p"
    ],
    [
      ".",
      "."
    ],
    [
      "th",
      "an"
    ],
    [
      "m",
      "on"
    ],
    [
      "i",
      "re"
    ],
    [
      "wh",
      "at"
    ],
    [
      "o",
      "b"
    ],
    [
      "c",
      "es"
    ],
    [
      "s",
      "er"
    ],
    [
      "Pro",
      "ject"
    ],
    [
      "p",
      "h"
    ],
    [
      "m",
      "u"
    ],
    [
      "G",
      "utenberg"
    ],
    [
      "you",
      "r"
    ],
    [
      "o",
      "s"
    ],
    [
      "of",
      "f"
    ],
    [
      "ur",
      "n"
    ],
    [
      "c",
      "ould"
    ],
    [
      "ag",
      "e"
    ],
    [
      "r",
      "y"
    ],
    [
      "An",
      "d"
    ],
    [
      "mo",
      "st"
    ],
    [
      "d",
      "on"
    ],
    [
      "in",
      "k"
    ],
    [
      "v",
      "ed"
    ],
    [
      "le",
      "t"
    ],
    [
      "b",
      "r"
    ],
    [
      "ion",
      "s"
    ],
    [
      "B",
      "ut"
    ],
    [
      "tim",
      "e"
    ],
    [
      "com",
      "p"
    ],
    [
      "m",
      "ay"
    ],
    [
      "ou",
      "ght"
    ],
    [
      "j",
      "a"
    ],
    [
      "ab",
      "out"
    ],
    [
      "p",
      "a"
    ],
    [
      "g",
      "l"
    ],
    [
      "or",
      "d"
    ],
    [
      "g",
      "reat"
    ],
    [
      "u",
      "e"
    ],
    [
      "i",
      "le"
    ],
    [
      "is",
      "s"
    ],
    [
      "m",
      "er"
    ],
    [
      "up",
      "on"
    ],
    [
      "re",
      "t"
    ],
    [
      "M",
      "r"
    ],
    [
      "the",
      "n"
    ],
    [
      "S",
      "t"
    ],
    [
      "m",
      "in"
    ],
    [
      "un",
      "der"
    ],
    [
      "i",
      "a"
    ],
    [
      "C",
      "h"
    ],
    [
      "on",
      "ly"
    ],
    [
      "r",
      "en"
    ],
    [
      "ri",
      "ght"
    ],
    [
      "o",
      "se"
    ],
    [
      "li",
      "ke"
    ],
    [
      "l",
      "ong"
    ],
    [
      "wh",
      "ere"
    ],
    [
      "qu",
      "i"
    ],
    [
      "f",
      "ir"
    ],
    [
      "n",
      "i"
    ],
    [
      "re",
      "ad"
    ],
    [
      "is",
      "e"
    ],
    [
      "itt",
      "le"
    ],
    [
      "h",
      "and"
    ],
    [
      "ation",
      "s"
    ],
    [
      "se",
      "e"
    ],
    [
      "t",
      "i"
    ],
    [
      "d",
      "id"
    ],
    [
      "h",
      "i"
    ],
    [
      "af",
      "ter"
    ],
    [
      "b",
      "l"
    ],
    [
      "sh",
      "ould"
    ],
    [
      "ag",
      "ain"
    ],
    [
      "m",
      "ust"
    ],
    [
      "s",
      "c"
    ],
    [
      "c",
      "oun"
    ],
    [
      "en",
      "s"
    ],
    [
      "r",
      "an"
    ],
    [
      "k",
      "ing"
    ],
    [
      "t",
      "wo"
    ],
    [
      "d",
      "ist"
    ],
    [
      "com",
      "e"
    ],
    [
      "l",
      "ittle"
    ],
    [
      "li",
      "c"
    ],
    [
      "ma",
      "de"
    ],
    [
      "p",
      "u"
    ],
    [
      "'",
      "t"
    ],
    [
      "ow",
      "n"
    ],
    [
      "in",
      "c"
    ],
    [
      "p",
      "le"
    ],
    [
      "p",
      "s"
    ],
    [
      "su",
      "ch"
    ],
    [
      "a",
      "it"
    ],
    [
      "ac",
      "k"
    ],
    [
      "i",
      "k"
    ],
    [
      "s",
      "ay"
    ],
    [
      "s",
      "pe"
    ],
    [
      "a",
      "ve"
    ],
    [
      "v",
      "es"
    ],
    [
      "w",
      "ard"
    ],
    [
      "w",
      "er"
    ],
    [
      "the",
      "se"
    ],
    [
      "lo",
      "ok"
    ],
    [
      "a",
      "ct"
    ],
    [
      "p",
      "ort"
    ],
    [
      "i",
      "ce"
    ],
    [
      "in",
      "ter"
    ],
    [
      "be",
      "fore"
    ],
    [
      "r",
      "on"
    ],
    [
      "e",
      "f"
    ],
    [
      "w",
      "ell"
    ],
    [
      "c",
      "er"
    ],
    [
      "c",
      "ed"
    ],
    [
      "k",
      "en"
    ],
    [
      "le",
      "ct"
    ],
    [
      "at",
      "t"
    ],
    [
      "it",
      "ion"
    ],
    [
      "l",
      "ess"
    ],
    [
      "ar",
      "m"
    ],
    [
      "c",
      "c"
    ],
    [
      "ne",
      "w"
    ],
    [
      "u",
      "d"
    ],
    [
      "il",
      "d"
    ],
    [
      "v",
      "an"
    ],
    [
      "di",
      "e"
    ],
    [
      "l",
      "and"
    ],
    [
      "t",
      "ä"
    ],
    [
      "n",
      "ess"
    ],
    [
      "c",
      "ame"
    ],
    [
      "at",
      "er"
    ],
    [
      "mu",
      "ch"
    ],
    [
      "th",
      "r"
    ],
    [
      "l",
      "ed"
    ],
    [
      "s",
      "ur"
    ],
    [
      "do",
      "wn"
    ],
    [
      "f",
      "t"
    ],
    [
      "or",
      "n"
    ],
    [
      "go",
      "od"
    ],
    [
      "as",
      "e"
    ],
    [
      "un",
      "e"
    ],
    [
      "g",
      "i"
    ],
    [
      "fir",
      "st"
    ],
    [
      "at",
      "es"
    ],
    [
      "c",
      "l"
    ],
    [
      "f",
      "i"
    ],
    [
      "ro",
      "w"
    ],
    [
      "or",
      "s"
    ],
    [
      "v",
      "a"
    ],
    [
      "Y",
      "ou"
    ],
    [
      "p",
      "i"
    ],
    [
      "k",
      "s"
    ],
    [
      "e",
      "ven"
    ],
    [
      "k",
      "a"
    ],
    [
      "be",
      "t"
    ],
    [
      "j",
      "o"
    ],
    [
      "c",
      "ol"
    ],
    [
      "v",
      "ing"
    ],
    [
      "c",
      "op"
    ],
    [
      "or",
      "y"
    ],
    [
      "c",
      "ar"
    ],
    [
      "t",
      "s"
    ],
    [
      "s",
      "to"
    ],
    [
      "t",
      "re"
    ],
    [
      "g",
      "u"
    ],
    [
      "k",
      "ed"
    ],
    [
      "u",
      "se"
    ],
    [
      "il",
      "y"
    ],
    [
      "e",
      "very"
    ],
    [
      "li",
      "ght"
    ],
    [
      "s",
      "s"
    ],
    [
      "r",
      "it"
    ],
    [
      "con",
      "s"
    ],
    [
      "p",
      "ass"
    ],
    [
      "s",
      "ch"
    ],
    [
      "m",
      "ed"
    ],
    [
      "y",
      "ear"
    ],
    [
      "E",
      "n"
    ],
    [
      "g",
      "et"
    ],
    [
      "z",
      "e"
    ],
    [
      "in",
      "s"
    ],
    [
      "re",
      "g"
    ],
    [
      "v",
      "al"
    ],
    [
      "S",
      "he"
    ],
    [
      "te",
      "m"
    ],
    [
      ".",
      "”"
    ],
    [
      "v",
      "ol"
    ],
    [
      "con",
      "t"
    ],
    [
      "li",
      "e"
    ],
    [
      "se",
      "t"
    ],
    [
      "n",
      "a"
    ],
    [
      "ic",
      "al"
    ],
    [
      "e",
      "y"
    ],
    [
      "1",
      "8"
    ],
    [
      "thr",
      "ough"
    ],
    [
      "s",
      "m"
    ],
    [
      "v",
      "is"
    ],
    [
      "W",
      "e"
    ],
    [
      "e",
      "w"
    ],
    [
      "?",
      "\""
    ],
    [
      ",",
      "”"
    ],
    [
      "I",
      "f"
    ],
    [
      "ac",
      "c"
    ],
    [
      "t",
      "u"
    ],
    [
      "v",
      "id"
    ],
    [
      "man",
      "y"
    ],
    [
      "a",
      "th"
    ],
    [
      "be",
      "ing"
    ],
    [
      "n",
      "at"
    ],
    [
      "it",
      "ed"
    ],
    [
      "c",
      "ri"
    ],
    [
      "w",
      "ent"
    ],
    [
      "with",
      "out"
    ],
    [
      "f",
      "ol"
    ],
    [
      "c",
      "all"
    ],
    [
      "b",
      "re"
    ],
    [
      "U",
      "n"
    ],
    [
      "c",
      "au"
    ],
    [
      "T",
      "his"
    ],
    [
      "S",
      "e"
    ],
    [
      "ne",
      "ver"
    ],
    [
      "th",
      "ose"
    ],
    [
      "j",
      "ust"
    ],
    [
      "d",
      "a"
    ],
    [
      "b",
      "ack"
    ],
    [
      "h",
      "än"
    ],
    [
      "A",
      "r"
    ],
    [
      "pla",
      "ce"
    ],
    [
      "c",
      "lo"
    ],
    [
      "al",
      "s"
    ],
    [
      "ch",
      "ar"
    ],
    [
      "t",
      "ed"
    ],
    [
      "ic",
      "i"
    ],
    [
      "n",
      "er"
    ],
    [
      "f",
      "ound"
    ],
    [
      "h",
      "ow"
    ],
    [
      "ing",
      "s"
    ],
    [
      "m",
      "i"
    ],
    [
      "b",
      "ro"
    ],
    [
      "st",
      "e"
    ],
    [
      "h",
      "ere"
    ],
    [
      "g",
      "ra"
    ],
    [
      "a",
      "ut"
    ],
    [
      "ou",
      "se"
    ],
    [
      "li",
      "fe"
    ],
    [
      "Th",
      "ere"
    ],
    [
      "th",
      "ink"
    ],
    [
      "m",
      "ight"
    ],
    [
      "su",
      "b"
    ],
    [
      "el",
      "le"
    ],
    [
      "d",
      "s"
    ],
    [
      "he",
      "ad"
    ],
    [
      "ic",
      "k"
    ],
    [
      "ma",
      "ke"
    ],
    [
      "v",
      "ent"
    ],
    [
      "at",
      "ter"
    ],
    [
      "w",
      "ar"
    ],
    [
      "c",
      "our"
    ],
    [
      "se",
      "em"
    ],
    [
      "N",
      "o"
    ],
    [
      "y",
      "s"
    ],
    [
      "l",
      "ar"
    ],
    [
      "g",
      "n"
    ],
    [
      "The",
      "y"
    ],
    [
      "f",
      "er"
    ],
    [
      "tr",
      "y"
    ],
    [
      "ct",
      "ed"
    ],
    [
      "f",
      "in"
    ],
    [
      "pres",
      "ent"
    ],
    [
      "g",
      "y"
    ],
    [
      "0",
      "0"
    ],
    [
      "res",
      "s"
    ],
    [
      "him",
      "self"
    ],
    [
      "si",
      "de"
    ],
    [
      "t",
      "ri"
    ],
    [
      "al",
      "e"
    ],
    [
      "e",
      "ver"
    ],
    [
      "un",
      "g"
    ],
    [
      "be",
      "g"
    ],
    [
      "op",
      "le"
    ],
    [
      "th",
      "ough"
    ],
    [
      "s",
      "ame"
    ],
    [
      "th",
      "ought"
    ],
    [
      "i",
      "de"
    ],
    [
      "to",
      "o"
    ],
    [
      "p",
      "ri"
    ],
    [
      "f",
      "ri"
    ],
    [
      "sh",
      "all"
    ],
    [
      "c",
      "la"
    ],
    [
      "ap",
      "pe"
    ],
    [
      "st",
      "and"
    ],
    [
      "un",
      "t"
    ],
    [
      "v",
      "il"
    ],
    [
      "n",
      "or"
    ],
    [
      "com",
      "m"
    ],
    [
      "c",
      "ent"
    ],
    [
      "h",
      "u"
    ],
    [
      "ment",
      "s"
    ],
    [
      "di",
      "ff"
    ],
    [
      "i",
      "an"
    ],
    [
      "de",
      "l"
    ],
    [
      "i",
      "z"
    ],
    [
      "ce",
      "pt"
    ],
    [
      "p",
      "ut"
    ],
    [
      "cau",
      "se"
    ],
    [
      "m",
      "s"
    ],
    [
      "u",
      "al"
    ],
    [
      "la",
      "w"
    ],
    [
      "i",
      "ous"
    ],
    [
      "i",
      "p"
    ],
    [
      "b",
      "u"
    ],
    [
      "v",
      "el"
    ],
    [
      "l",
      "ast"
    ],
    [
      "cop",
      "y"
    ],
    [
      "en",
      "se"
    ],
    [
      "pe",
      "ople"
    ],
    [
      "s",
      "in"
    ],
    [
      "h",
      "al"
    ],
    [
      "b",
      "en"
    ],
    [
      "ver",
      "s"
    ],
    [
      "ri",
      "but"
    ],
    [
      "n",
      "ight"
    ],
    [
      "fol",
      "low"
    ],
    [
      "s",
      "ent"
    ],
    [
      "c",
      "le"
    ],
    [
      "work",
      "s"
    ],
    [
      "po",
      "int"
    ],
    [
      "al",
      "so"
    ],
    [
      "wh",
      "ile"
    ],
    [
      "ta",
      "ke"
    ],
    [
      "B",
      "o"
    ],
    [
      "e",
      "i"
    ],
    [
      "fe",
      "ct"
    ],
    [
      "pres",
      "s"
    ],
    [
      "c",
      "u"
    ],
    [
      "ish",
      "ed"
    ],
    [
      "re",
      "st"
    ],
    [
      "us",
      "ed"
    ],
    [
      "a",
      "way"
    ],
    [
      "s",
      "y"
    ],
    [
      "c",
      "a"
    ],
    [
      "!",
      "\""
    ],
    [
      "c",
      "or"
    ],
    [
      "e",
      "lect"
    ],
    [
      "on",
      "s"
    ],
    [
      "m",
      "et"
    ],
    [
      "er",
      "al"
    ],
    [
      "f",
      "ar"
    ],
    [
      "st",
      "ill"
    ],
    [
      "m",
      "it"
    ],
    [
      "st",
      "r"
    ],
    [
      "f",
      "el"
    ],
    [
      "on",
      "d"
    ],
    [
      "ad",
      "d"
    ],
    [
      "ma",
      "in"
    ],
    [
      "i",
      "en"
    ],
    [
      "de",
      "m"
    ],
    [
      "n",
      "g"
    ],
    [
      "w",
      "om"
    ],
    [
      "M",
      "ar"
    ],
    [
      "T",
      "o"
    ],
    [
      "t",
      "urn"
    ],
    [
      "per",
      "son"
    ],
    [
      "i",
      "j"
    ],
    [
      "ul",
      "ar"
    ],
    [
      "D",
      "e"
    ],
    [
      "an",
      "n"
    ],
    [
      "c",
      "ap"
    ],
    [
      "h",
      "ouse"
    ],
    [
      "o",
      "li"
    ],
    [
      "o",
      "h"
    ],
    [
      "é",
      "s"
    ],
    [
      "fa",
      "ce"
    ],
    [
      "ent",
      "ly"
    ],
    [
      "k",
      "u"
    ],
    [
      "g",
      "ed"
    ],
    [
      "er",
      "ed"
    ],
    [
      "a",
      "ir"
    ],
    [
      "b",
      "ed"
    ],
    [
      "t",
      "on"
    ],
    [
      "for",
      "t"
    ],
    [
      "o",
      "cc"
    ],
    [
      "in",
      "st"
    ],
    [
      "con",
      "d"
    ],
    [
      "b",
      "ar"
    ],
    [
      "a",
      "z"
    ],
    [
      "s",
      "ol"
    ],
    [
      "year",
      "s"
    ],
    [
      "L",
      "e"
    ],
    [
      "way",
      "s"
    ],
    [
      "A",
      "l"
    ],
    [
      "p",
      "or"
    ],
    [
      "e",
      "in"
    ],
    [
      "m",
      "ind"
    ],
    [
      "s",
      "k"
    ],
    [
      "O",
      "n"
    ],
    [
      "n",
      "ing"
    ],
    [
      "i",
      "th"
    ],
    [
      "t",
      "al"
    ],
    [
      "p",
      "as"
    ],
    [
      "fri",
      "end"
    ],
    [
      "i",
      "ent"
    ],
    [
      "th",
      "ree"
    ],
    [
      "en",
      "ed"
    ],
    [
      "c",
      "ess"
    ],
    [
      "are",
      "d"
    ],
    [
      ")",
      ","
    ],
    [
      "c",
      "r"
    ],
    [
      "me",
      "m"
    ],
    [
      "ag",
      "ree"
    ],
    [
      "or",
      "der"
    ],
    [
      "m",
      "is"
    ],
    [
      "s",
      "ou"
    ],
    [
      "ul",
      "t"
    ],
    [
      "re",
      "ce"
    ],
    [
      "c",
      "y"
    ],
    [
      "A",
      "s"
    ],
    [
      "you",
      "ng"
    ],
    [
      "ch",
      "ild"
    ],
    [
      "R",
      "e"
    ],
    [
      "v",
      "ar"
    ],
    [
      "ron",
      "ic"
    ],
    [
      "..",
      "."
    ],
    [
      "G",
      "od"
    ],
    [
      "ey",
      "es"
    ],
    [
      "p",
      "ra"
    ],
    [
      "En",
      "gl"
    ],
    [
      "i",
      "h"
    ],
    [
      "ne",
      "ar"
    ],
    [
      "p",
      "ur"
    ],
    [
      "g",
      "ive"
    ],
    [
      "again",
      "st"
    ],
    [
      "F",
      "or"
    ],
    [
      "M",
      "a"
    ],
    [
      "i",
      "o"
    ],
    [
      "s",
      "il"
    ],
    [
      "wor",
      "ld"
    ],
    [
      "go",
      "t"
    ],
    [
      "p",
      "our"
    ],
    [
      "ar",
      "s"
    ],
    [
      "n",
      "y"
    ],
    [
      "ro",
      "om"
    ],
    [
      "le",
      "g"
    ],
    [
      "he",
      "l"
    ],
    [
      "t",
      "ing"
    ],
    [
      "en",
      "g"
    ],
    [
      "Wh",
      "at"
    ],
    [
      "u",
      "x"
    ],
    [
      "ent",
      "s"
    ],
    [
      "cer",
      "tain"
    ],
    [
      "b",
      "es"
    ],
    [
      "an",
      "other"
    ],
    [
      "w",
      "ant"
    ],
    [
      "as",
      "h"
    ],
    [
      "hi",
      "gh"
    ],
    [
      "elect",
      "ronic"
    ],
    [
      "he",
      "art"
    ],
    [
      "t",
      "ell"
    ],
    [
      "we",
      "en"
    ],
    [
      "e",
      "ach"
    ],
    [
      "f",
      "ind"
    ],
    [
      "re",
      "as"
    ],
    [
      "le",
      "ft"
    ],
    [
      "u",
      "res"
    ],
    [
      "y",
      "et"
    ],
    [
      "fa",
      "ct"
    ],
    [
      "b",
      "it"
    ],
    [
      "ful",
      "l"
    ],
    [
      "coun",
      "try"
    ],
    [
      "ch",
      "es"
    ],
    [
      "on",
      "ce"
    ],
    [
      "ch",
      "ed"
    ],
    [
      "re",
      "f"
    ],
    [
      "ret",
      "urn"
    ],
    [
      "k",
      "ind"
    ],
    [
      "S",
      "o"
    ],
    [
      "n",
      "um"
    ],
    [
      "od",
      "y"
    ],
    [
      "Th",
      "at"
    ],
    [
      "Wh",
      "en"
    ],
    [
      "d",
      "ans"
    ],
    [
      "it",
      "er"
    ],
    [
      "en",
      "e"
    ],
    [
      "fe",
      "w"
    ],
    [
      "d",
      "ra"
    ],
    [
      "w",
      "r"
    ],
    [
      "A",
      "t"
    ],
    [
      "di",
      "re"
    ],
    [
      "qu",
      "est"
    ],
    [
      "w",
      "ater"
    ],
    [
      "i",
      "ed"
    ],
    [
      "se",
      "en"
    ],
    [
      "m",
      "om"
    ],
    [
      "bet",
      "ween"
    ],
    [
      ".",
      ","
    ],
    [
      "m",
      "il"
    ],
    [
      "mar",
      "k"
    ],
    [
      "g",
      "es"
    ],
    [
      "ter",
      "s"
    ],
    [
      "in",
      "ed"
    ],
    [
      "f",
      "l"
    ],
    [
      "thing",
      "s"
    ],
    [
      "ha",
      "pp"
    ],
    [
      "call",
      "ed"
    ],
    [
      "m",
      "iss"
    ],
    [
      "f",
      "am"
    ],
    [
      "H",
      "is"
    ],
    [
      "to",
      "ok"
    ],
    [
      "Th",
      "en"
    ],
    [
      "sm",
      "all"
    ],
    [
      "he",
      "t"
    ],
    [
      "o",
      "g"
    ],
    [
      "si",
      "ble"
    ],
    [
      "or",
      "g"
    ],
    [
      "ig",
      "n"
    ],
    [
      "c",
      "al"
    ],
    [
      "no",
      "thing"
    ],
    [
      "a",
      "an"
    ],
    [
      "co",
      "ver"
    ],
    [
      "day",
      "s"
    ],
    [
      "at",
      "ing"
    ],
    [
      "B",
      "e"
    ],
    [
      "c",
      "ou"
    ],
    [
      "sa",
      "w"
    ],
    [
      "fa",
      "ther"
    ],
    [
      "k",
      "i"
    ],
    [
      "ant",
      "s"
    ],
    [
      "ro",
      "ss"
    ],
    [
      "d",
      "ou"
    ],
    [
      "cons",
      "id"
    ],
    [
      "so",
      "ci"
    ],
    [
      "w",
      "on"
    ],
    [
      "si",
      "e"
    ],
    [
      "z",
      "u"
    ],
    [
      "ä",
      "än"
    ],
    [
      "it",
      "u"
    ],
    [
      "s",
      "at"
    ],
    [
      "ri",
      "ed"
    ],
    [
      "ä",
      "ä"
    ],
    [
      "pla",
      "y"
    ],
    [
      "m",
      "as"
    ],
    [
      "b",
      "us"
    ],
    [
      "po",
      "se"
    ],
    [
      "cour",
      "se"
    ],
    [
      "es",
      "e"
    ],
    [
      "F",
      "ound"
    ],
    [
      "we",
      "ver"
    ],
    [
      "k",
      "es"
    ],
    [
      "th",
      "y"
    ],
    [
      "al",
      "ways"
    ],
    [
      "dist",
      "ribut"
    ],
    [
      "d",
      "é"
    ],
    [
      "C",
      "on"
    ],
    [
      "am",
      "p"
    ],
    [
      "i",
      "al"
    ],
    [
      "g",
      "g"
    ],
    [
      "ap",
      "p"
    ],
    [
      "n",
      "on"
    ],
    [
      "Found",
      "ation"
    ],
    [
      "s",
      "im"
    ],
    [
      "read",
      "y"
    ],
    [
      "d",
      "ar"
    ],
    [
      "be",
      "cause"
    ],
    [
      "c",
      "are"
    ],
    [
      "ur",
      "ing"
    ],
    [
      "r",
      "ist"
    ],
    [
      "pe",
      "ct"
    ],
    [
      "hal",
      "f"
    ],
    [
      "b",
      "ody"
    ],
    [
      "ur",
      "ch"
    ],
    [
      "bo",
      "th"
    ],
    [
      "h",
      "or"
    ],
    [
      "su",
      "l"
    ],
    [
      "n",
      "ame"
    ],
    [
      "st",
      "ate"
    ],
    [
      "it",
      "ies"
    ],
    [
      "St",
      "ates"
    ],
    [
      "b",
      "ra"
    ],
    [
      "c",
      "ut"
    ],
    [
      "x",
      "t"
    ],
    [
      "a",
      "is"
    ],
    [
      "r",
      "is"
    ],
    [
      "p",
      "rom"
    ],
    [
      "é",
      "e"
    ],
    [
      "g",
      "re"
    ],
    [
      "s",
      "ha"
    ],
    [
      "I",
      "I"
    ],
    [
      "k",
      "o"
    ],
    [
      "ter",
      "ms"
    ],
    [
      "a",
      "ce"
    ],
    [
      "in",
      "ess"
    ],
    [
      "our",
      "s"
    ],
    [
      "sh",
      "ip"
    ],
    [
      "re",
      "l"
    ],
    [
      "fe",
      "el"
    ],
    [
      "a",
      "w"
    ],
    [
      "diff",
      "er"
    ],
    [
      "who",
      "le"
    ],
    [
      "am",
      "ong"
    ],
    [
      "re",
      "p"
    ],
    [
      "l",
      "ad"
    ],
    [
      "do",
      "or"
    ],
    [
      "mom",
      "ent"
    ],
    [
      "iv",
      "ed"
    ],
    [
      "1",
      "9"
    ],
    [
      "p",
      "al"
    ],
    [
      "ir",
      "l"
    ],
    [
      "s",
      "po"
    ],
    [
      "ur",
      "s"
    ],
    [
      "f",
      "re"
    ],
    [
      "b",
      "la"
    ],
    [
      "lo",
      "ve"
    ],
    [
      "sh",
      "ow"
    ],
    [
      "il",
      "s"
    ],
    [
      "i",
      "er"
    ],
    [
      "ex",
      "p"
    ],
    [
      "ke",
      "ep"
    ],
    [
      "cont",
      "in"
    ],
    [
      "P",
      "ar"
    ],
    [
      "is",
      "ed"
    ],
    [
      "r",
      "ound"
    ],
    [
      "so",
      "on"
    ],
    [
      "f",
      "our"
    ],
    [
      "g",
      "er"
    ],
    [
      "sel",
      "ves"
    ],
    [
      "su",
      "re"
    ],
    [
      "end",
      "ed"
    ],
    [
      "lo",
      "s"
    ],
    [
      "Mr",
      "s"
    ],
    [
      "t",
      "ro"
    ],
    [
      "po",
      "wer"
    ],
    [
      "g",
      "ent"
    ],
    [
      "wor",
      "d"
    ],
    [
      "1",
      "7"
    ],
    [
      "ch",
      "en"
    ],
    [
      "r",
      "é"
    ],
    [
      "ä",
      "t"
    ],
    [
      "ha",
      "ving"
    ],
    [
      "h",
      "on"
    ],
    [
      "go",
      "ing"
    ],
    [
      "ag",
      "es"
    ],
    [
      "si",
      "gn"
    ],
    [
      "b",
      "lic"
    ],
    [
      "p",
      "at"
    ],
    [
      "wh",
      "om"
    ],
    [
      "ri",
      "d"
    ],
    [
      "v",
      "ous"
    ],
    [
      "em",
      "p"
    ],
    [
      "ta",
      "ken"
    ],
    [
      "l",
      "ing"
    ],
    [
      "look",
      "ed"
    ],
    [
      "C",
      "om"
    ],
    [
      "h",
      "ome"
    ],
    [
      "con",
      "f"
    ],
    [
      "a",
      "ther"
    ],
    [
      "al",
      "most"
    ],
    [
      "h",
      "old"
    ],
    [
      "pro",
      "du"
    ],
    [
      "mo",
      "ther"
    ],
    [
      "Un",
      "ited"
    ],
    [
      "d",
      "est"
    ],
    [
      "H",
      "er"
    ],
    [
      "do",
      "es"
    ],
    [
      "st",
      "er"
    ],
    [
      "a",
      "h"
    ],
    [
      "to",
      "ld"
    ],
    [
      "ward",
      "s"
    ],
    [
      "w",
      "al"
    ],
    [
      "sp",
      "ir"
    ],
    [
      "s",
      "en"
    ],
    [
      "m",
      "es"
    ],
    [
      "li",
      "ed"
    ],
    [
      "d",
      "one"
    ],
    [
      ".",
      "--"
    ],
    [
      "e",
      "en"
    ],
    [
      "us",
      "h"
    ],
    [
      "seem",
      "ed"
    ],
    [
      "s",
      "om"
    ],
    [
      "in",
      "de"
    ],
    [
      "il",
      "le"
    ],
    [
      "be",
      "lie"
    ],
    [
      "gi",
      "ven"
    ],
    [
      "m",
      "or"
    ],
    [
      "ful",
      "ly"
    ],
    [
      "pl",
      "us"
    ],
    [
      "per",
      "i"
    ],
    [
      "su",
      "ff"
    ],
    [
      "h",
      "y"
    ],
    [
      "R",
      "o"
    ],
    [
      "st",
      "ru"
    ],
    [
      "he",
      "ard"
    ],
    [
      "Bo",
      "ok"
    ],
    [
      "la",
      "y"
    ],
    [
      "ple",
      "as"
    ],
    [
      "o",
      "ve"
    ],
    [
      "h",
      "ard"
    ],
    [
      "num",
      "ber"
    ],
    [
      "b",
      "est"
    ],
    [
      "ction",
      "s"
    ],
    [
      "wom",
      "an"
    ],
    [
      "z",
      "a"
    ],
    [
      "su",
      "p"
    ],
    [
      "ho",
      "wever"
    ],
    [
      "pp",
      "ed"
    ],
    [
      "la",
      "u"
    ],
    [
      "et",
      "y"
    ],
    [
      "inter",
      "est"
    ],
    [
      "g",
      "irl"
    ],
    [
      "m",
      "atter"
    ],
    [
      "w",
      "el"
    ],
    [
      "é",
      "ta"
    ],
    [
      "mem",
      "ber"
    ],
    [
      "d",
      "ed"
    ],
    [
      "r",
      "un"
    ],
    [
      "ans",
      "wer"
    ],
    [
      "Ch",
      "rist"
    ],
    [
      "se",
      "ver"
    ],
    [
      "in",
      "f"
    ],
    [
      "pr",
      "in"
    ],
    [
      "c",
      "ur"
    ],
    [
      "b",
      "an"
    ],
    [
      "as",
      "ked"
    ],
    [
      "w",
      "w"
    ],
    [
      "lar",
      "ge"
    ],
    [
      "u",
      "g"
    ],
    [
      "p",
      "ol"
    ],
    [
      "bet",
      "ter"
    ],
    [
      "p",
      "ay"
    ],
    [
      "op",
      "en"
    ],
    [
      "in",
      "es"
    ],
    [
      "o",
      "re"
    ],
    [
      "th",
      "or"
    ],
    [
      "can",
      "not"
    ],
    [
      "L",
      "a"
    ],
    [
      "cla",
      "im"
    ],
    [
      "is",
      "on"
    ],
    [
      "ich",
      "t"
    ],
    [
      "at",
      "ta"
    ],
    [
      "is",
      "ter"
    ],
    [
      "1",
      "6"
    ],
    [
      "m",
      "al"
    ],
    [
      "ex",
      "c"
    ],
    [
      "know",
      "n"
    ],
    [
      "bo",
      "ok"
    ],
    [
      "d",
      "om"
    ],
    [
      "1",
      "5"
    ],
    [
      "p",
      "ain"
    ],
    [
      "med",
      "i"
    ],
    [
      "k",
      "new"
    ],
    [
      "t",
      "t"
    ],
    [
      "pos",
      "ition"
    ],
    [
      "ge",
      "ther"
    ],
    [
      "P",
      "r"
    ],
    [
      "se",
      "m"
    ],
    [
      "l",
      "ine"
    ],
    [
      "pos",
      "ed"
    ],
    [
      "ut",
      "e"
    ],
    [
      "d",
      "ing"
    ],
    [
      "su",
      "m"
    ],
    [
      "copy",
      "right"
    ],
    [
      "M",
      "iss"
    ],
    [
      "f",
      "all"
    ],
    [
      "unt",
      "il"
    ],
    [
      "b",
      "lo"
    ],
    [
      "id",
      "ent"
    ],
    [
      "k",
      "in"
    ],
    [
      "ro",
      "y"
    ],
    [
      "su",
      "pp"
    ],
    [
      "s",
      "al"
    ],
    [
      "to",
      "gether"
    ],
    [
      "et",
      "s"
    ],
    [
      "ro",
      "wn"
    ],
    [
      "b",
      "ur"
    ],
    [
      "at",
      "ely"
    ],
    [
      "sto",
      "od"
    ],
    [
      "st",
      "re"
    ],
    [
      "in",
      "a"
    ],
    [
      "en",
      "ough"
    ],
    [
      "D",
      "o"
    ],
    [
      "pos",
      "sible"
    ],
    [
      "some",
      "thing"
    ],
    [
      "J",
      "oh"
    ],
    [
      "p",
      "en"
    ],
    [
      "b",
      "t"
    ],
    [
      "c",
      "ir"
    ],
    [
      "ab",
      "ly"
    ],
    [
      "one",
      "y"
    ],
    [
      "le",
      "y"
    ],
    [
      "g",
      "ar"
    ],
    [
      "m",
      "ir"
    ],
    [
      "s",
      "ing"
    ],
    [
      "y",
      "e"
    ],
    [
      "ne",
      "ed"
    ],
    [
      "wor",
      "ds"
    ],
    [
      "?",
      "”"
    ],
    [
      ",",
      "--"
    ],
    [
      "an",
      "o"
    ],
    [
      "hand",
      "s"
    ],
    [
      "qu",
      "ite"
    ],
    [
      "e",
      "as"
    ],
    [
      "a",
      "i"
    ],
    [
      "be",
      "aut"
    ],
    [
      "è",
      "re"
    ],
    [
      "l",
      "im"
    ],
    [
      "w",
      "at"
    ],
    [
      "inc",
      "lu"
    ],
    [
      "ser",
      "v"
    ],
    [
      "n",
      "ed"
    ],
    [
      "re",
      "al"
    ],
    [
      "pr",
      "of"
    ],
    [
      "spe",
      "ak"
    ],
    [
      "ie",
      "f"
    ],
    [
      "on",
      "t"
    ],
    [
      "ar",
      "ch"
    ],
    [
      "ne",
      "cess"
    ],
    [
      "at",
      "s"
    ],
    [
      "gen",
      "er"
    ],
    [
      "other",
      "s"
    ],
    [
      "fa",
      "ir"
    ],
    [
      "g",
      "ave"
    ],
    [
      "'",
      "ll"
    ],
    [
      "agree",
      "ment"
    ],
    [
      "th",
      "us"
    ],
    [
      "ch",
      "an"
    ],
    [
      "es",
      "ta"
    ],
    [
      "il",
      "ed"
    ],
    [
      "se",
      "c"
    ],
    [
      "gr",
      "and"
    ],
    [
      "s",
      "es"
    ],
    [
      "a",
      "us"
    ],
    [
      "pu",
      "blic"
    ],
    [
      "miss",
      "ion"
    ],
    [
      "ch",
      "o"
    ],
    [
      "L",
      "ord"
    ],
    [
      "he",
      "ar"
    ],
    [
      "br",
      "ought"
    ],
    [
      "ter",
      "n"
    ],
    [
      "m",
      "ag"
    ],
    [
      "d",
      "re"
    ],
    [
      "vi",
      "ew"
    ],
    [
      "il",
      "ity"
    ],
    [
      "k",
      "er"
    ],
    [
      "consid",
      "er"
    ],
    [
      "ce",
      "ed"
    ],
    [
      "wh",
      "ite"
    ],
    [
      "e",
      "Book"
    ],
    [
      "v",
      "on"
    ],
    [
      "with",
      "in"
    ],
    [
      "tr",
      "u"
    ],
    [
      "re",
      "ach"
    ],
    [
      "ha",
      "ps"
    ],
    [
      "h",
      "ar"
    ],
    [
      "O",
      "h"
    ],
    [
      "d",
      "as"
    ],
    [
      "Joh",
      "n"
    ],
    [
      "itt",
      "en"
    ],
    [
      "tr",
      "ou"
    ],
    [
      "in",
      "di"
    ],
    [
      ")",
      "."
    ],
    [
      "tr",
      "ans"
    ],
    [
      "de",
      "ath"
    ],
    [
      "li",
      "g"
    ],
    [
      "of",
      "ten"
    ],
    [
      "who",
      "se"
    ],
    [
      "el",
      "d"
    ],
    [
      "hel",
      "p"
    ],
    [
      "e",
      "le"
    ],
    [
      "c",
      "re"
    ],
    [
      "tra",
      "de"
    ],
    [
      "c",
      "as"
    ],
    [
      "appe",
      "ar"
    ],
    [
      "m",
      "orn"
    ],
    [
      "for",
      "th"
    ],
    [
      "st",
      "ra"
    ],
    [
      "ut",
      "ta"
    ],
    [
      "c",
      "ase"
    ],
    [
      "u",
      "ally"
    ],
    [
      "t",
      "ill"
    ],
    [
      "k",
      "ä"
    ],
    [
      "b",
      "or"
    ],
    [
      "me",
      "ans"
    ],
    [
      "at",
      "ive"
    ],
    [
      "und",
      "red"
    ],
    [
      "t",
      "ou"
    ],
    [
      "re",
      "main"
    ],
    [
      "A",
      "ll"
    ],
    [
      "M",
      "y"
    ],
    [
      "Ar",
      "ch"
    ],
    [
      "ust",
      "r"
    ],
    [
      "lu",
      "i"
    ],
    [
      "p",
      "et"
    ],
    [
      "them",
      "selves"
    ],
    [
      "A",
      "mer"
    ],
    [
      "am",
      "ent"
    ],
    [
      "w",
      "he"
    ],
    [
      "ck",
      "s"
    ],
    [
      "I",
      "s"
    ],
    [
      "ut",
      "ion"
    ],
    [
      "I",
      "l"
    ],
    [
      "Q",
      "u"
    ],
    [
      "mo",
      "t"
    ],
    [
      "if",
      "ic"
    ],
    [
      "se",
      "cond"
    ],
    [
      "ir",
      "d"
    ],
    [
      "me",
      "an"
    ],
    [
      "d",
      "r"
    ],
    [
      "turn",
      "ed"
    ],
    [
      "gr",
      "ound"
    ],
    [
      "it",
      "ions"
    ],
    [
      "fe",
      "et"
    ],
    [
      "v",
      "or"
    ],
    [
      "m",
      "at"
    ],
    [
      "h",
      "at"
    ],
    [
      "N",
      "ew"
    ],
    [
      "G",
      "e"
    ],
    [
      "iv",
      "es"
    ],
    [
      "ar",
      "ri"
    ],
    [
      "h",
      "undred"
    ],
    [
      "ang",
      "er"
    ],
    [
      "m",
      "oney"
    ],
    [
      "b",
      "a"
    ],
    [
      "e",
      "k"
    ],
    [
      "s",
      "un"
    ],
    [
      "qu",
      "el"
    ],
    [
      "B",
      "y"
    ],
    [
      "w",
      "in"
    ],
    [
      "qu",
      "al"
    ],
    [
      "morn",
      "ing"
    ],
    [
      "an",
      "e"
    ],
    [
      "en",
      "n"
    ],
    [
      "ta",
      "ble"
    ],
    [
      "ul",
      "l"
    ],
    [
      "1",
      "0"
    ],
    [
      "er",
      "y"
    ],
    [
      "C",
      "ol"
    ],
    [
      "al",
      "le"
    ],
    [
      "v",
      "in"
    ],
    [
      "f",
      "ur"
    ],
    [
      "im",
      "e"
    ],
    [
      "ro",
      "ad"
    ],
    [
      "sin",
      "ce"
    ],
    [
      "char",
      "act"
    ],
    [
      "Amer",
      "ic"
    ],
    [
      "reas",
      "on"
    ],
    [
      "po",
      "st"
    ],
    [
      "w",
      "rit"
    ],
    [
      "sub",
      "ject"
    ],
    [
      "wo",
      "od"
    ],
    [
      "s",
      "ess"
    ],
    [
      "ra",
      "ther"
    ],
    [
      "si",
      "x"
    ],
    [
      "im",
      "port"
    ],
    [
      ".",
      "]"
    ],
    [
      "f",
      "ire"
    ],
    [
      "nat",
      "ure"
    ],
    [
      "ct",
      "or"
    ],
    [
      "it",
      "ä"
    ],
    [
      "N",
      "or"
    ],
    [
      "ne",
      "xt"
    ],
    [
      "ch",
      "er"
    ],
    [
      "E",
      "R"
    ],
    [
      "v",
      "ä"
    ],
    [
      "In",
      "di"
    ],
    [
      "form",
      "ation"
    ],
    [
      "ran",
      "ge"
    ],
    [
      "spe",
      "ci"
    ],
    [
      "st",
      "ri"
    ],
    [
      "ch",
      "t"
    ],
    [
      "fel",
      "t"
    ],
    [
      "Engl",
      "ish"
    ],
    [
      "au",
      "x"
    ],
    [
      "k",
      "un"
    ],
    [
      "itt",
      "ed"
    ],
    [
      "P",
      "er"
    ],
    [
      "beg",
      "an"
    ],
    [
      "p",
      "end"
    ],
    [
      "to",
      "wn"
    ],
    [
      "b",
      "s"
    ],
    [
      "W",
      "ith"
    ],
    [
      "é",
      "r"
    ],
    [
      "rece",
      "ived"
    ],
    [
      "G",
      "en"
    ],
    [
      "vi",
      "ce"
    ],
    [
      "p",
      "on"
    ],
    [
      "be",
      "l"
    ],
    [
      "as",
      "k"
    ],
    [
      "i",
      "gh"
    ],
    [
      "str",
      "ong"
    ],
    [
      "b",
      "and"
    ],
    [
      "in",
      "en"
    ],
    [
      "n",
      "ä"
    ],
    [
      "ab",
      "ove"
    ],
    [
      "d",
      "ro"
    ],
    [
      "t",
      "te"
    ],
    [
      "f",
      "ree"
    ],
    [
      "part",
      "ic"
    ],
    [
      "po",
      "or"
    ],
    [
      "g",
      "ro"
    ],
    [
      "au",
      "f"
    ],
    [
      "al",
      "la"
    ],
    [
      "an",
      "ces"
    ],
    [
      "g",
      "li"
    ],
    [
      "to",
      "m"
    ],
    [
      "G",
      "er"
    ],
    [
      "iter",
      "ary"
    ],
    [
      "1",
      "2"
    ],
    [
      "pro",
      "per"
    ],
    [
      "is",
      "m"
    ],
    [
      "ap",
      "pro"
    ],
    [
      "é",
      "t"
    ],
    [
      "pro",
      "te"
    ],
    [
      "h",
      "r"
    ],
    [
      "un",
      "a"
    ],
    [
      "he",
      "ld"
    ],
    [
      "his",
      "t"
    ],
    [
      "al",
      "ong"
    ],
    [
      "N",
      "ow"
    ],
    [
      "s",
      "we"
    ],
    [
      "ure",
      "d"
    ],
    [
      "m",
      "id"
    ],
    [
      "b",
      "ri"
    ],
    [
      "H",
      "ow"
    ],
    [
      "ou",
      "th"
    ],
    [
      "ei",
      "ther"
    ],
    [
      "id",
      "es"
    ],
    [
      "tr",
      "ue"
    ],
    [
      "p",
      "ed"
    ],
    [
      "reg",
      "ard"
    ],
    [
      "n",
      "u"
    ],
    [
      "follow",
      "ing"
    ],
    [
      "gen",
      "eral"
    ],
    [
      "ur",
      "al"
    ],
    [
      "im",
      "es"
    ],
    [
      "le",
      "ar"
    ],
    [
      "c",
      "us"
    ],
    [
      "J",
      "e"
    ],
    [
      "W",
      "ell"
    ],
    [
      "pos",
      "sess"
    ],
    [
      "any",
      "thing"
    ],
    [
      "f",
      "ig"
    ],
    [
      "law",
      "s"
    ],
    [
      "an",
      "im"
    ],
    [
      "say",
      "s"
    ],
    [
      "child",
      "ren"
    ],
    [
      "S",
      "ch"
    ],
    [
      "t",
      "out"
    ],
    [
      "lau",
      "gh"
    ],
    [
      "'",
      "d"
    ],
    [
      "con",
      "st"
    ],
    [
      "quest",
      "ion"
    ],
    [
      "m",
      "us"
    ],
    [
      "dar",
      "k"
    ],
    [
      "sh",
      "ort"
    ],
    [
      "differ",
      "ent"
    ],
    [
      "o",
      "le"
    ],
    [
      "h",
      "om"
    ],
    [
      "b",
      "on"
    ],
    [
      "vo",
      "ice"
    ],
    [
      "l",
      "as"
    ],
    [
      "f",
      "ut"
    ],
    [
      "pass",
      "ed"
    ],
    [
      "go",
      "ver"
    ],
    [
      "i",
      "i"
    ],
    [
      "at",
      "o"
    ],
    [
      "me",
      "et"
    ],
    [
      "il",
      "li"
    ],
    [
      "won",
      "der"
    ],
    [
      "st",
      "art"
    ],
    [
      "c",
      "ity"
    ],
    [
      "d",
      "uring"
    ],
    [
      "K",
      "ing"
    ],
    [
      "bo",
      "y"
    ],
    [
      "ous",
      "ly"
    ],
    [
      "d",
      "ri"
    ],
    [
      "sh",
      "o"
    ],
    [
      "hu",
      "man"
    ],
    [
      "te",
      "en"
    ],
    [
      "f",
      "ive"
    ],
    [
      "ist",
      "s"
    ],
    [
      "contin",
      "u"
    ],
    [
      "ch",
      "ief"
    ],
    [
      "ex",
      "press"
    ],
    [
      "sever",
      "al"
    ],
    [
      "ol",
      "l"
    ],
    [
      "ill",
      "ed"
    ],
    [
      "cover",
      "ed"
    ],
    [
      "le",
      "ad"
    ],
    [
      "ag",
      "ra"
    ],
    [
      "ad",
      "o"
    ],
    [
      "s",
      "ich"
    ],
    [
      "coun",
      "t"
    ],
    [
      "cle",
      "ar"
    ],
    [
      "s",
      "z"
    ],
    [
      "S",
      "ir"
    ],
    [
      "clo",
      "se"
    ],
    [
      "ck",
      "ed"
    ],
    [
      "s",
      "us"
    ],
    [
      "O",
      "ne"
    ],
    [
      "er",
      "a"
    ],
    [
      "w",
      "a"
    ],
    [
      "or",
      "ig"
    ],
    [
      "charact",
      "er"
    ],
    [
      "z",
      "ij"
    ],
    [
      "O",
      "f"
    ],
    [
      "ou",
      "d"
    ],
    [
      "f",
      "ac"
    ],
    [
      "!",
      "”"
    ],
    [
      "éta",
      "it"
    ],
    [
      "s",
      "or"
    ],
    [
      "com",
      "ing"
    ],
    [
      "wi",
      "fe"
    ],
    [
      "a",
      "ven"
    ],
    [
      "P",
      "o"
    ],
    [
      "com",
      "mon"
    ],
    [
      "pl",
      "an"
    ],
    [
      "tem",
      "pt"
    ],
    [
      "tim",
      "es"
    ],
    [
      "su",
      "cc"
    ],
    [
      "un",
      "i"
    ],
    [
      "an",
      "ci"
    ],
    [
      "n",
      "am"
    ],
    [
      "al",
      "t"
    ],
    [
      "agra",
      "ph"
    ],
    [
      "al",
      "ready"
    ],
    [
      "u",
      "ri"
    ],
    [
      "s",
      "le"
    ],
    [
      "E",
      "l"
    ],
    [
      "et",
      "tä"
    ],
    [
      "w",
      "ish"
    ],
    [
      "ren",
      "ch"
    ],
    [
      "par",
      "agraph"
    ],
    [
      "prin",
      "ci"
    ],
    [
      "ex",
      "t"
    ],
    [
      "p",
      "ul"
    ],
    [
      "av",
      "a"
    ],
    [
      "m",
      "oun"
    ],
    [
      "al",
      "one"
    ],
    [
      "is",
      "i"
    ],
    [
      "my",
      "self"
    ],
    [
      "c",
      "reat"
    ],
    [
      "f",
      "lo"
    ],
    [
      "il",
      "i"
    ],
    [
      "H",
      "o"
    ],
    [
      "C",
      "ar"
    ],
    [
      "v",
      "at"
    ],
    [
      "partic",
      "ular"
    ],
    [
      "s",
      "ed"
    ],
    [
      "d",
      "am"
    ],
    [
      "1",
      "4"
    ],
    [
      "ho",
      "pe"
    ],
    [
      "an",
      "te"
    ],
    [
      "and",
      "er"
    ],
    [
      "r",
      "ance"
    ],
    [
      "do",
      "w"
    ],
    [
      "belie",
      "ve"
    ],
    [
      "A",
      "N"
    ],
    [
      "d",
      "at"
    ],
    [
      "T",
      "H"
    ],
    [
      "it",
      "a"
    ],
    [
      "ef",
      "fect"
    ],
    [
      "al",
      "low"
    ],
    [
      "I",
      "N"
    ],
    [
      "per",
      "haps"
    ],
    [
      "d",
      "den"
    ],
    [
      "è",
      "s"
    ],
    [
      "bla",
      "ck"
    ],
    [
      "de",
      "c"
    ],
    [
      "h",
      "en"
    ],
    [
      "is",
      "ta"
    ],
    [
      "se",
      "a"
    ],
    [
      "mo",
      "ve"
    ],
    [
      "w",
      "ait"
    ],
    [
      "Arch",
      "ive"
    ],
    [
      "ave",
      "c"
    ],
    [
      "p",
      "an"
    ],
    [
      "orig",
      "in"
    ],
    [
      "M",
      "on"
    ],
    [
      "p",
      "it"
    ],
    [
      "form",
      "ed"
    ],
    [
      "th",
      "s"
    ],
    [
      "le",
      "ast"
    ],
    [
      "L",
      "iterary"
    ],
    [
      "pro",
      "b"
    ],
    [
      "dou",
      "bt"
    ],
    [
      "n",
      "ous"
    ],
    [
      "ob",
      "ject"
    ],
    [
      "it",
      "self"
    ],
    [
      "F",
      "rench"
    ],
    [
      "ob",
      "tain"
    ],
    [
      "r",
      "ing"
    ],
    [
      "acc",
      "ord"
    ],
    [
      "p",
      "ie"
    ],
    [
      "r",
      "ent"
    ],
    [
      "ex",
      "cept"
    ],
    [
      "im",
      "ent"
    ],
    [
      "let",
      "ter"
    ],
    [
      "S",
      "u"
    ],
    [
      "h",
      "ind"
    ],
    [
      "Engl",
      "and"
    ],
    [
      "h",
      "ol"
    ],
    [
      "sch",
      "o"
    ],
    [
      "d",
      "it"
    ],
    [
      "y",
      "ed"
    ],
    [
      "for",
      "ce"
    ],
    [
      "G",
      "o"
    ],
    [
      "her",
      "self"
    ],
    [
      "co",
      "st"
    ],
    [
      "g",
      "one"
    ],
    [
      "trade",
      "mark"
    ],
    [
      "f",
      "low"
    ],
    [
      "Y",
      "es"
    ],
    [
      "F",
      "ran"
    ],
    [
      "n",
      "ment"
    ],
    [
      "au",
      "thor"
    ],
    [
      "v",
      "ir"
    ],
    [
      "j",
      "our"
    ],
    [
      "de",
      "ep"
    ],
    [
      "de",
      "ar"
    ],
    [
      "l",
      "er"
    ],
    [
      "y",
      "t"
    ],
    [
      "wom",
      "en"
    ],
    [
      "su",
      "dden"
    ],
    [
      "A",
      "f"
    ],
    [
      "O",
      "r"
    ],
    [
      "s",
      "ort"
    ],
    [
      "2",
      "0"
    ],
    [
      "n",
      "icht"
    ],
    [
      "c",
      "ul"
    ],
    [
      "s",
      "pr"
    ],
    [
      "diff",
      "ic"
    ],
    [
      "ic",
      "es"
    ],
    [
      "char",
      "ge"
    ],
    [
      "ous",
      "and"
    ],
    [
      "el",
      "s"
    ],
    [
      "pra",
      "ct"
    ],
    [
      "D",
      "on"
    ],
    [
      "pre",
      "t"
    ],
    [
      "j",
      "ud"
    ],
    [
      "br",
      "ing"
    ],
    [
      "if",
      "ul"
    ],
    [
      "look",
      "ing"
    ],
    [
      "under",
      "stand"
    ],
    [
      "1",
      "3"
    ],
    [
      "ri",
      "e"
    ],
    [
      "fe",
      "e"
    ],
    [
      "des",
      "cri"
    ],
    [
      "ur",
      "y"
    ],
    [
      "ear",
      "th"
    ],
    [
      "spir",
      "it"
    ],
    [
      "l",
      "ang"
    ],
    [
      "ard",
      "s"
    ],
    [
      "gent",
      "le"
    ],
    [
      "pa",
      "per"
    ],
    [
      "z",
      "en"
    ],
    [
      "res",
      "pect"
    ],
    [
      "ent",
      "er"
    ],
    [
      "de",
      "ad"
    ],
    [
      "s",
      "ound"
    ],
    [
      ".",
      "'"
    ],
    [
      "di",
      "es"
    ],
    [
      "acc",
      "ess"
    ],
    [
      "th",
      "ousand"
    ],
    [
      "é",
      "n"
    ],
    [
      "an",
      "k"
    ],
    [
      "b",
      "ly"
    ],
    [
      "there",
      "fore"
    ],
    [
      "as",
      "ion"
    ],
    [
      "be",
      "came"
    ],
    [
      "succ",
      "ess"
    ],
    [
      "et",
      "er"
    ],
    [
      "pla",
      "in"
    ],
    [
      "t",
      "est"
    ],
    [
      "inde",
      "ed"
    ],
    [
      "n",
      "en"
    ],
    [
      "c",
      "ra"
    ],
    [
      "il",
      "la"
    ],
    [
      "ation",
      "al"
    ],
    [
      "and",
      "o"
    ],
    [
      "w",
      "all"
    ],
    [
      "k",
      "y"
    ],
    [
      "f",
      "ron"
    ],
    [
      "f",
      "ast"
    ],
    [
      "b",
      "ien"
    ],
    [
      "qu",
      "es"
    ],
    [
      "I",
      "ll"
    ],
    [
      "av",
      "ait"
    ],
    [
      "bro",
      "ther"
    ],
    [
      "E",
      "N"
    ],
    [
      "Ch",
      "ar"
    ],
    [
      "M",
      "o"
    ],
    [
      "m",
      "ä"
    ],
    [
      "don",
      "ations"
    ],
    [
      "t",
      "es"
    ],
    [
      "ma",
      "king"
    ],
    [
      "a",
      "de"
    ],
    [
      "τ",
      "ο"
    ],
    [
      "r",
      "up"
    ],
    [
      "P",
      "h"
    ],
    [
      "sou",
      "l"
    ],
    [
      "beg",
      "in"
    ],
    [
      "E",
      "x"
    ],
    [
      "id",
      "en"
    ],
    [
      "be",
      "come"
    ],
    [
      "h",
      "our"
    ],
    [
      "g",
      "row"
    ],
    [
      "j",
      "u"
    ],
    [
      "ste",
      "ad"
    ],
    [
      "ber",
      "t"
    ],
    [
      "z",
      "o"
    ],
    [
      "ear",
      "ly"
    ],
    [
      "in",
      "v"
    ],
    [
      "ö",
      "r"
    ],
    [
      "bus",
      "iness"
    ],
    [
      "y",
      "ing"
    ],
    [
      "p",
      "ast"
    ],
    [
      "arm",
      "s"
    ],
    [
      "M",
      "e"
    ],
    [
      "Gen",
      "eral"
    ],
    [
      "iz",
      "ed"
    ],
    [
      "pa",
      "id"
    ],
    [
      "m",
      "ur"
    ],
    [
      "comm",
      "and"
    ],
    [
      "Wh",
      "y"
    ],
    [
      "D",
      "u"
    ],
    [
      "at",
      "ure"
    ],
    [
      "h",
      "am"
    ],
    [
      "si",
      "ve"
    ],
    [
      "i",
      "ble"
    ],
    [
      "s",
      "la"
    ],
    [
      "fo",
      "ot"
    ],
    [
      "ut",
      "ter"
    ],
    [
      "L",
      "i"
    ],
    [
      "d",
      "in"
    ],
    [
      "no",
      "te"
    ],
    [
      "le",
      "ave"
    ],
    [
      "end",
      "ing"
    ],
    [
      "ar",
      "ound"
    ],
    [
      "ü",
      "r"
    ],
    [
      "ma",
      "is"
    ],
    [
      "er",
      "t"
    ],
    [
      "th",
      "ou"
    ],
    [
      "whe",
      "ther"
    ],
    [
      "ent",
      "ion"
    ],
    [
      "k",
      "si"
    ],
    [
      "con",
      "tain"
    ],
    [
      "w",
      "ind"
    ],
    [
      "et",
      "imes"
    ],
    [
      "be",
      "ar"
    ],
    [
      "chan",
      "ge"
    ],
    [
      "man",
      "ner"
    ],
    [
      "t",
      "reat"
    ],
    [
      "vis",
      "it"
    ],
    [
      "con",
      "cer"
    ],
    [
      "l",
      "en"
    ],
    [
      "av",
      "o"
    ],
    [
      "friend",
      "s"
    ],
    [
      "Af",
      "ter"
    ],
    [
      "fe",
      "ar"
    ],
    [
      "li",
      "ch"
    ],
    [
      "c",
      "ast"
    ],
    [
      "de",
      "v"
    ],
    [
      "qu",
      "ar"
    ],
    [
      "l",
      "ater"
    ],
    [
      "l",
      "ist"
    ],
    [
      "b",
      "as"
    ],
    [
      "c",
      "um"
    ],
    [
      "ci",
      "ous"
    ],
    [
      "l",
      "ä"
    ],
    [
      "went",
      "y"
    ],
    [
      "ly",
      "ing"
    ],
    [
      "on",
      "es"
    ],
    [
      "c",
      "ing"
    ],
    [
      "bre",
      "ak"
    ],
    [
      "scho",
      "ol"
    ],
    [
      "it",
      "al"
    ],
    [
      "fam",
      "ily"
    ],
    [
      "be",
      "hind"
    ],
    [
      "O",
      "N"
    ],
    [
      "J",
      "u"
    ],
    [
      "emp",
      "lo"
    ],
    [
      "appe",
      "ared"
    ],
    [
      "ex",
      "am"
    ],
    [
      "h",
      "ur"
    ],
    [
      "E",
      "r"
    ],
    [
      "ex",
      "ist"
    ],
    [
      "mo",
      "ved"
    ],
    [
      "e",
      "vid"
    ],
    [
      "wh",
      "y"
    ],
    [
      "N",
      "ot"
    ],
    [
      "at",
      "a"
    ],
    [
      "lo",
      "st"
    ],
    [
      "g",
      "old"
    ],
    [
      "fel",
      "low"
    ],
    [
      "re",
      "present"
    ],
    [
      "cri",
      "ed"
    ],
    [
      "C",
      "ap"
    ],
    [
      "ö",
      "n"
    ],
    [
      "as",
      "soci"
    ],
    [
      "'",
      "m"
    ],
    [
      "Th",
      "ese"
    ],
    [
      "pe",
      "ci"
    ],
    [
      "com",
      "es"
    ],
    [
      "re",
      "member"
    ],
    [
      "f",
      "ell"
    ],
    [
      "us",
      "ing"
    ],
    [
      "f",
      "r"
    ],
    [
      "il",
      "t"
    ],
    [
      "si",
      "ght"
    ],
    [
      ".",
      ")"
    ],
    [
      "E",
      "u"
    ],
    [
      "be",
      "y"
    ],
    [
      "B",
      "ar"
    ],
    [
      "ad",
      "a"
    ],
    [
      "qu",
      "ire"
    ],
    [
      "00",
      "0"
    ],
    [
      "know",
      "led"
    ],
    [
      "ke",
      "pt"
    ],
    [
      "int",
      "el"
    ],
    [
      "in",
      "ation"
    ],
    [
      ",",
      "'"
    ],
    [
      "f",
      "le"
    ],
    [
      "G",
      "r"
    ],
    [
      "f",
      "ine"
    ],
    [
      "ac",
      "cept"
    ],
    [
      "im",
      "medi"
    ],
    [
      "pro",
      "vid"
    ],
    [
      "necess",
      "ary"
    ],
    [
      "en",
      "ces"
    ],
    [
      "N",
      "e"
    ],
    [
      "et",
      "t"
    ],
    [
      "indi",
      "vid"
    ],
    [
      "com",
      "me"
    ],
    [
      "A",
      "u"
    ],
    [
      "rep",
      "lied"
    ],
    [
      "f",
      "ra"
    ],
    [
      "ing",
      "ly"
    ],
    [
      "re",
      "sul"
    ],
    [
      "beaut",
      "iful"
    ],
    [
      "dire",
      "ct"
    ],
    [
      "b",
      "li"
    ],
    [
      "ad",
      "van"
    ],
    [
      "ag",
      "ed"
    ],
    [
      "m",
      "el"
    ],
    [
      "itu",
      "de"
    ],
    [
      "A",
      "b"
    ],
    [
      "S",
      "ome"
    ],
    [
      "c",
      "el"
    ],
    [
      "st",
      "em"
    ],
    [
      "Se",
      "e"
    ],
    [
      "wr",
      "itten"
    ],
    [
      "L",
      "u"
    ],
    [
      "as",
      "sa"
    ],
    [
      "V",
      "er"
    ],
    [
      "t",
      "wenty"
    ],
    [
      "as",
      "ta"
    ],
    [
      "col",
      "le"
    ],
    [
      "lo",
      "c"
    ],
    [
      "per",
      "fect"
    ],
    [
      "le",
      "av"
    ],
    [
      "ter",
      "min"
    ],
    [
      "C",
      "o"
    ],
    [
      "on",
      "y"
    ],
    [
      "l",
      "or"
    ],
    [
      "hor",
      "se"
    ],
    [
      "Ill",
      "ustr"
    ],
    [
      "ne",
      "y"
    ],
    [
      "B",
      "rit"
    ],
    [
      "w",
      "ing"
    ],
    [
      "ra",
      "ge"
    ],
    [
      "re",
      "ally"
    ],
    [
      "att",
      "le"
    ],
    [
      "b",
      "les"
    ],
    [
      "par",
      "ty"
    ],
    [
      "ch",
      "ing"
    ],
    [
      "et",
      "te"
    ],
    [
      "H",
      "ar"
    ],
    [
      "ha",
      "bit"
    ],
    [
      "L",
      "o"
    ],
    [
      "seem",
      "s"
    ],
    [
      "lad",
      "y"
    ],
    [
      "sat",
      "is"
    ],
    [
      "st",
      "ep"
    ],
    [
      "b",
      "ad"
    ],
    [
      "tru",
      "th"
    ],
    [
      "iv",
      "ing"
    ],
    [
      "g",
      "el"
    ],
    [
      "answer",
      "ed"
    ],
    [
      "fi",
      "ed"
    ],
    [
      "st",
      "u"
    ],
    [
      "comp",
      "an"
    ],
    [
      "dem",
      "and"
    ],
    [
      "ch",
      "ang"
    ],
    [
      "f",
      "la"
    ],
    [
      "A",
      "R"
    ],
    [
      "el",
      "se"
    ],
    [
      "nat",
      "ural"
    ],
    [
      "to",
      "wards"
    ],
    [
      "b",
      "al"
    ],
    [
      "st",
      "ory"
    ],
    [
      "w",
      "ise"
    ],
    [
      "ag",
      "o"
    ],
    [
      "ord",
      "in"
    ],
    [
      "h",
      "um"
    ],
    [
      "vi",
      "de"
    ],
    [
      "L",
      "et"
    ],
    [
      "li",
      "ve"
    ],
    [
      "an",
      "a"
    ],
    [
      "c",
      "ross"
    ],
    [
      "pol",
      "it"
    ],
    [
      "li",
      "es"
    ],
    [
      "ic",
      "s"
    ],
    [
      "di",
      "ed"
    ],
    [
      "au",
      "gh"
    ],
    [
      "b",
      "ound"
    ],
    [
      "E",
      "m"
    ],
    [
      "inclu",
      "ding"
    ],
    [
      "b",
      "our"
    ],
    [
      "occ",
      "asion"
    ],
    [
      "F",
      "rom"
    ],
    [
      "se",
      "qu"
    ],
    [
      "á",
      "n"
    ],
    [
      "ro",
      "pe"
    ],
    [
      "ri",
      "ver"
    ],
    [
      "f",
      "u"
    ],
    [
      "mas",
      "ter"
    ],
    [
      "d",
      "ut"
    ],
    [
      "i",
      "ther"
    ],
    [
      "off",
      "ic"
    ],
    [
      "'",
      "ve"
    ],
    [
      "L",
      "on"
    ],
    [
      "near",
      "ly"
    ],
    [
      "F",
      "rance"
    ],
    [
      "D",
      "r"
    ],
    [
      "fur",
      "ther"
    ],
    [
      "ce",
      "tte"
    ],
    [
      "R",
      "om"
    ],
    [
      "g",
      "ain"
    ],
    [
      "i",
      "us"
    ],
    [
      "for",
      "d"
    ],
    [
      "s",
      "ir"
    ],
    [
      "follow",
      "ed"
    ],
    [
      "g",
      "a"
    ],
    [
      "part",
      "s"
    ],
    [
      "ri",
      "ch"
    ],
    [
      "ta",
      "x"
    ],
    [
      "of",
      "t"
    ],
    [
      "l",
      "ate"
    ],
    [
      "w",
      "it"
    ],
    [
      "p",
      "es"
    ],
    [
      "h",
      "us"
    ],
    [
      "m",
      "ê"
    ],
    [
      "id",
      "ed"
    ],
    [
      "ob",
      "ser"
    ],
    [
      "cl",
      "ass"
    ],
    [
      "d",
      "ress"
    ],
    [
      "ww",
      "w"
    ],
    [
      "g",
      "utenberg"
    ],
    [
      "car",
      "ry"
    ],
    [
      "ac",
      "count"
    ],
    [
      "org",
      "an"
    ],
    [
      "el",
      "la"
    ],
    [
      "supp",
      "ort"
    ],
    [
      "er",
      "ing"
    ],
    [
      "b",
      "ir"
    ],
    [
      "il",
      "o"
    ],
    [
      "al",
      "i"
    ],
    [
      "b",
      "ig"
    ],
    [
      "re",
      "li"
    ],
    [
      "peri",
      "od"
    ],
    [
      "j",
      "ok"
    ],
    [
      "ku",
      "in"
    ],
    [
      "car",
      "ried"
    ],
    [
      "M",
      "an"
    ],
    [
      "l",
      "in"
    ],
    [
      "ide",
      "a"
    ],
    [
      "o",
      "per"
    ],
    [
      "f",
      "if"
    ],
    [
      "occ",
      "up"
    ],
    [
      "sh",
      "i"
    ],
    [
      "mil",
      "es"
    ],
    [
      "g",
      "ing"
    ],
    [
      "c",
      "at"
    ],
    [
      "blo",
      "od"
    ],
    [
      "hän",
      "en"
    ],
    [
      "lo",
      "t"
    ],
    [
      "op",
      "in"
    ],
    [
      "ta",
      "king"
    ],
    [
      "pur",
      "pose"
    ],
    [
      "h",
      "an"
    ],
    [
      "qu",
      "ick"
    ],
    [
      "pi",
      "ct"
    ],
    [
      "vil",
      "la"
    ],
    [
      "return",
      "ed"
    ],
    [
      "o",
      "i"
    ],
    [
      "im",
      "ag"
    ],
    [
      "to",
      "p"
    ],
    [
      "pr",
      "ison"
    ],
    [
      "win",
      "dow"
    ],
    [
      "ny",
      "t"
    ],
    [
      "ic",
      "ally"
    ],
    [
      "Lon",
      "don"
    ],
    [
      "H",
      "ere"
    ],
    [
      "jo",
      "y"
    ],
    [
      "us",
      "ion"
    ],
    [
      "it",
      "ation"
    ],
    [
      "de",
      "f"
    ],
    [
      "set",
      "t"
    ],
    [
      "ac",
      "ross"
    ],
    [
      "ni",
      "in"
    ],
    [
      "fa",
      "ith"
    ],
    [
      "som",
      "etimes"
    ],
    [
      "pla",
      "ced"
    ],
    [
      "oun",
      "t"
    ],
    [
      "M",
      "ay"
    ],
    [
      "de",
      "li"
    ],
    [
      "O",
      "R"
    ],
    [
      "con",
      "tr"
    ],
    [
      "g",
      "un"
    ],
    [
      "ent",
      "ire"
    ],
    [
      "í",
      "a"
    ],
    [
      "A",
      "m"
    ],
    [
      "u",
      "i"
    ],
    [
      "s",
      "ense"
    ],
    [
      "fi",
      "eld"
    ],
    [
      "even",
      "ing"
    ],
    [
      "ch",
      "urch"
    ],
    [
      "be",
      "low"
    ],
    [
      "ut",
      "es"
    ],
    [
      "3",
      "0"
    ],
    [
      "m",
      "ine"
    ],
    [
      "ct",
      "s"
    ],
    [
      "es",
      "peci"
    ],
    [
      "in",
      "o"
    ],
    [
      "inf",
      "lu"
    ],
    [
      "ant",
      "ly"
    ],
    [
      "il",
      "ing"
    ],
    [
      "x",
      "ed"
    ],
    [
      "c",
      "old"
    ],
    [
      "b",
      "i"
    ],
    [
      "qui",
      "red"
    ],
    [
      "re",
      "c"
    ],
    [
      "qui",
      "et"
    ],
    [
      "lu",
      "e"
    ],
    [
      "en",
      "de"
    ],
    [
      "bu",
      "ild"
    ],
    [
      "st",
      "or"
    ],
    [
      "ed",
      "er"
    ],
    [
      "n",
      "ar"
    ],
    [
      "ey",
      "e"
    ],
    [
      "at",
      "or"
    ],
    [
      "fron",
      "t"
    ],
    [
      "ri",
      "c"
    ],
    [
      "end",
      "s"
    ],
    [
      "d",
      "augh"
    ],
    [
      "is",
      "en"
    ],
    [
      "f",
      "at"
    ],
    [
      "L",
      "ic"
    ],
    [
      "h",
      "ill"
    ],
    [
      "M",
      "in"
    ],
    [
      "it",
      "é"
    ],
    [
      "B",
      "er"
    ],
    [
      "form",
      "er"
    ],
    [
      "ol",
      "o"
    ],
    [
      "h",
      "ot"
    ],
    [
      "happ",
      "y"
    ],
    [
      "re",
      "port"
    ],
    [
      "st",
      "ud"
    ],
    [
      "knowled",
      "ge"
    ],
    [
      "import",
      "ant"
    ],
    [
      "he",
      "av"
    ],
    [
      "or",
      "k"
    ],
    [
      "l",
      "eng"
    ],
    [
      "ra",
      "p"
    ],
    [
      "reach",
      "ed"
    ],
    [
      "st",
      "one"
    ],
    [
      "sec",
      "ret"
    ],
    [
      "E",
      "S"
    ],
    [
      "b",
      "ow"
    ],
    [
      "t",
      "an"
    ],
    [
      "pe",
      "cted"
    ],
    [
      "H",
      "en"
    ],
    [
      "inst",
      "ru"
    ],
    [
      "s",
      "low"
    ],
    [
      "Lic",
      "ense"
    ],
    [
      "Americ",
      "an"
    ],
    [
      "Illustr",
      "ation"
    ],
    [
      "b",
      "urn"
    ],
    [
      "le",
      "ur"
    ],
    [
      "D",
      "ie"
    ],
    [
      "fut",
      "ure"
    ],
    [
      "mar",
      "ked"
    ],
    [
      "sy",
      "m"
    ],
    [
      "y",
      "n"
    ],
    [
      "tre",
      "m"
    ],
    [
      "st",
      "at"
    ],
    [
      "i",
      "x"
    ],
    [
      "re",
      "fer"
    ],
    [
      "p",
      "ä"
    ],
    [
      "al",
      "th"
    ],
    [
      "2",
      "5"
    ],
    [
      "sur",
      "pr"
    ],
    [
      "itt",
      "ing"
    ],
    [
      "d",
      "anger"
    ],
    [
      "for",
      "ward"
    ],
    [
      "sc",
      "ar"
    ],
    [
      "c",
      "red"
    ],
    [
      "continu",
      "ed"
    ],
    [
      "per",
      "s"
    ],
    [
      "st",
      "ren"
    ],
    [
      "vel",
      "op"
    ],
    [
      "the",
      "e"
    ],
    [
      "un",
      "ity"
    ],
    [
      "ha",
      "ir"
    ],
    [
      "v",
      "u"
    ],
    [
      "v",
      "ain"
    ],
    [
      "pe",
      "ace"
    ],
    [
      "th",
      "ir"
    ],
    [
      "af",
      "f"
    ],
    [
      "at",
      "tempt"
    ],
    [
      "ro",
      "ll"
    ],
    [
      "bl",
      "ed"
    ],
    [
      "F",
      "o"
    ],
    [
      "u",
      "c"
    ],
    [
      "l",
      "atter"
    ],
    [
      "C",
      "an"
    ],
    [
      "m",
      "itted"
    ],
    [
      "h",
      "ours"
    ],
    [
      "co",
      "t"
    ],
    [
      "dis",
      "play"
    ],
    [
      "m",
      "ad"
    ],
    [
      "m",
      "ort"
    ],
    [
      "E",
      "d"
    ],
    [
      "s",
      "mo"
    ],
    [
      "ma",
      "ch"
    ],
    [
      "pt",
      "ion"
    ],
    [
      "comp",
      "any"
    ],
    [
      "ro",
      "se"
    ],
    [
      "moun",
      "tain"
    ],
    [
      "ser",
      "vice"
    ],
    [
      "--",
      "\""
    ],
    [
      "d",
      "le"
    ],
    [
      "long",
      "er"
    ],
    [
      "con",
      "du"
    ],
    [
      "pr",
      "im"
    ],
    [
      "or",
      "ge"
    ],
    [
      "G",
      "u"
    ],
    [
      "as",
      "i"
    ],
    [
      "v",
      "ast"
    ],
    [
      "l",
      "an"
    ],
    [
      "p",
      "un"
    ],
    [
      "individ",
      "ual"
    ],
    [
      "p",
      "ond"
    ],
    [
      "g",
      "s"
    ],
    [
      "m",
      "é"
    ],
    [
      "n",
      "et"
    ],
    [
      "c",
      "orn"
    ],
    [
      "hus",
      "band"
    ],
    [
      "hist",
      "ory"
    ],
    [
      "ur",
      "a"
    ],
    [
      "f",
      "ight"
    ],
    [
      "ap",
      "par"
    ],
    [
      "ag",
      "er"
    ],
    [
      "especi",
      "ally"
    ],
    [
      "a",
      "j"
    ],
    [
      "..",
      ".."
    ],
    [
      "a",
      "ction"
    ],
    [
      "de",
      "al"
    ],
    [
      "in",
      "ct"
    ],
    [
      "vis",
      "ion"
    ],
    [
      "pr",
      "int"
    ],
    [
      "Q",
      "ue"
    ],
    [
      "s",
      "w"
    ],
    [
      "A",
      "d"
    ],
    [
      "th",
      "od"
    ],
    [
      "Ger",
      "man"
    ],
    [
      "stand",
      "ing"
    ],
    [
      "i",
      "red"
    ],
    [
      "pro",
      "vide"
    ],
    [
      "comp",
      "le"
    ],
    [
      "ici",
      "al"
    ],
    [
      "u",
      "a"
    ],
    [
      "su",
      "gg"
    ],
    [
      "var",
      "i"
    ],
    [
      "re",
      "co"
    ],
    [
      "d",
      "an"
    ],
    [
      "fir",
      "m"
    ],
    [
      "mê",
      "me"
    ],
    [
      "prob",
      "ably"
    ],
    [
      "w",
      "ild"
    ],
    [
      "res",
      "h"
    ],
    [
      "r",
      "ad"
    ],
    [
      "pre",
      "p"
    ],
    [
      "le",
      "m"
    ],
    [
      "vi",
      "ol"
    ],
    [
      "sle",
      "ep"
    ],
    [
      "add",
      "ed"
    ],
    [
      "po",
      "t"
    ],
    [
      "ã",
      "o"
    ],
    [
      "r",
      "ou"
    ],
    [
      "h",
      "all"
    ],
    [
      "y",
      "er"
    ],
    [
      "n",
      "al"
    ],
    [
      "point",
      "ed"
    ],
    [
      "sugg",
      "est"
    ],
    [
      "se",
      "in"
    ],
    [
      "land",
      "s"
    ],
    [
      "t",
      "ar"
    ],
    [
      "á",
      "s"
    ],
    [
      "Par",
      "is"
    ],
    [
      "n",
      "é"
    ],
    [
      "R",
      "E"
    ],
    [
      "su",
      "per"
    ],
    [
      "m",
      "outh"
    ],
    [
      "pr",
      "é"
    ],
    [
      "M",
      "ad"
    ],
    [
      "g",
      "ard"
    ],
    [
      "ta",
      "ge"
    ],
    [
      "P",
      "a"
    ],
    [
      "sol",
      "di"
    ],
    [
      "H",
      "än"
    ],
    [
      "h",
      "op"
    ],
    [
      "im",
      "p"
    ],
    [
      "r",
      "as"
    ],
    [
      "der",
      "n"
    ],
    [
      "bl",
      "ished"
    ],
    [
      "in",
      "ing"
    ],
    [
      "associ",
      "ated"
    ],
    [
      "al",
      "ter"
    ],
    [
      "k",
      "om"
    ],
    [
      "s",
      "ci"
    ],
    [
      "5",
      "0"
    ],
    [
      "ra",
      "ce"
    ],
    [
      "is",
      "sa"
    ],
    [
      "bey",
      "ond"
    ],
    [
      "ment",
      "ion"
    ],
    [
      "de",
      "t"
    ],
    [
      "cir",
      "cum"
    ],
    [
      "stren",
      "g"
    ],
    [
      "J",
      "o"
    ],
    [
      "am",
      "es"
    ],
    [
      "ion",
      "e"
    ],
    [
      "con",
      "ne"
    ],
    [
      "c",
      "amp"
    ],
    [
      "claim",
      "ed"
    ],
    [
      "wor",
      "th"
    ],
    [
      "ó",
      "n"
    ],
    [
      "op",
      "s"
    ],
    [
      "every",
      "thing"
    ],
    [
      "gl",
      "ad"
    ],
    [
      "in",
      "formation"
    ],
    [
      "gra",
      "ph"
    ],
    [
      "c",
      "is"
    ],
    [
      "sy",
      "stem"
    ],
    [
      "er",
      "o"
    ],
    [
      "feel",
      "ing"
    ],
    [
      "2",
      "4"
    ],
    [
      "Eu",
      "rope"
    ],
    [
      "appro",
      "ach"
    ],
    [
      "leng",
      "th"
    ],
    [
      "re",
      "w"
    ],
    [
      "pro",
      "ceed"
    ],
    [
      "α",
      "ι"
    ],
    [
      "v",
      "ely"
    ],
    [
      "ref",
      "und"
    ],
    [
      "he",
      "m"
    ],
    [
      "c",
      "ry"
    ],
    [
      "li",
      "ving"
    ],
    [
      "s",
      "ä"
    ],
    [
      "s",
      "qu"
    ],
    [
      "su",
      "c"
    ],
    [
      "to",
      "ward"
    ],
    [
      "tal",
      "k"
    ],
    [
      "f",
      "it"
    ],
    [
      "ci",
      "a"
    ],
    [
      "al",
      "though"
    ],
    [
      "st",
      "ay"
    ],
    [
      "z",
      "z"
    ],
    [
      "ri",
      "age"
    ],
    [
      "t",
      "un"
    ],
    [
      "ain",
      "t"
    ],
    [
      "did",
      "n"
    ],
    [
      "la",
      "id"
    ],
    [
      "h",
      "un"
    ],
    [
      "G",
      "over"
    ],
    [
      "en",
      "a"
    ],
    [
      "sudden",
      "ly"
    ],
    [
      "cop",
      "ies"
    ],
    [
      "b",
      "b"
    ],
    [
      "c",
      "rit"
    ],
    [
      "j",
      "or"
    ],
    [
      "st",
      "range"
    ],
    [
      "ma",
      "kes"
    ],
    [
      "ar",
      "my"
    ],
    [
      "ic",
      "o"
    ],
    [
      "j",
      "ä"
    ],
    [
      "dre",
      "am"
    ],
    [
      "cu",
      "ri"
    ],
    [
      "s",
      "an"
    ],
    [
      "ad",
      "y"
    ],
    [
      "ab",
      "ility"
    ],
    [
      "illi",
      "am"
    ],
    [
      "f",
      "un"
    ],
    [
      "wi",
      "e"
    ],
    [
      "me",
      "as"
    ],
    [
      "s",
      "it"
    ],
    [
      "h",
      "ä"
    ],
    [
      "c",
      "ru"
    ],
    [
      "bo",
      "ys"
    ],
    [
      "v",
      "ell"
    ],
    [
      "c",
      "ro"
    ],
    [
      "att",
      "ention"
    ],
    [
      "off",
      "ice"
    ],
    [
      "par",
      "a"
    ],
    [
      "C",
      "or"
    ],
    [
      "add",
      "ress"
    ],
    [
      "W",
      "illiam"
    ],
    [
      "g",
      "in"
    ],
    [
      "tre",
      "es"
    ],
    [
      "vi",
      "e"
    ],
    [
      "z",
      "t"
    ],
    [
      "ph",
      "ys"
    ],
    [
      "ac",
      "qu"
    ],
    [
      "ex",
      "tra"
    ],
    [
      "Christ",
      "ian"
    ],
    [
      "dist",
      "ance"
    ],
    [
      "p",
      "ic"
    ],
    [
      "loc",
      "ated"
    ],
    [
      "n",
      "om"
    ],
    [
      "se",
      "arch"
    ],
    [
      "re",
      "quire"
    ],
    [
      "writ",
      "ing"
    ],
    [
      "ch",
      "ap"
    ],
    [
      "daugh",
      "ter"
    ],
    [
      "ig",
      "en"
    ],
    [
      "k",
      "ö"
    ],
    [
      "ind",
      "ic"
    ],
    [
      "in",
      "ce"
    ],
    [
      "u",
      "es"
    ],
    [
      "as",
      "ter"
    ],
    [
      "gover",
      "nment"
    ],
    [
      "c",
      "am"
    ],
    [
      "i",
      "ans"
    ],
    [
      "spo",
      "ke"
    ],
    [
      "swe",
      "et"
    ],
    [
      "ene",
      "my"
    ],
    [
      "com",
      "b"
    ],
    [
      "ra",
      "y"
    ],
    [
      "2",
      "8"
    ],
    [
      "m",
      "ill"
    ],
    [
      "af",
      "fe"
    ],
    [
      "be",
      "long"
    ],
    [
      "l",
      "at"
    ],
    [
      "p",
      "ou"
    ],
    [
      "suff",
      "ici"
    ],
    [
      "zij",
      "n"
    ],
    [
      "du",
      "e"
    ],
    [
      "ter",
      "ri"
    ],
    [
      "iv",
      "at"
    ],
    [
      "'",
      "re"
    ],
    [
      "ren",
      "der"
    ],
    [
      "me",
      "thod"
    ],
    [
      "r",
      "or"
    ],
    [
      "diffic",
      "ult"
    ],
    [
      "t",
      "or"
    ],
    [
      "st",
      "ates"
    ],
    [
      "pa",
      "ir"
    ],
    [
      "port",
      "ion"
    ],
    [
      "per",
      "mission"
    ],
    [
      "del",
      "la"
    ],
    [
      "P",
      "res"
    ],
    [
      "var",
      "ious"
    ],
    [
      "ê",
      "tre"
    ],
    [
      "ll",
      "ä"
    ],
    [
      "da",
      "ß"
    ],
    [
      "v",
      "é"
    ],
    [
      "bo",
      "at"
    ],
    [
      "iv",
      "ely"
    ],
    [
      "1",
      "1"
    ],
    [
      "us",
      "es"
    ],
    [
      "sup",
      "pose"
    ],
    [
      "fa",
      "it"
    ],
    [
      "It",
      "al"
    ],
    [
      "t",
      "in"
    ],
    [
      "m",
      "ater"
    ],
    [
      "o",
      "te"
    ],
    [
      "gre",
      "en"
    ],
    [
      "i",
      "or"
    ],
    [
      "ho",
      "od"
    ],
    [
      "s",
      "ans"
    ],
    [
      "con",
      "ce"
    ],
    [
      "us",
      "si"
    ],
    [
      "fre",
      "qu"
    ],
    [
      "to",
      "s"
    ],
    [
      "c",
      "row"
    ],
    [
      "e",
      "u"
    ],
    [
      "do",
      "ing"
    ],
    [
      "Cap",
      "tain"
    ],
    [
      "st",
      "a"
    ],
    [
      "bo",
      "ard"
    ],
    [
      "Y",
      "ork"
    ],
    [
      "book",
      "s"
    ],
    [
      "sh",
      "ar"
    ],
    [
      "il",
      "es"
    ],
    [
      "ent",
      "ered"
    ],
    [
      "st",
      "ar"
    ],
    [
      "an",
      "i"
    ],
    [
      "lang",
      "u"
    ],
    [
      "la",
      "m"
    ],
    [
      "for",
      "ts"
    ],
    [
      "S",
      "a"
    ],
    [
      "op",
      "port"
    ],
    [
      "Se",
      "ction"
    ],
    [
      "great",
      "er"
    ],
    [
      "g",
      "od"
    ],
    [
      "n",
      "one"
    ],
    [
      "á",
      "r"
    ],
    [
      "out",
      "side"
    ],
    [
      "v",
      "ou"
    ],
    [
      "2",
      "2"
    ],
    [
      "e",
      "ine"
    ],
    [
      "di",
      "g"
    ],
    [
      "s",
      "light"
    ],
    [
      "c",
      "ell"
    ],
    [
      "E",
      "t"
    ],
    [
      "te",
      "ach"
    ],
    [
      "occ",
      "ur"
    ],
    [
      "end",
      "en"
    ],
    [
      "ver",
      "t"
    ],
    [
      "ha",
      "b"
    ],
    [
      "h",
      "ors"
    ],
    [
      "pret",
      "ty"
    ],
    [
      "c",
      "ab"
    ],
    [
      "po",
      "et"
    ],
    [
      "b",
      "right"
    ],
    [
      "de",
      "light"
    ],
    [
      "S",
      "i"
    ],
    [
      "A",
      "h"
    ],
    [
      "de",
      "velop"
    ],
    [
      "rid",
      "ge"
    ],
    [
      "Brit",
      "ish"
    ],
    [
      "ne",
      "igh"
    ],
    [
      "op",
      "ened"
    ],
    [
      "n",
      "es"
    ],
    [
      "P",
      "e"
    ],
    [
      "de",
      "termin"
    ],
    [
      "n",
      "ur"
    ],
    [
      "L",
      "I"
    ],
    [
      "say",
      "ing"
    ],
    [
      "Wh",
      "ere"
    ],
    [
      "jok",
      "a"
    ],
    [
      "s",
      "itu"
    ],
    [
      "cour",
      "t"
    ],
    [
      "c",
      "il"
    ],
    [
      "ne",
      "m"
    ],
    [
      "ed",
      "s"
    ],
    [
      "W",
      "ho"
    ],
    [
      "el",
      "ä"
    ],
    [
      "ran",
      "k"
    ],
    [
      "prote",
      "cted"
    ],
    [
      "ush",
      "ed"
    ],
    [
      "de",
      "ta"
    ],
    [
      "begin",
      "ning"
    ],
    [
      "dest",
      "roy"
    ],
    [
      "b",
      "orn"
    ],
    [
      "j",
      "est"
    ],
    [
      "Ch",
      "urch"
    ],
    [
      "e",
      "ight"
    ],
    [
      "n",
      "est"
    ],
    [
      "é",
      "es"
    ],
    [
      "fa",
      "ire"
    ],
    [
      "ex",
      "per"
    ],
    [
      "n",
      "el"
    ],
    [
      "ci",
      "vil"
    ],
    [
      "us",
      "ual"
    ],
    [
      "ent",
      "e"
    ],
    [
      "ass",
      "ist"
    ],
    [
      "t",
      "ree"
    ],
    [
      "distribut",
      "ing"
    ],
    [
      "e",
      "vent"
    ],
    [
      "T",
      "om"
    ],
    [
      "G",
      "ree"
    ],
    [
      "ta",
      "ct"
    ],
    [
      "it",
      "ary"
    ],
    [
      "if",
      "ied"
    ],
    [
      "gr",
      "ou"
    ],
    [
      "y",
      "al"
    ],
    [
      "min",
      "utes"
    ],
    [
      "vil",
      "le"
    ],
    [
      "circum",
      "st"
    ],
    [
      "p",
      "ää"
    ],
    [
      "g",
      "le"
    ],
    [
      "mot",
      "ion"
    ],
    [
      "at",
      "ic"
    ],
    [
      "ordin",
      "ary"
    ],
    [
      "h",
      "ast"
    ],
    [
      "consider",
      "able"
    ],
    [
      "ben",
      "e"
    ],
    [
      "e",
      "ch"
    ],
    [
      "certain",
      "ly"
    ],
    [
      "hi",
      "j"
    ],
    [
      "ne",
      "ither"
    ],
    [
      "opin",
      "ion"
    ],
    [
      "ü",
      "ber"
    ],
    [
      "se",
      "par"
    ],
    [
      "lo",
      "ved"
    ],
    [
      "ant",
      "i"
    ],
    [
      "v",
      "it"
    ],
    [
      "te",
      "e"
    ],
    [
      "Th",
      "us"
    ],
    [
      "he",
      "aven"
    ],
    [
      "L",
      "ou"
    ],
    [
      "press",
      "ed"
    ],
    [
      "pla",
      "ces"
    ],
    [
      "eBook",
      "s"
    ],
    [
      "d",
      "y"
    ],
    [
      "li",
      "ved"
    ],
    [
      "b",
      "lue"
    ],
    [
      "S",
      "te"
    ],
    [
      "co",
      "re"
    ],
    [
      "tri",
      "ed"
    ],
    [
      "pre",
      "vent"
    ],
    [
      "ther",
      "n"
    ],
    [
      "w",
      "ound"
    ],
    [
      "no",
      "s"
    ],
    [
      "cond",
      "ition"
    ],
    [
      "fe",
      "m"
    ],
    [
      "re",
      "pe"
    ],
    [
      "L",
      "es"
    ],
    [
      "z",
      "ed"
    ],
    [
      "wi",
      "de"
    ],
    [
      "Ge",
      "orge"
    ],
    [
      "ch",
      "air"
    ],
    [
      "accord",
      "ing"
    ],
    [
      "an",
      "x"
    ],
    [
      "il",
      "ar"
    ],
    [
      "to",
      "t"
    ],
    [
      "w",
      "arm"
    ],
    [
      "de",
      "cla"
    ],
    [
      "nor",
      "th"
    ],
    [
      "r",
      "am"
    ],
    [
      "ro",
      "ck"
    ],
    [
      "st",
      "y"
    ],
    [
      "be",
      "ll"
    ],
    [
      "s",
      "li"
    ],
    [
      "g",
      "lo"
    ],
    [
      "distribut",
      "ion"
    ],
    [
      "M",
      "ary"
    ],
    [
      "c",
      "it"
    ],
    [
      "st",
      "ä"
    ],
    [
      "fo",
      "od"
    ],
    [
      "want",
      "ed"
    ],
    [
      "colle",
      "ction"
    ],
    [
      "f",
      "illed"
    ],
    [
      "or",
      "a"
    ],
    [
      "pleas",
      "ure"
    ],
    [
      "s",
      "had"
    ],
    [
      "fort",
      "un"
    ],
    [
      "l",
      "ord"
    ],
    [
      "an",
      "cy"
    ],
    [
      "v",
      "ag"
    ],
    [
      "is",
      "es"
    ],
    [
      "l",
      "ink"
    ],
    [
      "se",
      "ven"
    ],
    [
      "r",
      "ang"
    ],
    [
      "2",
      "3"
    ],
    [
      "d",
      "ol"
    ],
    [
      "f",
      "ic"
    ],
    [
      "der",
      "s"
    ],
    [
      "person",
      "s"
    ],
    [
      "s",
      "oft"
    ],
    [
      "comm",
      "un"
    ],
    [
      "l",
      "ines"
    ],
    [
      "au",
      "ch"
    ],
    [
      "ver",
      "se"
    ],
    [
      "bro",
      "ken"
    ],
    [
      "ous",
      "es"
    ],
    [
      "en",
      "ing"
    ],
    [
      "ex",
      "pected"
    ],
    [
      "eas",
      "y"
    ],
    [
      "gener",
      "ally"
    ],
    [
      "un",
      "less"
    ],
    [
      "f",
      "ish"
    ],
    [
      "ri",
      "es"
    ],
    [
      "o",
      "ch"
    ],
    [
      "spe",
      "ct"
    ],
    [
      "pro",
      "cess"
    ],
    [
      "o",
      "ù"
    ],
    [
      "appear",
      "ance"
    ],
    [
      "p",
      "el"
    ],
    [
      "L",
      "ady"
    ],
    [
      "not",
      "ice"
    ],
    [
      "influ",
      "ence"
    ],
    [
      "con",
      "sequ"
    ],
    [
      "ka",
      "ik"
    ],
    [
      "m",
      "ist"
    ],
    [
      "heav",
      "y"
    ],
    [
      "J",
      "a"
    ],
    [
      "b",
      "attle"
    ],
    [
      "S",
      "er"
    ],
    [
      "ch",
      "ance"
    ],
    [
      "f",
      "ru"
    ],
    [
      "E",
      "s"
    ],
    [
      "proper",
      "ty"
    ],
    [
      "n",
      "ach"
    ],
    [
      "ed",
      "uc"
    ],
    [
      "as",
      "su"
    ],
    [
      "th",
      "ird"
    ],
    [
      "cent",
      "ury"
    ],
    [
      "ni",
      "et"
    ],
    [
      "u",
      "it"
    ],
    [
      "pro",
      "ve"
    ],
    [
      "L",
      "A"
    ],
    [
      "pie",
      "ce"
    ],
    [
      "origin",
      "al"
    ],
    [
      "in",
      "i"
    ],
    [
      "p",
      "ly"
    ],
    [
      "y",
      "es"
    ],
    [
      "s",
      "ano"
    ],
    [
      "k",
      "at"
    ],
    [
      "it",
      "ution"
    ],
    [
      "e",
      "qu"
    ],
    [
      "no",
      "on"
    ],
    [
      "tr",
      "ust"
    ],
    [
      "k",
      "on"
    ],
    [
      "J",
      "ack"
    ],
    [
      "add",
      "ition"
    ],
    [
      "any",
      "one"
    ],
    [
      "ol",
      "ly"
    ],
    [
      "ex",
      "act"
    ],
    [
      "remain",
      "ed"
    ],
    [
      "pp",
      "ing"
    ],
    [
      "inc",
      "reas"
    ],
    [
      "ate",
      "ver"
    ],
    [
      "ol",
      "og"
    ],
    [
      "mon",
      "ths"
    ],
    [
      "is",
      "ing"
    ],
    [
      "w",
      "ed"
    ],
    [
      "k",
      "an"
    ],
    [
      "eas",
      "ily"
    ],
    [
      "am",
      "b"
    ],
    [
      "sim",
      "ple"
    ],
    [
      "r",
      "al"
    ],
    [
      "m",
      "ie"
    ],
    [
      "dut",
      "y"
    ],
    [
      "de",
      "part"
    ],
    [
      "res",
      "ol"
    ],
    [
      "Ph",
      "il"
    ],
    [
      "á",
      "t"
    ],
    [
      "produ",
      "ced"
    ],
    [
      "A",
      "ug"
    ],
    [
      "f",
      "ing"
    ],
    [
      "p",
      "ir"
    ],
    [
      "streng",
      "th"
    ],
    [
      "ad",
      "mir"
    ],
    [
      "d",
      "ate"
    ],
    [
      "lear",
      "n"
    ],
    [
      "sa",
      "ve"
    ],
    [
      "un",
      "te"
    ],
    [
      "gl",
      "ass"
    ],
    [
      "s",
      "che"
    ],
    [
      "ilo",
      "so"
    ],
    [
      "li",
      "ance"
    ],
    [
      "su",
      "it"
    ],
    [
      "int",
      "ro"
    ],
    [
      "ab",
      "er"
    ],
    [
      "in",
      "n"
    ],
    [
      "as",
      "on"
    ],
    [
      "vo",
      "y"
    ],
    [
      "tr",
      "ad"
    ],
    [
      "vo",
      "or"
    ],
    [
      "2",
      "6"
    ],
    [
      "pre",
      "ad"
    ],
    [
      "spr",
      "ing"
    ],
    [
      "_",
      "S"
    ],
    [
      "w",
      "est"
    ],
    [
      "r",
      "ate"
    ],
    [
      "fig",
      "ure"
    ],
    [
      "s",
      "ens"
    ],
    [
      "li",
      "k"
    ],
    [
      "we",
      "ak"
    ],
    [
      "gr",
      "ad"
    ],
    [
      "con",
      "vers"
    ],
    [
      "form",
      "s"
    ],
    [
      "ta",
      "a"
    ],
    [
      "sing",
      "le"
    ],
    [
      "at",
      "i"
    ],
    [
      "am",
      "a"
    ],
    [
      "el",
      "i"
    ],
    [
      "pri",
      "v"
    ],
    [
      "u",
      "le"
    ],
    [
      "ill",
      "ä"
    ],
    [
      "vo",
      "ir"
    ],
    [
      "sc",
      "ri"
    ],
    [
      "s",
      "pl"
    ],
    [
      "I",
      "S"
    ],
    [
      "ra",
      "in"
    ],
    [
      "rece",
      "ive"
    ],
    [
      "we",
      "ek"
    ],
    [
      "é",
      "l"
    ],
    [
      "ic",
      "a"
    ],
    [
      "en",
      "er"
    ],
    [
      "ex",
      "pect"
    ],
    [
      "li",
      "ber"
    ],
    [
      "y",
      "l"
    ],
    [
      "dre",
      "w"
    ],
    [
      "lic",
      "ense"
    ],
    [
      "n",
      "ation"
    ],
    [
      "g",
      "iving"
    ],
    [
      "trou",
      "ble"
    ],
    [
      "immedi",
      "ately"
    ],
    [
      "pl",
      "ant"
    ],
    [
      "W",
      "est"
    ],
    [
      "rap",
      "id"
    ],
    [
      "ir",
      "on"
    ],
    [
      "2",
      "7"
    ],
    [
      "lect",
      "ed"
    ],
    [
      "ch",
      "i"
    ],
    [
      "gra",
      "ce"
    ],
    [
      "br",
      "an"
    ],
    [
      "II",
      "I"
    ],
    [
      "u",
      "me"
    ],
    [
      "resul",
      "t"
    ],
    [
      "des",
      "ire"
    ],
    [
      "ish",
      "ment"
    ],
    [
      "im",
      "possible"
    ],
    [
      "sou",
      "th"
    ],
    [
      "af",
      "fair"
    ],
    [
      "wr",
      "ong"
    ],
    [
      "ho",
      "gy"
    ],
    [
      "st",
      "en"
    ],
    [
      "medi",
      "um"
    ],
    [
      "de",
      "ux"
    ],
    [
      "re",
      "lig"
    ],
    [
      "re",
      "mark"
    ],
    [
      "on",
      "el"
    ],
    [
      "comp",
      "ly"
    ],
    [
      "qu",
      "is"
    ],
    [
      "b",
      "low"
    ],
    [
      "as",
      "ed"
    ],
    [
      "f",
      "al"
    ],
    [
      "gu",
      "ard"
    ],
    [
      "Char",
      "les"
    ],
    [
      "f",
      "resh"
    ],
    [
      "A",
      "S"
    ],
    [
      "d",
      "im"
    ],
    [
      "m",
      "utta"
    ],
    [
      "g",
      "est"
    ],
    [
      "intro",
      "du"
    ],
    [
      "ra",
      "id"
    ],
    [
      "S",
      "an"
    ],
    [
      "de",
      "fect"
    ],
    [
      "p",
      "ure"
    ],
    [
      "cas",
      "es"
    ],
    [
      "sil",
      "ence"
    ],
    [
      "s",
      "end"
    ],
    [
      "p",
      "les"
    ],
    [
      "mor",
      "al"
    ],
    [
      "b",
      "id"
    ],
    [
      "de",
      "pend"
    ],
    [
      "get",
      "ting"
    ],
    [
      "cou",
      "rage"
    ],
    [
      "com",
      "pl"
    ],
    [
      "gentle",
      "man"
    ],
    [
      "ho",
      "st"
    ],
    [
      "th",
      "ick"
    ],
    [
      "vi",
      "g"
    ],
    [
      "ro",
      "te"
    ],
    [
      "c",
      "lu"
    ],
    [
      "mid",
      "dle"
    ],
    [
      "sh",
      "ot"
    ],
    [
      "l",
      "le"
    ],
    [
      "c",
      "ely"
    ],
    [
      "p",
      "ens"
    ],
    [
      "beaut",
      "y"
    ],
    [
      "li",
      "ps"
    ],
    [
      "j",
      "on"
    ],
    [
      "e",
      "ks"
    ],
    [
      "prof",
      "ess"
    ],
    [
      "anci",
      "ent"
    ],
    [
      "m",
      "ing"
    ],
    [
      "ef",
      "forts"
    ],
    [
      "TH",
      "E"
    ],
    [
      "e",
      "at"
    ],
    [
      "ka",
      "an"
    ],
    [
      "sub",
      "st"
    ],
    [
      "vi",
      "ous"
    ],
    [
      "hard",
      "ly"
    ],
    [
      "pos",
      "si"
    ],
    [
      "dire",
      "ction"
    ],
    [
      "hors",
      "es"
    ],
    [
      "um",
      "p"
    ],
    [
      "f",
      "urn"
    ],
    [
      "k",
      "ir"
    ],
    [
      "tem",
      "per"
    ],
    [
      "g",
      "ather"
    ],
    [
      "do",
      "g"
    ],
    [
      "appe",
      "ars"
    ],
    [
      "un",
      "to"
    ],
    [
      "po",
      "w"
    ],
    [
      "let",
      "ters"
    ],
    [
      "Hen",
      "ry"
    ],
    [
      "ist",
      "ribut"
    ],
    [
      "son",
      "t"
    ],
    [
      "ef",
      "fort"
    ],
    [
      "s",
      "is"
    ],
    [
      "t",
      "ur"
    ],
    [
      "comple",
      "te"
    ],
    [
      "A",
      "T"
    ],
    [
      "after",
      "wards"
    ],
    [
      "or",
      "i"
    ],
    [
      "g",
      "ri"
    ],
    [
      "happ",
      "ened"
    ],
    [
      "D",
      "es"
    ],
    [
      "comp",
      "let"
    ],
    [
      "stre",
      "am"
    ],
    [
      "read",
      "ing"
    ],
    [
      "ves",
      "sel"
    ],
    [
      "w",
      "is"
    ],
    [
      "v",
      "re"
    ],
    [
      "h",
      "ouses"
    ],
    [
      "a",
      "ke"
    ],
    [
      "stre",
      "et"
    ],
    [
      "ο",
      "υ"
    ],
    [
      "r",
      "ough"
    ],
    [
      "pres",
      "er"
    ],
    [
      "h",
      "ang"
    ],
    [
      "J",
      "es"
    ],
    [
      "des",
      "c"
    ],
    [
      "p",
      "age"
    ],
    [
      "St",
      "ate"
    ],
    [
      "villa",
      "ge"
    ],
    [
      "e",
      "vil"
    ],
    [
      "S",
      "ie"
    ],
    [
      ")",
      ";"
    ],
    [
      "wh",
      "is"
    ],
    [
      "w",
      "il"
    ],
    [
      "suc",
      "ceed"
    ],
    [
      "pa",
      "th"
    ],
    [
      "if",
      "f"
    ],
    [
      "bl",
      "ing"
    ],
    [
      "it",
      "en"
    ],
    [
      "dis",
      "covered"
    ],
    [
      "s",
      "ister"
    ],
    [
      "ament",
      "e"
    ],
    [
      "ri",
      "g"
    ],
    [
      "per",
      "form"
    ],
    [
      "dra",
      "w"
    ],
    [
      "h",
      "es"
    ],
    [
      "no",
      "ble"
    ],
    [
      "lo",
      "ss"
    ],
    [
      "ab",
      "sol"
    ],
    [
      "end",
      "re"
    ],
    [
      "bo",
      "t"
    ],
    [
      "as",
      "te"
    ],
    [
      "ro",
      "s"
    ],
    [
      "person",
      "al"
    ],
    [
      "W",
      "ar"
    ],
    [
      "do",
      "s"
    ],
    [
      "in",
      "stead"
    ],
    [
      "l",
      "t"
    ],
    [
      "chang",
      "ed"
    ],
    [
      "m",
      "ess"
    ],
    [
      "as",
      "se"
    ],
    [
      "y",
      "m"
    ],
    [
      "r",
      "at"
    ],
    [
      "e",
      "ff"
    ],
    [
      "S",
      "outh"
    ],
    [
      "R",
      "ed"
    ],
    [
      "tain",
      "ed"
    ],
    [
      "cons",
      "cious"
    ],
    [
      "pres",
      "ence"
    ],
    [
      "g",
      "an"
    ],
    [
      "art",
      "ic"
    ],
    [
      "ex",
      "claimed"
    ],
    [
      "ser",
      "ious"
    ],
    [
      "T",
      "er"
    ],
    [
      "Wh",
      "ile"
    ],
    [
      "E",
      "very"
    ],
    [
      "it",
      "i"
    ],
    [
      "vi",
      "ct"
    ],
    [
      "a",
      "a"
    ],
    [
      "ot",
      "ed"
    ],
    [
      "ing",
      "u"
    ],
    [
      "b",
      "all"
    ],
    [
      "reg",
      "ular"
    ],
    [
      "w",
      "rote"
    ],
    [
      "g",
      "ress"
    ],
    [
      "m",
      "ere"
    ],
    [
      "la",
      "ck"
    ],
    [
      "2",
      "9"
    ],
    [
      "gr",
      "ant"
    ],
    [
      "me",
      "ant"
    ],
    [
      "entire",
      "ly"
    ],
    [
      "wat",
      "ch"
    ],
    [
      "ra",
      "ised"
    ],
    [
      "id",
      "ence"
    ],
    [
      "bu",
      "ilt"
    ],
    [
      "g",
      "ment"
    ],
    [
      "Y",
      "et"
    ],
    [
      "Nor",
      "th"
    ],
    [
      "τ",
      "η"
    ],
    [
      "I",
      "T"
    ],
    [
      "R",
      "u"
    ],
    [
      "mer",
      "ely"
    ],
    [
      "app",
      "lic"
    ],
    [
      "dr",
      "ink"
    ],
    [
      "ta",
      "kes"
    ],
    [
      "est",
      "i"
    ],
    [
      "start",
      "ed"
    ],
    [
      "ot",
      "t"
    ],
    [
      "O",
      "F"
    ],
    [
      "you",
      "th"
    ],
    [
      "is",
      "su"
    ],
    [
      "arri",
      "ved"
    ],
    [
      "J",
      "ust"
    ],
    [
      "qu",
      "er"
    ],
    [
      "pro",
      "ved"
    ],
    [
      "b",
      "ility"
    ],
    [
      "α",
      "ν"
    ],
    [
      "express",
      "ion"
    ],
    [
      "de",
      "g"
    ],
    [
      "r",
      "ul"
    ],
    [
      "che",
      "ck"
    ],
    [
      "a",
      "ik"
    ],
    [
      "fo",
      "ol"
    ],
    [
      "consid",
      "ered"
    ],
    [
      "sim",
      "ilar"
    ],
    [
      ".",
      "’"
    ],
    [
      "ét",
      "é"
    ],
    [
      "fre",
      "ely"
    ],
    [
      "li",
      "ce"
    ],
    [
      "b",
      "ul"
    ],
    [
      "think",
      "ing"
    ],
    [
      "ô",
      "t"
    ],
    [
      "i",
      "to"
    ],
    [
      "peri",
      "ence"
    ],
    [
      "girl",
      "s"
    ],
    [
      "r",
      "ase"
    ],
    [
      "H",
      "ouse"
    ],
    [
      "ex",
      "er"
    ],
    [
      "T",
      "r"
    ],
    [
      "some",
      "what"
    ],
    [
      "rec",
      "ord"
    ],
    [
      "P",
      "la"
    ],
    [
      "dra",
      "wn"
    ],
    [
      "n",
      "s"
    ],
    [
      "pass",
      "ion"
    ],
    [
      "et",
      "c"
    ],
    [
      "ent",
      "re"
    ],
    [
      "Indi",
      "an"
    ],
    [
      "2",
      "1"
    ],
    [
      "pu",
      "is"
    ],
    [
      "clo",
      "sed"
    ],
    [
      "new",
      "s"
    ],
    [
      "mo",
      "i"
    ],
    [
      "ar",
      "i"
    ],
    [
      "ch",
      "a"
    ],
    [
      "cau",
      "ght"
    ],
    [
      "clo",
      "ck"
    ],
    [
      "ad",
      "ed"
    ],
    [
      "B",
      "u"
    ],
    [
      "us",
      "ually"
    ],
    [
      "ph",
      "rase"
    ],
    [
      "B",
      "r"
    ],
    [
      "O",
      "ur"
    ],
    [
      "slow",
      "ly"
    ],
    [
      "j",
      "os"
    ],
    [
      "H",
      "u"
    ],
    [
      "stra",
      "ight"
    ],
    [
      "S",
      "am"
    ],
    [
      "Americ",
      "a"
    ],
    [
      "your",
      "self"
    ],
    [
      "al",
      "ed"
    ],
    [
      "sk",
      "y"
    ],
    [
      "rup",
      "t"
    ],
    [
      "li",
      "ar"
    ],
    [
      "a",
      "ver"
    ],
    [
      "stru",
      "ck"
    ],
    [
      "no",
      "ch"
    ],
    [
      "id",
      "o"
    ],
    [
      "ar",
      "ily"
    ],
    [
      "lear",
      "ned"
    ],
    [
      "es",
      "te"
    ],
    [
      "h",
      "in"
    ],
    [
      "possess",
      "ion"
    ],
    [
      "min",
      "ä"
    ],
    [
      "y",
      "i"
    ],
    [
      "mar",
      "ried"
    ],
    [
      "ul",
      "ty"
    ],
    [
      "ing",
      "ton"
    ],
    [
      "me",
      "g"
    ],
    [
      "keep",
      "ing"
    ],
    [
      "on",
      "der"
    ],
    [
      "m",
      "ass"
    ],
    [
      "O",
      "U"
    ],
    [
      "I",
      "m"
    ],
    [
      "E",
      "D"
    ],
    [
      "he",
      "id"
    ],
    [
      "bl",
      "ess"
    ],
    [
      "ac",
      "y"
    ],
    [
      "é",
      "g"
    ],
    [
      "cont",
      "ro"
    ],
    [
      "G",
      "reat"
    ],
    [
      "it",
      "es"
    ],
    [
      "sm",
      "ile"
    ],
    [
      "wh",
      "atever"
    ],
    [
      "res",
      "pond"
    ],
    [
      "m",
      "ber"
    ],
    [
      "bro",
      "ad"
    ],
    [
      "V",
      "ol"
    ],
    [
      "ci",
      "al"
    ],
    [
      "av",
      "al"
    ],
    [
      "ex",
      "perience"
    ],
    [
      "el",
      "low"
    ],
    [
      "ist",
      "ed"
    ],
    [
      "et",
      "e"
    ],
    [
      "ar",
      "ies"
    ],
    [
      "know",
      "s"
    ],
    [
      "t",
      "ut"
    ],
    [
      "langu",
      "age"
    ],
    [
      "S",
      "pan"
    ],
    [
      "gi",
      "ous"
    ],
    [
      "unte",
      "ers"
    ],
    [
      "m",
      "än"
    ],
    [
      "M",
      "or"
    ],
    [
      "val",
      "ue"
    ],
    [
      "wal",
      "ked"
    ],
    [
      "ke",
      "y"
    ],
    [
      "un",
      "s"
    ],
    [
      "t",
      "ous"
    ],
    [
      "sum",
      "mer"
    ],
    [
      "el",
      "en"
    ],
    [
      "re",
      "moved"
    ],
    [
      "J",
      "an"
    ],
    [
      "direct",
      "ly"
    ],
    [
      "if",
      "y"
    ],
    [
      "offic",
      "ers"
    ],
    [
      "exc",
      "ell"
    ],
    [
      "k",
      "k"
    ],
    [
      "mo",
      "dern"
    ],
    [
      "v",
      "ine"
    ],
    [
      "pleas",
      "ant"
    ],
    [
      "re",
      "ed"
    ],
    [
      "ph",
      "iloso"
    ],
    [
      "f",
      "ro"
    ],
    [
      "d",
      "ess"
    ],
    [
      "con",
      "tra"
    ],
    [
      "cap",
      "t"
    ],
    [
      "J",
      "ames"
    ],
    [
      "e",
      "gy"
    ],
    [
      "speci",
      "al"
    ],
    [
      "see",
      "ing"
    ],
    [
      "f",
      "ash"
    ],
    [
      "dist",
      "ingu"
    ],
    [
      "des",
      "ign"
    ],
    [
      "th",
      "row"
    ],
    [
      "res",
      "pon"
    ],
    [
      "l",
      "s"
    ],
    [
      "el",
      "t"
    ],
    [
      "th",
      "in"
    ],
    [
      "li",
      "ft"
    ],
    [
      "R",
      "ich"
    ],
    [
      "p",
      "y"
    ],
    [
      "w",
      "inter"
    ],
    [
      "T",
      "e"
    ],
    [
      "w",
      "ir"
    ],
    [
      "intel",
      "lect"
    ],
    [
      "wal",
      "k"
    ],
    [
      "spo",
      "t"
    ],
    [
      "provid",
      "ed"
    ],
    [
      "low",
      "er"
    ],
    [
      "order",
      "s"
    ],
    [
      "fa",
      "vor"
    ],
    [
      "ot",
      "s"
    ],
    [
      "in",
      "al"
    ],
    [
      "ch",
      "am"
    ],
    [
      "_",
      "C"
    ],
    [
      "en",
      "to"
    ],
    [
      "ig",
      "nor"
    ],
    [
      "bo",
      "x"
    ],
    [
      "af",
      "raid"
    ],
    [
      "j",
      "am"
    ],
    [
      "gra",
      "ve"
    ],
    [
      "ic",
      "ed"
    ],
    [
      "ma",
      "ins"
    ],
    [
      "re",
      "quired"
    ],
    [
      "Th",
      "om"
    ],
    [
      "com",
      "o"
    ],
    [
      "A",
      "L"
    ],
    [
      "e",
      "qual"
    ],
    [
      "shi",
      "ps"
    ],
    [
      "b",
      "ru"
    ],
    [
      "pro",
      "pri"
    ],
    [
      "C",
      "H"
    ],
    [
      "s",
      "ion"
    ],
    [
      "n",
      "ie"
    ],
    [
      "v",
      "our"
    ],
    [
      ",",
      "’"
    ],
    [
      "z",
      "i"
    ],
    [
      "s",
      "ad"
    ],
    [
      "t",
      "it"
    ],
    [
      "quick",
      "ly"
    ],
    [
      "4",
      "0"
    ],
    [
      "18",
      "6"
    ],
    [
      "c",
      "ult"
    ],
    [
      "e",
      "ur"
    ],
    [
      "ε",
      "ι"
    ],
    [
      "fort",
      "une"
    ],
    [
      "cont",
      "ent"
    ],
    [
      "iv",
      "ät"
    ],
    [
      "it",
      "ive"
    ],
    [
      "Aug",
      "ust"
    ],
    [
      "great",
      "est"
    ],
    [
      "ü",
      "n"
    ],
    [
      "Pa",
      "ul"
    ],
    [
      "ple",
      "ase"
    ],
    [
      "ban",
      "k"
    ],
    [
      "p",
      "ound"
    ],
    [
      "allow",
      "ed"
    ],
    [
      "thought",
      "s"
    ],
    [
      "obser",
      "ved"
    ],
    [
      "b",
      "il"
    ],
    [
      "s",
      "am"
    ],
    [
      "so",
      "lic"
    ],
    [
      "The",
      "ir"
    ],
    [
      "d",
      "ry"
    ],
    [
      "M",
      "utta"
    ],
    [
      "off",
      "icial"
    ],
    [
      "is",
      "to"
    ],
    [
      "Ma",
      "is"
    ],
    [
      "relig",
      "ion"
    ],
    [
      "thir",
      "ty"
    ],
    [
      "Rom",
      "an"
    ],
    [
      "j",
      "et"
    ],
    [
      "u",
      "ght"
    ],
    [
      "er",
      "r"
    ],
    [
      "circumst",
      "ances"
    ],
    [
      "ten",
      "der"
    ],
    [
      "R",
      "ome"
    ],
    [
      "m",
      "un"
    ],
    [
      "ell",
      "es"
    ],
    [
      "descri",
      "bed"
    ],
    [
      "ell",
      "ä"
    ],
    [
      "s",
      "ong"
    ],
    [
      "atta",
      "ck"
    ],
    [
      "we",
      "ar"
    ],
    [
      "F",
      "e"
    ],
    [
      "exist",
      "ence"
    ],
    [
      "just",
      "ice"
    ],
    [
      "don",
      "t"
    ],
    [
      "a",
      "im"
    ],
    [
      "cu",
      "liar"
    ],
    [
      "opport",
      "unity"
    ],
    [
      "an",
      "sa"
    ],
    [
      "mus",
      "ic"
    ],
    [
      "her",
      "o"
    ],
    [
      "show",
      "ed"
    ],
    [
      "for",
      "got"
    ],
    [
      "sto",
      "pped"
    ],
    [
      "leav",
      "ing"
    ],
    [
      "leav",
      "es"
    ],
    [
      "s",
      "now"
    ],
    [
      "fash",
      "ion"
    ],
    [
      "press",
      "ion"
    ],
    [
      "ish",
      "ing"
    ],
    [
      "distribut",
      "e"
    ],
    [
      "e",
      "cut"
    ],
    [
      "ck",
      "et"
    ],
    [
      "V",
      "i"
    ],
    [
      "V",
      "an"
    ],
    [
      "re",
      "vol"
    ],
    [
      "soci",
      "ety"
    ],
    [
      "E",
      "ar"
    ],
    [
      "shad",
      "ow"
    ],
    [
      "cl",
      "im"
    ],
    [
      "pe",
      "culiar"
    ],
    [
      "C",
      "oun"
    ],
    [
      "pict",
      "ure"
    ],
    [
      "Z",
      "e"
    ],
    [
      "s",
      "and"
    ],
    [
      "num",
      "er"
    ],
    [
      "In",
      "formation"
    ],
    [
      "op",
      "pos"
    ],
    [
      "att",
      "end"
    ],
    [
      "th",
      "ro"
    ],
    [
      "R",
      "ussi"
    ],
    [
      "B",
      "ur"
    ],
    [
      "g",
      "ives"
    ],
    [
      "k",
      "illed"
    ],
    [
      "sur",
      "round"
    ],
    [
      "fore",
      "st"
    ],
    [
      "W",
      "ill"
    ],
    [
      "com",
      "par"
    ],
    [
      "s",
      "pread"
    ],
    [
      "din",
      "ner"
    ],
    [
      "sc",
      "ene"
    ],
    [
      "des",
      "er"
    ],
    [
      "D",
      "er"
    ],
    [
      "flo",
      "or"
    ],
    [
      "st",
      "air"
    ],
    [
      "el",
      "o"
    ],
    [
      "i",
      "ence"
    ],
    [
      "ust",
      "ri"
    ],
    [
      "wall",
      "s"
    ],
    [
      "ob",
      "li"
    ],
    [
      "D",
      "i"
    ],
    [
      "g",
      "on"
    ],
    [
      "gre",
      "w"
    ],
    [
      "t",
      "one"
    ],
    [
      "p",
      "he"
    ],
    [
      "f",
      "ür"
    ],
    [
      "pre",
      "ci"
    ],
    [
      "ish",
      "op"
    ],
    [
      "own",
      "er"
    ],
    [
      "j",
      "ours"
    ],
    [
      "pri",
      "est"
    ],
    [
      "con",
      "stru"
    ],
    [
      "k",
      "ne"
    ],
    [
      "go",
      "es"
    ],
    [
      "s",
      "ick"
    ],
    [
      "ri",
      "ce"
    ],
    [
      "sh",
      "own"
    ],
    [
      "step",
      "s"
    ],
    [
      "Pr",
      "ince"
    ],
    [
      "m",
      "ut"
    ],
    [
      "Go",
      "od"
    ],
    [
      "_",
      "P"
    ],
    [
      "G",
      "re"
    ],
    [
      "sup",
      "posed"
    ],
    [
      "E",
      "ven"
    ],
    [
      "C",
      "our"
    ],
    [
      "wor",
      "thy"
    ],
    [
      "wr",
      "ite"
    ],
    [
      "g",
      "ate"
    ],
    [
      "h",
      "ung"
    ],
    [
      "tem",
      "ps"
    ],
    [
      "stud",
      "y"
    ],
    [
      "st",
      "on"
    ],
    [
      "f",
      "il"
    ],
    [
      "pass",
      "age"
    ],
    [
      "v",
      "ot"
    ],
    [
      "te",
      "le"
    ],
    [
      "r",
      "ise"
    ],
    [
      "sur",
      "face"
    ],
    [
      "vi",
      "a"
    ],
    [
      "_",
      "The"
    ],
    [
      "build",
      "ing"
    ],
    [
      "scar",
      "cely"
    ],
    [
      "sa",
      "cri"
    ],
    [
      "li",
      "ves"
    ],
    [
      "don",
      "ate"
    ],
    [
      "re",
      "ck"
    ],
    [
      "M",
      "en"
    ],
    [
      "roy",
      "al"
    ],
    [
      "suffici",
      "ent"
    ],
    [
      "C",
      "ome"
    ],
    [
      "h",
      "l"
    ],
    [
      "dis",
      "cus"
    ],
    [
      "ist",
      "ic"
    ],
    [
      "Gover",
      "nment"
    ],
    [
      "o",
      "th"
    ],
    [
      "po",
      "p"
    ],
    [
      ".",
      "="
    ],
    [
      "ed",
      "ge"
    ],
    [
      "ra",
      "il"
    ],
    [
      "qu",
      "ant"
    ],
    [
      "dec",
      "ided"
    ],
    [
      "min",
      "ist"
    ],
    [
      "concer",
      "ning"
    ],
    [
      "act",
      "ive"
    ],
    [
      "z",
      "er"
    ],
    [
      "differ",
      "ence"
    ],
    [
      "ks",
      "en"
    ],
    [
      "D",
      "av"
    ],
    [
      "ast",
      "i"
    ],
    [
      "iz",
      "ation"
    ],
    [
      "laugh",
      "ed"
    ],
    [
      "al",
      "o"
    ],
    [
      "for",
      "ty"
    ],
    [
      "aut",
      "re"
    ],
    [
      "en",
      "core"
    ],
    [
      "F",
      "re"
    ],
    [
      "ä",
      "r"
    ],
    [
      "T",
      "ur"
    ],
    [
      "ch",
      "ant"
    ],
    [
      "W",
      "il"
    ],
    [
      "bro",
      "ke"
    ],
    [
      "fi",
      "xed"
    ],
    [
      "Que",
      "en"
    ],
    [
      "tro",
      "ops"
    ],
    [
      "g",
      "ni"
    ],
    [
      "R",
      "i"
    ],
    [
      "flow",
      "ers"
    ],
    [
      "c",
      "to"
    ],
    [
      "gr",
      "at"
    ],
    [
      "ad",
      "v"
    ],
    [
      "wait",
      "ing"
    ],
    [
      "lik",
      "ely"
    ],
    [
      "u",
      "u"
    ],
    [
      "c",
      "and"
    ],
    [
      "anim",
      "al"
    ],
    [
      "mention",
      "ed"
    ],
    [
      "ist",
      "en"
    ],
    [
      "nat",
      "ive"
    ],
    [
      "ha",
      "th"
    ],
    [
      "n",
      "ational"
    ],
    [
      "d",
      "urch"
    ],
    [
      "so",
      "le"
    ],
    [
      "w",
      "en"
    ],
    [
      "i",
      "res"
    ],
    [
      "hist",
      "or"
    ],
    [
      "soldi",
      "ers"
    ],
    [
      "oll",
      "ut"
    ],
    [
      "S",
      "h"
    ],
    [
      "prep",
      "ared"
    ],
    [
      "li",
      "er"
    ],
    [
      "si",
      "g"
    ],
    [
      "A",
      "le"
    ],
    [
      "at",
      "tra"
    ],
    [
      "Lou",
      "is"
    ],
    [
      "speci",
      "es"
    ],
    [
      "pro",
      "of"
    ],
    [
      "ed",
      "itions"
    ],
    [
      "pe",
      "u"
    ],
    [
      "τ",
      "α"
    ],
    [
      "accept",
      "ed"
    ],
    [
      "Fo",
      "ot"
    ],
    [
      "cap",
      "tain"
    ],
    [
      "phys",
      "ical"
    ],
    [
      "h",
      "id"
    ],
    [
      "after",
      "noon"
    ],
    [
      "co",
      "ast"
    ],
    [
      "ct",
      "ive"
    ],
    [
      "priv",
      "ate"
    ],
    [
      "R",
      "I"
    ],
    [
      "s",
      "ag"
    ],
    [
      "member",
      "s"
    ],
    [
      "interest",
      "ing"
    ],
    [
      "M",
      "ag"
    ],
    [
      "ca",
      "pe"
    ],
    [
      "distribut",
      "ed"
    ],
    [
      "k",
      "ill"
    ],
    [
      "ad",
      "es"
    ],
    [
      "do",
      "ct"
    ],
    [
      "soci",
      "al"
    ],
    [
      "vis",
      "ions"
    ],
    [
      "clo",
      "the"
    ],
    [
      "Com",
      "p"
    ],
    [
      "9",
      "0"
    ],
    [
      "l",
      "um"
    ],
    [
      "grou",
      "p"
    ],
    [
      "my",
      "ster"
    ],
    [
      "M",
      "er"
    ],
    [
      "g",
      "al"
    ],
    [
      "V",
      "ir"
    ],
    [
      "c",
      "up"
    ],
    [
      "nam",
      "es"
    ],
    [
      "polit",
      "ical"
    ],
    [
      "Indi",
      "ans"
    ],
    [
      "nar",
      "row"
    ],
    [
      "sa",
      "il"
    ],
    [
      "be",
      "i"
    ],
    [
      "d",
      "ir"
    ],
    [
      "l",
      "it"
    ],
    [
      "determin",
      "ed"
    ],
    [
      "y",
      "h"
    ],
    [
      "b",
      "is"
    ],
    [
      "S",
      "T"
    ],
    [
      "N",
      "a"
    ],
    [
      "gard",
      "en"
    ],
    [
      "V",
      "al"
    ],
    [
      "Pr",
      "of"
    ],
    [
      "_",
      "A"
    ],
    [
      "ph",
      "y"
    ],
    [
      "pass",
      "ing"
    ],
    [
      "reli",
      "gious"
    ],
    [
      "B",
      "es"
    ],
    [
      "n",
      "ut"
    ],
    [
      "F",
      "ather"
    ],
    [
      "ra",
      "re"
    ],
    [
      "te",
      "ars"
    ],
    [
      "Su",
      "ch"
    ],
    [
      "f",
      "ond"
    ],
    [
      "bre",
      "ath"
    ],
    [
      "t",
      "wel"
    ],
    [
      "author",
      "ity"
    ],
    [
      "is",
      "land"
    ],
    [
      "e",
      "ase"
    ],
    [
      "con",
      "tact"
    ],
    [
      "P",
      "al"
    ],
    [
      "s",
      "ides"
    ],
    [
      "ex",
      "plan"
    ],
    [
      "sh",
      "out"
    ],
    [
      "la",
      "bor"
    ],
    [
      "Ro",
      "yal"
    ],
    [
      "f",
      "are"
    ],
    [
      "print",
      "ed"
    ],
    [
      "decla",
      "red"
    ],
    [
      "lo",
      "in"
    ],
    [
      "F",
      "ig"
    ],
    [
      "order",
      "ed"
    ],
    [
      "l",
      "à"
    ],
    [
      "sk",
      "in"
    ],
    [
      "ü",
      "ck"
    ],
    [
      "c",
      "s"
    ],
    [
      "s",
      "itting"
    ],
    [
      "sh",
      "ore"
    ],
    [
      "arm",
      "ed"
    ],
    [
      "bes",
      "ide"
    ],
    [
      "bit",
      "ter"
    ],
    [
      "ear",
      "s"
    ],
    [
      "li",
      "ef"
    ],
    [
      "commun",
      "ic"
    ],
    [
      "u",
      "k"
    ],
    [
      "tra",
      "in"
    ],
    [
      "as",
      "c"
    ],
    [
      "mo",
      "on"
    ],
    [
      "lo",
      "g"
    ],
    [
      "fif",
      "ty"
    ],
    [
      "sp",
      "ace"
    ],
    [
      "f",
      "ed"
    ],
    [
      "b",
      "read"
    ],
    [
      "f",
      "ran"
    ],
    [
      "conf",
      "ess"
    ],
    [
      "wi",
      "j"
    ],
    [
      "a",
      "_"
    ],
    [
      "particular",
      "ly"
    ],
    [
      "p",
      "au"
    ],
    [
      "inst",
      "ant"
    ],
    [
      "pi",
      "ù"
    ],
    [
      "ex",
      "ecut"
    ],
    [
      "mar",
      "riage"
    ],
    [
      "meet",
      "ing"
    ],
    [
      "ap",
      "pointed"
    ],
    [
      "man",
      "n"
    ],
    [
      "speak",
      "ing"
    ],
    [
      "b",
      "are"
    ],
    [
      "off",
      "ered"
    ],
    [
      "mag",
      "n"
    ],
    [
      "e",
      "ager"
    ],
    [
      "e",
      "qui"
    ],
    [
      "is",
      "se"
    ],
    [
      "con",
      "cept"
    ],
    [
      "terri",
      "ble"
    ],
    [
      "bro",
      "wn"
    ],
    [
      "Fran",
      "k"
    ],
    [
      "ap",
      "t"
    ],
    [
      "st",
      "i"
    ],
    [
      "re",
      "m"
    ],
    [
      "ext",
      "ent"
    ],
    [
      "fall",
      "en"
    ],
    [
      "a",
      "id"
    ],
    [
      "en",
      "em"
    ],
    [
      "condu",
      "ct"
    ],
    [
      "ma",
      "an"
    ],
    [
      "re",
      "cent"
    ],
    [
      "C",
      "ha"
    ],
    [
      "L",
      "E"
    ],
    [
      "be",
      "at"
    ],
    [
      "te",
      "xt"
    ],
    [
      "ol",
      "la"
    ],
    [
      "ell",
      "ed"
    ],
    [
      "Y",
      "our"
    ],
    [
      "p",
      "ing"
    ],
    [
      "3",
      "5"
    ],
    [
      "situ",
      "ation"
    ],
    [
      "cor",
      "re"
    ],
    [
      "ob",
      "serv"
    ],
    [
      "H",
      "ist"
    ],
    [
      "evid",
      "ence"
    ],
    [
      "E",
      "gy"
    ],
    [
      "C",
      "e"
    ],
    [
      "W",
      "al"
    ],
    [
      "sie",
      "ur"
    ],
    [
      "r",
      "ation"
    ],
    [
      "cl",
      "er"
    ],
    [
      "cond",
      "itions"
    ],
    [
      "de",
      "ll"
    ],
    [
      "P",
      "eter"
    ],
    [
      "i",
      "in"
    ],
    [
      "t",
      "il"
    ],
    [
      "for",
      "get"
    ],
    [
      "exam",
      "ple"
    ],
    [
      "z",
      "el"
    ],
    [
      "H",
      "ol"
    ],
    [
      "min",
      "ute"
    ],
    [
      "ou",
      "red"
    ],
    [
      "h",
      "t"
    ],
    [
      "le",
      "urs"
    ],
    [
      "e",
      "ast"
    ],
    [
      "sa",
      "fe"
    ],
    [
      "convers",
      "ation"
    ],
    [
      "\"",
      ","
    ],
    [
      "jour",
      "ney"
    ],
    [
      "fore",
      "ign"
    ],
    [
      ".",
      "»"
    ],
    [
      "p",
      "her"
    ],
    [
      "hol",
      "der"
    ],
    [
      "off",
      "er"
    ],
    [
      "M",
      "al"
    ],
    [
      "M",
      "any"
    ],
    [
      "im",
      "ents"
    ],
    [
      "le",
      "an"
    ],
    [
      "post",
      "ed"
    ],
    [
      "am",
      "ount"
    ],
    [
      "tä",
      "ä"
    ],
    [
      "hi",
      "b"
    ],
    [
      "t",
      "ic"
    ],
    [
      "S",
      "al"
    ],
    [
      "k",
      "iss"
    ],
    [
      "ih",
      "r"
    ],
    [
      "pop",
      "ular"
    ],
    [
      "mater",
      "ial"
    ],
    [
      "provid",
      "ing"
    ],
    [
      "f",
      "ill"
    ],
    [
      "ad",
      "op"
    ],
    [
      "g",
      "as"
    ],
    [
      "es",
      "sa"
    ],
    [
      "ch",
      "os"
    ],
    [
      "hom",
      "me"
    ],
    [
      "advan",
      "tage"
    ],
    [
      "es",
      "cape"
    ],
    [
      "whis",
      "per"
    ],
    [
      "sim",
      "ply"
    ],
    [
      "com",
      "mer"
    ],
    [
      "k",
      "t"
    ],
    [
      "fa",
      "vour"
    ],
    [
      "inclu",
      "ded"
    ],
    [
      "hi",
      "er"
    ],
    [
      "M",
      "il"
    ],
    [
      "6",
      "0"
    ],
    [
      "J",
      "ew"
    ],
    [
      "a",
      "ient"
    ],
    [
      "O",
      "ld"
    ],
    [
      "ru",
      "le"
    ],
    [
      "ul",
      "la"
    ],
    [
      "18",
      "7"
    ],
    [
      "d",
      "read"
    ],
    [
      "r",
      "ès"
    ],
    [
      "κ",
      "αι"
    ],
    [
      "s",
      "our"
    ],
    [
      "fa",
      "il"
    ],
    [
      "ap",
      "art"
    ],
    [
      "run",
      "ning"
    ],
    [
      "dist",
      "inct"
    ],
    [
      "mi",
      "j"
    ],
    [
      "offic",
      "er"
    ],
    [
      "high",
      "er"
    ],
    [
      "av",
      "es"
    ],
    [
      "st",
      "ro"
    ],
    [
      "anx",
      "ious"
    ],
    [
      "for",
      "ced"
    ],
    [
      "require",
      "ments"
    ],
    [
      "belie",
      "ved"
    ],
    [
      "ma",
      "il"
    ],
    [
      "n",
      "ou"
    ],
    [
      "st",
      "ret"
    ],
    [
      "c",
      "ow"
    ],
    [
      "mor",
      "row"
    ],
    [
      "p",
      "il"
    ],
    [
      "p",
      "ale"
    ],
    [
      "W",
      "or"
    ],
    [
      "y",
      "ellow"
    ],
    [
      "mon",
      "th"
    ],
    [
      "do",
      "ctor"
    ],
    [
      "n",
      "ak"
    ],
    [
      "de",
      "ed"
    ],
    [
      "ist",
      "ä"
    ],
    [
      "a",
      "x"
    ],
    [
      "ment",
      "e"
    ],
    [
      "fe",
      "at"
    ],
    [
      "perfect",
      "ly"
    ],
    [
      "produ",
      "ce"
    ],
    [
      "A",
      "pr"
    ],
    [
      "im",
      "per"
    ],
    [
      "á",
      "l"
    ],
    [
      "cal",
      "cul"
    ],
    [
      "ik",
      "ä"
    ],
    [
      "con",
      "ven"
    ],
    [
      "immedi",
      "ate"
    ],
    [
      "tri",
      "es"
    ],
    [
      "gr",
      "y"
    ],
    [
      "en",
      "ne"
    ],
    [
      "import",
      "ance"
    ],
    [
      "mur",
      "der"
    ],
    [
      "comp",
      "ut"
    ],
    [
      "deg",
      "ree"
    ],
    [
      "in",
      "j"
    ],
    [
      "sil",
      "ver"
    ],
    [
      "Foot",
      "note"
    ],
    [
      "pro",
      "vin"
    ],
    [
      "Con",
      "st"
    ],
    [
      "B",
      "en"
    ],
    [
      ":",
      "--"
    ],
    [
      "an",
      "ge"
    ],
    [
      "re",
      "place"
    ],
    [
      "tou",
      "ch"
    ],
    [
      "st",
      "ation"
    ],
    [
      "um",
      "ph"
    ],
    [
      "spe",
      "ech"
    ],
    [
      "he",
      "ight"
    ],
    [
      "ne",
      "ck"
    ],
    [
      "l",
      "iter"
    ],
    [
      "w",
      "es"
    ],
    [
      "cle",
      "an"
    ],
    [
      "corn",
      "er"
    ],
    [
      "F",
      "ir"
    ],
    [
      "point",
      "s"
    ],
    [
      "in",
      "no"
    ],
    [
      "t",
      "ant"
    ],
    [
      "repe",
      "ated"
    ],
    [
      "diffic",
      "ulty"
    ],
    [
      "fam",
      "ili"
    ],
    [
      "B",
      "el"
    ],
    [
      "P",
      "ort"
    ],
    [
      "we",
      "ight"
    ],
    [
      "ne",
      "g"
    ],
    [
      "I",
      "r"
    ],
    [
      "pre",
      "par"
    ],
    [
      "--",
      "--"
    ],
    [
      "row",
      "s"
    ],
    [
      "bir",
      "ds"
    ],
    [
      "fo",
      "is"
    ],
    [
      "de",
      "fin"
    ],
    [
      "or",
      "ies"
    ],
    [
      "stat",
      "us"
    ],
    [
      "obtain",
      "ed"
    ],
    [
      "f",
      "en"
    ],
    [
      "frequ",
      "ently"
    ],
    [
      "work",
      "ing"
    ],
    [
      "i",
      "ze"
    ],
    [
      "18",
      "8"
    ],
    [
      "ra",
      "it"
    ],
    [
      "try",
      "ing"
    ],
    [
      ".",
      "—"
    ],
    [
      "sil",
      "ent"
    ],
    [
      "c",
      "rown"
    ],
    [
      "ar",
      "gu"
    ],
    [
      "vol",
      "unteers"
    ],
    [
      "ο",
      "ν"
    ],
    [
      "under",
      "stood"
    ],
    [
      "vi",
      "er"
    ],
    [
      "b",
      "ol"
    ],
    [
      "sto",
      "p"
    ],
    [
      "sha",
      "re"
    ],
    [
      "W",
      "as"
    ],
    [
      "wit",
      "ness"
    ],
    [
      "un",
      "ter"
    ],
    [
      "possess",
      "ed"
    ],
    [
      "cap",
      "ital"
    ],
    [
      "si",
      "a"
    ],
    [
      "mon",
      "d"
    ],
    [
      "mil",
      "itary"
    ],
    [
      "D",
      "id"
    ],
    [
      "en",
      "cy"
    ],
    [
      "dis",
      "cover"
    ],
    [
      "s",
      "itä"
    ],
    [
      "e",
      "z"
    ],
    [
      "res",
      "ist"
    ],
    [
      "g",
      "all"
    ],
    [
      "D",
      "a"
    ],
    [
      "col",
      "or"
    ],
    [
      "dol",
      "lar"
    ],
    [
      "Gree",
      "k"
    ],
    [
      "4",
      "1"
    ],
    [
      "t",
      "am"
    ],
    [
      "ri",
      "en"
    ],
    [
      "w",
      "ished"
    ],
    [
      "A",
      "M"
    ],
    [
      "bene",
      "ath"
    ],
    [
      "f",
      "les"
    ],
    [
      "head",
      "s"
    ],
    [
      "us",
      "er"
    ],
    [
      "anim",
      "als"
    ],
    [
      "R",
      "O"
    ],
    [
      "re",
      "quest"
    ],
    [
      "g",
      "ame"
    ],
    [
      "C",
      "a"
    ],
    [
      "pat",
      "ient"
    ],
    [
      "û",
      "t"
    ],
    [
      "ast",
      "on"
    ],
    [
      "jo",
      "ined"
    ],
    [
      "cons",
      "ci"
    ],
    [
      "hon",
      "or"
    ],
    [
      "v",
      "as"
    ],
    [
      "ent",
      "i"
    ],
    [
      "J",
      "er"
    ],
    [
      "ab",
      "les"
    ],
    [
      "si",
      "ze"
    ],
    [
      "Mad",
      "ame"
    ],
    [
      "pie",
      "ces"
    ],
    [
      "fin",
      "ally"
    ],
    [
      "cou",
      "p"
    ],
    [
      "ach",
      "t"
    ],
    [
      "ν",
      "α"
    ],
    [
      "fe",
      "es"
    ],
    [
      "c",
      "ard"
    ],
    [
      "sto",
      "ck"
    ],
    [
      "per",
      "or"
    ],
    [
      "ava",
      "il"
    ],
    [
      "ag",
      "reed"
    ],
    [
      "o",
      "st"
    ],
    [
      "S",
      "en"
    ],
    [
      "S",
      "E"
    ],
    [
      "vent",
      "ion"
    ],
    [
      "Thom",
      "as"
    ],
    [
      "s",
      "é"
    ],
    [
      "de",
      "p"
    ],
    [
      "ste",
      "am"
    ],
    [
      "turn",
      "ing"
    ],
    [
      "H",
      "im"
    ],
    [
      "ca",
      "used"
    ],
    [
      "mean",
      "ing"
    ],
    [
      "Col",
      "onel"
    ],
    [
      "ot",
      "ing"
    ],
    [
      "twel",
      "ve"
    ],
    [
      "display",
      "ing"
    ],
    [
      "G",
      "es"
    ],
    [
      "pro",
      "gress"
    ],
    [
      "ke",
      "e"
    ],
    [
      "w",
      "ine"
    ],
    [
      "P",
      "u"
    ],
    [
      "nam",
      "ed"
    ],
    [
      "s",
      "ang"
    ],
    [
      "2",
      "00"
    ],
    [
      "comp",
      "liance"
    ],
    [
      "k",
      "or"
    ],
    [
      "sec",
      "ure"
    ],
    [
      "g",
      "if"
    ],
    [
      "ein",
      "en"
    ],
    [
      "sa",
      "f"
    ],
    [
      "p",
      "ap"
    ],
    [
      "wa",
      "ar"
    ],
    [
      "m",
      "and"
    ],
    [
      "and",
      "on"
    ],
    [
      "pra",
      "y"
    ],
    [
      "v",
      "est"
    ],
    [
      "p",
      "are"
    ],
    [
      "pay",
      "ing"
    ],
    [
      "inst",
      "ance"
    ],
    [
      "b",
      "ird"
    ],
    [
      "matter",
      "s"
    ],
    [
      "ser",
      "ve"
    ],
    [
      "pleas",
      "ed"
    ],
    [
      "k",
      "et"
    ],
    [
      "surpr",
      "ise"
    ],
    [
      "gr",
      "ass"
    ],
    [
      "de",
      "cl"
    ],
    [
      "explan",
      "ation"
    ],
    [
      "prote",
      "ct"
    ],
    [
      "we",
      "bs"
    ],
    [
      "Per",
      "haps"
    ],
    [
      "mo",
      "di"
    ],
    [
      "up",
      "per"
    ],
    [
      "T",
      "wo"
    ],
    [
      "ch",
      "arm"
    ],
    [
      "r",
      "ant"
    ],
    [
      "am",
      "i"
    ],
    [
      "Pres",
      "ident"
    ],
    [
      "p",
      "in"
    ],
    [
      "c",
      "li"
    ],
    [
      "ke",
      "en"
    ],
    [
      "s",
      "old"
    ],
    [
      "ing",
      "en"
    ],
    [
      "per",
      "mitted"
    ],
    [
      "hon",
      "our"
    ],
    [
      "copy",
      "ing"
    ],
    [
      "M",
      "ac"
    ],
    [
      "St",
      "re"
    ],
    [
      "F",
      "ort"
    ],
    [
      "uni",
      "vers"
    ],
    [
      "creat",
      "ed"
    ],
    [
      "ific",
      "ation"
    ],
    [
      "ss",
      "ä"
    ],
    [
      "Ro",
      "bert"
    ],
    [
      "ê",
      "te"
    ],
    [
      "form",
      "at"
    ],
    [
      "olo",
      "gy"
    ],
    [
      "sp",
      "ent"
    ],
    [
      "move",
      "ment"
    ],
    [
      "leg",
      "al"
    ],
    [
      "e",
      "g"
    ],
    [
      "C",
      "al"
    ],
    [
      "bur",
      "g"
    ],
    [
      "hold",
      "ing"
    ],
    [
      "av",
      "ing"
    ],
    [
      "ed",
      "ition"
    ],
    [
      "Jes",
      "us"
    ],
    [
      "pro",
      "ble"
    ],
    [
      "as",
      "sem"
    ],
    [
      "T",
      "u"
    ],
    [
      "ho",
      "sp"
    ],
    [
      "el",
      "ds"
    ],
    [
      "dra",
      "wing"
    ],
    [
      "sent",
      "ence"
    ],
    [
      "pla",
      "ined"
    ],
    [
      "j",
      "ou"
    ],
    [
      "eng",
      "aged"
    ],
    [
      "x",
      "im"
    ],
    [
      "pur",
      "su"
    ],
    [
      "ant",
      "ic"
    ],
    [
      "oun",
      "ced"
    ],
    [
      "fru",
      "it"
    ],
    [
      "cal",
      "m"
    ],
    [
      "cl",
      "usion"
    ],
    [
      "our",
      "selves"
    ],
    [
      "hon",
      "est"
    ],
    [
      "b",
      "ag"
    ],
    [
      "b",
      "ij"
    ],
    [
      "oppos",
      "ite"
    ],
    [
      "fi",
      "x"
    ],
    [
      "ul",
      "le"
    ],
    [
      "princi",
      "pal"
    ],
    [
      "g",
      "az"
    ],
    [
      "h",
      "n"
    ],
    [
      "spe",
      "ed"
    ],
    [
      "lo",
      "se"
    ],
    [
      "dis",
      "claim"
    ],
    [
      "lim",
      "ited"
    ],
    [
      "famili",
      "ar"
    ],
    [
      "spl",
      "end"
    ],
    [
      "B",
      "et"
    ],
    [
      "T",
      "ra"
    ],
    [
      "pre",
      "mi"
    ],
    [
      "gu",
      "ess"
    ],
    [
      "rep",
      "ly"
    ],
    [
      "per",
      "ce"
    ],
    [
      "H",
      "a"
    ],
    [
      "he",
      "alth"
    ],
    [
      "col",
      "our"
    ],
    [
      "ar",
      "range"
    ],
    [
      "hat",
      "te"
    ],
    [
      "fin",
      "ished"
    ],
    [
      "quar",
      "ter"
    ],
    [
      "tra",
      "vell"
    ],
    [
      "se",
      "at"
    ],
    [
      "lie",
      "u"
    ],
    [
      "son",
      "s"
    ],
    [
      "sa",
      "v"
    ],
    [
      "ε",
      "ν"
    ],
    [
      "j",
      "en"
    ],
    [
      "3",
      "6"
    ],
    [
      "ab",
      "a"
    ],
    [
      "h",
      "arm"
    ],
    [
      "cred",
      "it"
    ],
    [
      "R",
      "ep"
    ],
    [
      "ill",
      "ustr"
    ],
    [
      "=",
      ","
    ],
    [
      "po",
      "pul"
    ],
    [
      "Mo",
      "st"
    ],
    [
      "z",
      "ich"
    ],
    [
      "3",
      "7"
    ],
    [
      "pu",
      "blished"
    ],
    [
      "squ",
      "are"
    ],
    [
      "u",
      "ous"
    ],
    [
      "I",
      "V"
    ],
    [
      "aus",
      "si"
    ],
    [
      "d",
      "ä"
    ],
    [
      "deli",
      "ver"
    ],
    [
      "mem",
      "ory"
    ],
    [
      "on",
      "line"
    ],
    [
      "tem",
      "por"
    ],
    [
      "lad",
      "ies"
    ],
    [
      "int",
      "ended"
    ],
    [
      "pre",
      "fer"
    ],
    [
      "ct",
      "ure"
    ],
    [
      "avo",
      "ir"
    ],
    [
      "to",
      "i"
    ],
    [
      "emplo",
      "yed"
    ],
    [
      "ac",
      "compl"
    ],
    [
      "min",
      "ister"
    ],
    [
      "di",
      "vid"
    ],
    [
      "un",
      "gen"
    ],
    [
      "suff",
      "er"
    ],
    [
      "ih",
      "m"
    ],
    [
      "b",
      "in"
    ],
    [
      "quest",
      "ions"
    ],
    [
      "L",
      "ie"
    ],
    [
      "U",
      "S"
    ],
    [
      "Du",
      "ke"
    ],
    [
      "th",
      "rown"
    ],
    [
      "clear",
      "ly"
    ],
    [
      "f",
      "right"
    ],
    [
      "t",
      "ong"
    ],
    [
      "th",
      "reat"
    ],
    [
      "es",
      "se"
    ],
    [
      "D",
      "ick"
    ],
    [
      "g",
      "ged"
    ],
    [
      "in",
      "ä"
    ],
    [
      "webs",
      "ite"
    ],
    [
      "sa",
      "ke"
    ],
    [
      "inv",
      "est"
    ],
    [
      "mountain",
      "s"
    ],
    [
      "un",
      "k"
    ],
    [
      "wonder",
      "ful"
    ],
    [
      "val",
      "u"
    ],
    [
      "Egy",
      "pt"
    ],
    [
      "st",
      "age"
    ],
    [
      "am",
      "ed"
    ],
    [
      "li",
      "d"
    ],
    [
      "po",
      "le"
    ],
    [
      "happ",
      "iness"
    ],
    [
      "S",
      "y"
    ],
    [
      "Ho",
      "wever"
    ],
    [
      "j",
      "ot"
    ],
    [
      "sp",
      "ite"
    ],
    [
      "coun",
      "ter"
    ],
    [
      "esta",
      "blished"
    ],
    [
      "S",
      "ha"
    ],
    [
      "pr",
      "on"
    ],
    [
      "t",
      "res"
    ],
    [
      "j",
      "us"
    ],
    [
      "meas",
      "ure"
    ],
    [
      "cr",
      "im"
    ],
    [
      "r",
      "ust"
    ],
    [
      "C",
      "E"
    ],
    [
      "shar",
      "p"
    ],
    [
      "curi",
      "ous"
    ],
    [
      "thor",
      "ough"
    ],
    [
      "great",
      "ly"
    ],
    [
      "se",
      "ason"
    ],
    [
      "b",
      "ou"
    ],
    [
      "it",
      "ut"
    ],
    [
      "M",
      "art"
    ],
    [
      "occup",
      "ied"
    ],
    [
      "ε",
      "ί"
    ],
    [
      "might",
      "y"
    ],
    [
      "v",
      "ation"
    ],
    [
      "will",
      "ing"
    ],
    [
      "reco",
      "gni"
    ],
    [
      "E",
      "li"
    ],
    [
      "pe",
      "ut"
    ],
    [
      "C",
      "ong"
    ],
    [
      "s",
      "ous"
    ],
    [
      "το",
      "υ"
    ],
    [
      "look",
      "s"
    ],
    [
      "a",
      "ur"
    ],
    [
      "st",
      "ir"
    ],
    [
      "inc",
      "ess"
    ],
    [
      "H",
      "am"
    ],
    [
      "in",
      "te"
    ],
    [
      "ar",
      "a"
    ],
    [
      "di",
      "gn"
    ],
    [
      "prin",
      "ce"
    ],
    [
      "N",
      "ever"
    ],
    [
      "on",
      "o"
    ],
    [
      "se",
      "x"
    ],
    [
      "spo",
      "ken"
    ],
    [
      "sh",
      "ut"
    ],
    [
      "om",
      "en"
    ],
    [
      "b",
      "ill"
    ],
    [
      "affe",
      "ction"
    ],
    [
      "IN",
      "G"
    ],
    [
      "su",
      "peri"
    ],
    [
      "3",
      "8"
    ],
    [
      "intellect",
      "ual"
    ],
    [
      "would",
      "n"
    ],
    [
      "fam",
      "ous"
    ],
    [
      "he",
      "at"
    ],
    [
      "jest",
      "y"
    ],
    [
      "P",
      "at"
    ],
    [
      "t",
      "our"
    ],
    [
      "M",
      "c"
    ],
    [
      "su",
      "a"
    ],
    [
      "nat",
      "ur"
    ],
    [
      "id",
      "a"
    ],
    [
      "lo",
      "cal"
    ],
    [
      "care",
      "fully"
    ],
    [
      "bl",
      "ind"
    ],
    [
      "M",
      "ed"
    ],
    [
      "B",
      "ra"
    ],
    [
      "fa",
      "int"
    ],
    [
      "A",
      "ra"
    ],
    [
      "le",
      "ment"
    ],
    [
      "P",
      "l"
    ],
    [
      "Ale",
      "x"
    ],
    [
      "equi",
      "p"
    ],
    [
      "n",
      "ine"
    ],
    [
      "excell",
      "ent"
    ],
    [
      "esta",
      "bl"
    ],
    [
      "bur",
      "st"
    ],
    [
      "m",
      "ás"
    ],
    [
      "mar",
      "ks"
    ],
    [
      "we",
      "eks"
    ],
    [
      "f",
      "arm"
    ],
    [
      "D",
      "E"
    ],
    [
      "we",
      "ather"
    ],
    [
      "t",
      "all"
    ],
    [
      "on",
      "a"
    ],
    [
      "er",
      "n"
    ],
    [
      "W",
      "o"
    ],
    [
      "J",
      "ud"
    ],
    [
      "th",
      "rew"
    ],
    [
      "ess",
      "or"
    ],
    [
      "c",
      "ere"
    ],
    [
      "mar",
      "ch"
    ],
    [
      "tra",
      "vel"
    ],
    [
      "fact",
      "s"
    ],
    [
      "Mar",
      "ch"
    ],
    [
      "k",
      "ok"
    ],
    [
      "regard",
      "ed"
    ],
    [
      "3",
      "4"
    ],
    [
      "ab",
      "andon"
    ],
    [
      "man",
      "if"
    ],
    [
      "tal",
      "king"
    ],
    [
      "t",
      "wi"
    ],
    [
      "i",
      "ge"
    ],
    [
      "k",
      "oh"
    ],
    [
      "sty",
      "le"
    ],
    [
      "red",
      "u"
    ],
    [
      "im",
      "mer"
    ],
    [
      "sym",
      "pa"
    ],
    [
      "prom",
      "ise"
    ],
    [
      "co",
      "at"
    ],
    [
      "br",
      "ary"
    ],
    [
      "ol",
      "isi"
    ],
    [
      "ap",
      "rès"
    ],
    [
      "t",
      "w"
    ],
    [
      "com",
      "for"
    ],
    [
      "o",
      "do"
    ],
    [
      "re",
      "mains"
    ],
    [
      "sett",
      "led"
    ],
    [
      "an",
      "ut"
    ],
    [
      "pict",
      "ures"
    ],
    [
      "cit",
      "iz"
    ],
    [
      "is",
      "in"
    ],
    [
      "è",
      "rent"
    ],
    [
      "gr",
      "am"
    ],
    [
      "tro",
      "p"
    ],
    [
      "G",
      "ra"
    ],
    [
      "mo",
      "s"
    ],
    [
      "z",
      "ur"
    ],
    [
      "contin",
      "ue"
    ],
    [
      "int",
      "s"
    ],
    [
      "bot",
      "tom"
    ],
    [
      "co",
      "ok"
    ],
    [
      "in",
      "habit"
    ],
    [
      "ma",
      "jor"
    ],
    [
      "fi",
      "er"
    ],
    [
      "let",
      "s"
    ],
    [
      "t",
      "el"
    ],
    [
      "fre",
      "ed"
    ],
    [
      "18",
      "5"
    ],
    [
      "clothe",
      "s"
    ],
    [
      "was",
      "h"
    ],
    [
      "fal",
      "se"
    ],
    [
      "l",
      "la"
    ],
    [
      "ide",
      "as"
    ],
    [
      "che",
      "er"
    ],
    [
      "ben",
      "ef"
    ],
    [
      "gr",
      "im"
    ],
    [
      "crow",
      "d"
    ],
    [
      "cur",
      "rent"
    ],
    [
      "18",
      "9"
    ],
    [
      "exact",
      "ly"
    ],
    [
      "affair",
      "s"
    ],
    [
      "inc",
      "re"
    ],
    [
      "k",
      "le"
    ],
    [
      "v",
      "ic"
    ],
    [
      "cru",
      "el"
    ],
    [
      "it",
      "able"
    ],
    [
      "ill",
      "es"
    ],
    [
      "stair",
      "s"
    ],
    [
      "d",
      "ust"
    ],
    [
      "we",
      "alth"
    ],
    [
      "su",
      "o"
    ],
    [
      "ma",
      "id"
    ],
    [
      "cus",
      "tom"
    ],
    [
      "i",
      "que"
    ],
    [
      "ash",
      "ed"
    ],
    [
      "lead",
      "ing"
    ],
    [
      "de",
      "lic"
    ],
    [
      "i",
      "b"
    ],
    [
      "dark",
      "ness"
    ],
    [
      "k",
      "as"
    ],
    [
      "L",
      "and"
    ],
    [
      "d",
      "ated"
    ],
    [
      "coun",
      "tries"
    ],
    [
      "sel",
      "l"
    ],
    [
      "S",
      "cot"
    ],
    [
      "f",
      "old"
    ],
    [
      "è",
      "res"
    ],
    [
      "ad",
      "vent"
    ],
    [
      "J",
      "une"
    ],
    [
      "m",
      "ul"
    ],
    [
      "W",
      "ash"
    ],
    [
      "al",
      "d"
    ],
    [
      "en",
      "joy"
    ],
    [
      "is",
      "ion"
    ],
    [
      "present",
      "ed"
    ],
    [
      "sano",
      "i"
    ],
    [
      "inde",
      "pend"
    ],
    [
      "A",
      "fri"
    ],
    [
      "d",
      "are"
    ],
    [
      "com",
      "men"
    ],
    [
      "dist",
      "ri"
    ],
    [
      "mach",
      "ine"
    ],
    [
      "i",
      "as"
    ],
    [
      "pre",
      "vious"
    ],
    [
      "ant",
      "es"
    ],
    [
      "ve",
      "t"
    ],
    [
      "ta",
      "il"
    ],
    [
      "could",
      "n"
    ],
    [
      "it",
      "se"
    ],
    [
      "um",
      "b"
    ],
    [
      "l",
      "oud"
    ],
    [
      "!",
      "--"
    ],
    [
      "Cour",
      "t"
    ],
    [
      "gi",
      "o"
    ],
    [
      "lu",
      "ck"
    ],
    [
      "prom",
      "in"
    ],
    [
      "in",
      "ches"
    ],
    [
      "co",
      "s"
    ],
    [
      "k",
      "ann"
    ],
    [
      "S",
      "on"
    ],
    [
      "numer",
      "ous"
    ],
    [
      "ver",
      "e"
    ],
    [
      "t",
      "aste"
    ],
    [
      "s",
      "n"
    ],
    [
      "atter",
      "ed"
    ],
    [
      "C",
      "ast"
    ],
    [
      "k",
      "no"
    ],
    [
      "m",
      "ol"
    ],
    [
      "19",
      "0"
    ],
    [
      "acc",
      "us"
    ],
    [
      "wor",
      "se"
    ],
    [
      "g",
      "rown"
    ],
    [
      "she",
      "ll"
    ],
    [
      "equip",
      "ment"
    ],
    [
      "El",
      "le"
    ],
    [
      "le",
      "ase"
    ],
    [
      "an",
      "c"
    ],
    [
      "re",
      "ven"
    ],
    [
      "in",
      "fer"
    ],
    [
      "?",
      "'"
    ],
    [
      "k",
      "ans"
    ],
    [
      "p",
      "ag"
    ],
    [
      "pr",
      "oud"
    ],
    [
      "r",
      "ine"
    ],
    [
      "const",
      "ant"
    ],
    [
      "el",
      "ess"
    ],
    [
      "bre",
      "ast"
    ],
    [
      "is",
      "te"
    ],
    [
      "sci",
      "ence"
    ],
    [
      "compan",
      "ion"
    ],
    [
      "t",
      "ö"
    ],
    [
      "cor",
      "respond"
    ],
    [
      "b",
      "ase"
    ],
    [
      "ind",
      "u"
    ],
    [
      "M",
      "ont"
    ],
    [
      "pow",
      "ers"
    ],
    [
      "fa",
      "ction"
    ],
    [
      "Fir",
      "st"
    ],
    [
      "hill",
      "s"
    ],
    [
      "I",
      "ch"
    ],
    [
      "con",
      "om"
    ],
    [
      "oli",
      "vat"
    ],
    [
      "ear",
      "nest"
    ],
    [
      "ty",
      "pe"
    ],
    [
      "fac",
      "es"
    ],
    [
      "ph",
      "en"
    ],
    [
      "exer",
      "c"
    ],
    [
      "adv",
      "ance"
    ],
    [
      "bir",
      "th"
    ],
    [
      "Prof",
      "essor"
    ],
    [
      "f",
      "ör"
    ],
    [
      "d",
      "al"
    ],
    [
      "V",
      "o"
    ],
    [
      "Rich",
      "ard"
    ],
    [
      "utter",
      "ed"
    ],
    [
      "ha",
      "ar"
    ],
    [
      "ou",
      "l"
    ],
    [
      "li",
      "j"
    ],
    [
      "is",
      "n"
    ],
    [
      "cont",
      "ribut"
    ],
    [
      "pract",
      "ice"
    ],
    [
      "vi",
      "elä"
    ],
    [
      "V",
      "en"
    ],
    [
      "le",
      "vel"
    ],
    [
      "lo",
      "ose"
    ],
    [
      "M",
      "ore"
    ],
    [
      "tri",
      "umph"
    ],
    [
      "bri",
      "ef"
    ],
    [
      "bes",
      "ides"
    ],
    [
      "st",
      "ain"
    ],
    [
      "mar",
      "ry"
    ],
    [
      "p",
      "ack"
    ],
    [
      "dou",
      "ble"
    ],
    [
      "y",
      "a"
    ],
    [
      "at",
      "re"
    ],
    [
      "ad",
      "or"
    ],
    [
      "open",
      "ing"
    ],
    [
      "jud",
      "ge"
    ],
    [
      "k",
      "al"
    ],
    [
      "serv",
      "ant"
    ],
    [
      "remark",
      "able"
    ],
    [
      "rel",
      "ation"
    ],
    [
      "a",
      "il"
    ],
    [
      "S",
      "om"
    ],
    [
      "s",
      "per"
    ],
    [
      "mo",
      "ving"
    ],
    [
      "am",
      "en"
    ],
    [
      "k",
      "os"
    ],
    [
      "wood",
      "s"
    ],
    [
      "d",
      "well"
    ],
    [
      "succeed",
      "ed"
    ],
    [
      "P",
      "i"
    ],
    [
      "t",
      "um"
    ],
    [
      "superi",
      "or"
    ],
    [
      "t",
      "ent"
    ],
    [
      "sacri",
      "f"
    ],
    [
      "vis",
      "ible"
    ],
    [
      "ce",
      "le"
    ],
    [
      "te",
      "a"
    ],
    [
      "R",
      "os"
    ],
    [
      "f",
      "ü"
    ],
    [
      "A",
      "re"
    ],
    [
      "F",
      "lor"
    ],
    [
      "ris",
      "ing"
    ],
    [
      "en",
      "do"
    ],
    [
      "com",
      "fort"
    ],
    [
      "ser",
      "ved"
    ],
    [
      "grand",
      "e"
    ],
    [
      "at",
      "ur"
    ],
    [
      "pr",
      "it"
    ],
    [
      "ac",
      "le"
    ],
    [
      "ens",
      "es"
    ],
    [
      "Dav",
      "id"
    ],
    [
      "ad",
      "ing"
    ],
    [
      "u",
      "ch"
    ],
    [
      "wat",
      "ched"
    ],
    [
      "k",
      "ul"
    ],
    [
      ".",
      ";"
    ],
    [
      "la",
      "ke"
    ],
    [
      "S",
      "ep"
    ],
    [
      "4",
      "5"
    ],
    [
      "im",
      "men"
    ],
    [
      "E",
      "L"
    ],
    [
      "s",
      "lo"
    ],
    [
      "e",
      "gg"
    ],
    [
      "pre",
      "h"
    ],
    [
      "she",
      "l"
    ],
    [
      "re",
      "sem"
    ],
    [
      "aw",
      "are"
    ],
    [
      "event",
      "s"
    ],
    [
      "c",
      "in"
    ],
    [
      "b",
      "ab"
    ],
    [
      "co",
      "ol"
    ],
    [
      "he",
      "ure"
    ],
    [
      "S",
      "aint"
    ],
    [
      "ro",
      "t"
    ],
    [
      "lo",
      "d"
    ],
    [
      "high",
      "est"
    ],
    [
      "bas",
      "ed"
    ],
    [
      "ke",
      "it"
    ],
    [
      "J",
      "ose"
    ],
    [
      "atta",
      "ched"
    ],
    [
      "con",
      "sul"
    ],
    [
      "dist",
      "ant"
    ],
    [
      "o",
      "der"
    ],
    [
      "y",
      "r"
    ],
    [
      "im",
      "o"
    ],
    [
      "v",
      "ait"
    ],
    [
      "ri",
      "de"
    ],
    [
      "g",
      "la"
    ],
    [
      "for",
      "ces"
    ],
    [
      "3",
      "9"
    ],
    [
      "an",
      "ne"
    ],
    [
      "Ju",
      "ly"
    ],
    [
      "s",
      "word"
    ],
    [
      "ck",
      "ing"
    ],
    [
      "ro",
      "of"
    ],
    [
      "work",
      "ed"
    ],
    [
      "ex",
      "em"
    ],
    [
      "c",
      "ret"
    ],
    [
      "om",
      "in"
    ],
    [
      "C",
      "ath"
    ],
    [
      "f",
      "ant"
    ],
    [
      "ein",
      "er"
    ],
    [
      "c",
      "aut"
    ],
    [
      "H",
      "igh"
    ],
    [
      "ens",
      "ä"
    ],
    [
      "g",
      "t"
    ],
    [
      "wound",
      "ed"
    ],
    [
      "ta",
      "h"
    ],
    [
      "b",
      "old"
    ],
    [
      "other",
      "wise"
    ],
    [
      "avail",
      "able"
    ],
    [
      "d",
      "ish"
    ],
    [
      "s",
      "ought"
    ],
    [
      "con",
      "v"
    ],
    [
      "ap",
      "point"
    ],
    [
      "s",
      "par"
    ],
    [
      "ra",
      "u"
    ],
    [
      "cent",
      "re"
    ],
    [
      "in",
      "er"
    ],
    [
      "link",
      "s"
    ],
    [
      "treat",
      "ment"
    ],
    [
      "sm",
      "iled"
    ],
    [
      "pre",
      "ced"
    ],
    [
      "y",
      "o"
    ],
    [
      "wer",
      "den"
    ],
    [
      "Span",
      "ish"
    ],
    [
      "L",
      "at"
    ],
    [
      "ut",
      "ely"
    ],
    [
      "it",
      "or"
    ],
    [
      "o",
      "lic"
    ],
    [
      "ç",
      "a"
    ],
    [
      "D",
      "ar"
    ],
    [
      "art",
      "s"
    ],
    [
      "exc",
      "ite"
    ],
    [
      "al",
      "together"
    ],
    [
      "ac",
      "he"
    ],
    [
      "an",
      "no"
    ],
    [
      "dist",
      "ur"
    ],
    [
      "k",
      "el"
    ],
    [
      "pre",
      "ach"
    ],
    [
      "S",
      "il"
    ],
    [
      "em",
      "bar"
    ],
    [
      "7",
      "0"
    ],
    [
      "sign",
      "ed"
    ],
    [
      "obli",
      "ged"
    ],
    [
      "ti",
      "ed"
    ],
    [
      "than",
      "k"
    ],
    [
      "r",
      "um"
    ],
    [
      "rest",
      "ri"
    ],
    [
      "k",
      "ään"
    ],
    [
      "a",
      "per"
    ],
    [
      "grow",
      "ing"
    ],
    [
      "cham",
      "ber"
    ],
    [
      "J",
      "im"
    ],
    [
      "ü",
      "l"
    ],
    [
      "c",
      "im"
    ],
    [
      "g",
      "are"
    ],
    [
      "be",
      "au"
    ],
    [
      "prep",
      "are"
    ],
    [
      "con",
      "clu"
    ],
    [
      "fl",
      "at"
    ],
    [
      "li",
      "ament"
    ],
    [
      "lar",
      "ger"
    ],
    [
      "be",
      "comes"
    ],
    [
      "or",
      "o"
    ],
    [
      "sor",
      "ry"
    ],
    [
      "gun",
      "s"
    ],
    [
      "k",
      "it"
    ],
    [
      "vari",
      "ety"
    ],
    [
      "gl",
      "ance"
    ],
    [
      "wor",
      "n"
    ],
    [
      "si",
      "gh"
    ],
    [
      "be",
      "lief"
    ],
    [
      "w",
      "s"
    ],
    [
      "gl",
      "or"
    ],
    [
      "perform",
      "ing"
    ],
    [
      "int",
      "im"
    ],
    [
      "conf",
      "idence"
    ],
    [
      "re",
      "con"
    ],
    [
      "not",
      "iced"
    ],
    [
      "ein",
      "em"
    ],
    [
      "feel",
      "ings"
    ],
    [
      "educ",
      "ation"
    ],
    [
      "power",
      "ful"
    ],
    [
      "k",
      "au"
    ],
    [
      "stor",
      "m"
    ],
    [
      "sho",
      "ok"
    ],
    [
      "f",
      "ly"
    ],
    [
      "ro",
      "b"
    ],
    [
      "gl",
      "ory"
    ],
    [
      "per",
      "man"
    ],
    [
      "king",
      "dom"
    ],
    [
      "D",
      "en"
    ],
    [
      "princi",
      "ple"
    ],
    [
      "any",
      "where"
    ],
    [
      "est",
      "im"
    ],
    [
      "Wash",
      "ington"
    ],
    [
      "r",
      "im"
    ],
    [
      "so",
      "lem"
    ],
    [
      "E",
      "ast"
    ],
    [
      "appar",
      "ently"
    ],
    [
      "ab",
      "s"
    ],
    [
      "col",
      "on"
    ],
    [
      "dro",
      "pped"
    ],
    [
      "_",
      "M"
    ],
    [
      "room",
      "s"
    ],
    [
      "ka",
      "a"
    ],
    [
      "applic",
      "able"
    ],
    [
      "n",
      "un"
    ],
    [
      "u",
      "no"
    ],
    [
      "!",
      "..."
    ],
    [
      "forgot",
      "ten"
    ],
    [
      "mo",
      "ins"
    ],
    [
      "stru",
      "gg"
    ],
    [
      "An",
      "y"
    ],
    [
      "es",
      "cap"
    ],
    [
      "pat",
      "ri"
    ],
    [
      "Stre",
      "et"
    ],
    [
      "H",
      "ad"
    ],
    [
      "f",
      "ate"
    ],
    [
      "liber",
      "ty"
    ],
    [
      "through",
      "out"
    ],
    [
      "ih",
      "n"
    ],
    [
      "C",
      "T"
    ],
    [
      "aut",
      "res"
    ],
    [
      "emplo",
      "y"
    ],
    [
      "us",
      "_"
    ],
    [
      "zo",
      "o"
    ],
    [
      "quar",
      "ters"
    ],
    [
      "b",
      "ridge"
    ],
    [
      "ti",
      "in"
    ],
    [
      "ex",
      "plained"
    ],
    [
      "alt",
      "ies"
    ],
    [
      "t",
      "is"
    ],
    [
      "the",
      "d"
    ],
    [
      "S",
      "iden"
    ],
    [
      "b",
      "ent"
    ],
    [
      "mort",
      "al"
    ],
    [
      "u",
      "ary"
    ],
    [
      "stre",
      "ets"
    ],
    [
      "assist",
      "ance"
    ],
    [
      "4",
      "8"
    ],
    [
      "O",
      "ther"
    ],
    [
      "D",
      "an"
    ],
    [
      "F",
      "ar"
    ],
    [
      "c",
      "ous"
    ],
    [
      "\"",
      "'"
    ],
    [
      "in",
      "et"
    ],
    [
      "B",
      "ro"
    ],
    [
      "as",
      "ide"
    ],
    [
      "creat",
      "ing"
    ],
    [
      "ment",
      "al"
    ],
    [
      "cele",
      "br"
    ],
    [
      "fif",
      "teen"
    ],
    [
      "ch",
      "ose"
    ],
    [
      "l",
      "on"
    ],
    [
      "prom",
      "ised"
    ],
    [
      "evid",
      "ently"
    ],
    [
      "in",
      "vol"
    ],
    [
      "war",
      "en"
    ],
    [
      "w",
      "ag"
    ],
    [
      "Vir",
      "gin"
    ],
    [
      "Siden",
      "ote"
    ],
    [
      "mi",
      "th"
    ],
    [
      "ust",
      "a"
    ],
    [
      "n",
      "ations"
    ],
    [
      "ell",
      "en"
    ],
    [
      "st",
      "ones"
    ],
    [
      "hän",
      "tä"
    ],
    [
      "val",
      "ley"
    ],
    [
      "ref",
      "used"
    ],
    [
      "I",
      "L"
    ],
    [
      "p",
      "ages"
    ],
    [
      "tou",
      "te"
    ],
    [
      "satis",
      "fied"
    ],
    [
      "ser",
      "ies"
    ],
    [
      "do",
      "ch"
    ],
    [
      "inc",
      "l"
    ],
    [
      "wo",
      "re"
    ],
    [
      "da",
      "ily"
    ],
    [
      "f",
      "lu"
    ],
    [
      "s",
      "wi"
    ],
    [
      "f",
      "ancy"
    ],
    [
      "H",
      "al"
    ],
    [
      "der",
      "iv"
    ],
    [
      "cons",
      "ist"
    ],
    [
      "l",
      "ass"
    ],
    [
      "ain",
      "e"
    ],
    [
      "v",
      "ac"
    ],
    [
      "de",
      "ce"
    ],
    [
      "pos",
      "es"
    ],
    [
      "4",
      "2"
    ],
    [
      "ed",
      "e"
    ],
    [
      "po",
      "lice"
    ],
    [
      "all",
      "en"
    ],
    [
      "D",
      "uring"
    ],
    [
      "wat",
      "ers"
    ],
    [
      "main",
      "tain"
    ],
    [
      "v",
      "asta"
    ],
    [
      "bra",
      "ve"
    ],
    [
      "ot",
      "ion"
    ],
    [
      "v",
      "y"
    ],
    [
      "d",
      "ur"
    ],
    [
      "l",
      "é"
    ],
    [
      "ig",
      "ne"
    ],
    [
      "ti",
      "red"
    ],
    [
      "H",
      "ave"
    ],
    [
      "remember",
      "ed"
    ],
    [
      "popul",
      "ation"
    ],
    [
      "ab",
      "b"
    ],
    [
      "is",
      "chen"
    ],
    [
      "o",
      "o"
    ],
    [
      "m",
      "ich"
    ],
    [
      "co",
      "tt"
    ],
    [
      "w",
      "enn"
    ],
    [
      "ir",
      "a"
    ],
    [
      "suggest",
      "ed"
    ],
    [
      "ei",
      "gh"
    ],
    [
      "increas",
      "ed"
    ],
    [
      "Be",
      "fore"
    ],
    [
      "pl",
      "ate"
    ],
    [
      "ve",
      "y"
    ],
    [
      "Phil",
      "ip"
    ],
    [
      "defect",
      "ive"
    ],
    [
      "v",
      "än"
    ],
    [
      "jud",
      "gment"
    ],
    [
      "es",
      "p"
    ],
    [
      "gentle",
      "men"
    ],
    [
      "act",
      "ually"
    ],
    [
      "le",
      "ge"
    ],
    [
      "y",
      "ards"
    ],
    [
      "ende",
      "av"
    ],
    [
      "ol",
      "en"
    ],
    [
      "ent",
      "ial"
    ],
    [
      "res",
      "er"
    ],
    [
      "pri",
      "de"
    ],
    [
      "Ab",
      "out"
    ],
    [
      "er",
      "en"
    ],
    [
      "_",
      "B"
    ],
    [
      "r",
      "ush"
    ],
    [
      "vol",
      "ume"
    ],
    [
      "la",
      "p"
    ],
    [
      "Ger",
      "many"
    ],
    [
      "_",
      "T"
    ],
    [
      "ex",
      "tre"
    ],
    [
      "P",
      "or"
    ],
    [
      "dollar",
      "s"
    ],
    [
      "m",
      "ig"
    ],
    [
      "P",
      "et"
    ],
    [
      "und",
      "ay"
    ],
    [
      "natur",
      "ally"
    ],
    [
      "3",
      "1"
    ],
    [
      "ta",
      "k"
    ],
    [
      "play",
      "ed"
    ],
    [
      "ex",
      "ceed"
    ],
    [
      "addition",
      "al"
    ],
    [
      "heart",
      "s"
    ],
    [
      "gr",
      "ate"
    ],
    [
      "is",
      "esti"
    ],
    [
      "Apr",
      "il"
    ],
    [
      "tit",
      "le"
    ],
    [
      "Gr",
      "and"
    ],
    [
      "leg",
      "s"
    ],
    [
      "On",
      "ly"
    ],
    [
      "ho",
      "ly"
    ],
    [
      "gu",
      "er"
    ],
    [
      "ar",
      "ing"
    ],
    [
      "tout",
      "es"
    ],
    [
      "conne",
      "cted"
    ],
    [
      "e",
      "h"
    ],
    [
      "li",
      "chen"
    ],
    [
      "per",
      "su"
    ],
    [
      "contr",
      "ary"
    ],
    [
      "li",
      "a"
    ],
    [
      "cri",
      "pt"
    ],
    [
      "O",
      "cto"
    ],
    [
      "equ",
      "ally"
    ],
    [
      "know",
      "ing"
    ],
    [
      "acc",
      "ur"
    ],
    [
      "pro",
      "portion"
    ],
    [
      "solem",
      "n"
    ],
    [
      "iv",
      "al"
    ],
    [
      "fing",
      "ers"
    ],
    [
      "A",
      "G"
    ],
    [
      "s",
      "ind"
    ],
    [
      "M",
      "ich"
    ],
    [
      "mind",
      "s"
    ],
    [
      "m",
      "ou"
    ],
    [
      "uten",
      "ant"
    ],
    [
      "y",
      "ard"
    ],
    [
      "pay",
      "ments"
    ],
    [
      "c",
      "les"
    ],
    [
      "sa",
      "cred"
    ],
    [
      "see",
      "k"
    ],
    [
      "contain",
      "ing"
    ],
    [
      "reli",
      "ef"
    ],
    [
      "lim",
      "itation"
    ],
    [
      "reg",
      "ret"
    ],
    [
      "um",
      "n"
    ],
    [
      "resul",
      "ts"
    ],
    [
      "ar",
      "rang"
    ],
    [
      "Lo",
      "ok"
    ],
    [
      "fortun",
      "ate"
    ],
    [
      "man",
      "u"
    ],
    [
      "show",
      "s"
    ],
    [
      "express",
      "ed"
    ],
    [
      "S",
      "pain"
    ],
    [
      "ω",
      "ν"
    ],
    [
      "en",
      "jo"
    ],
    [
      "mit",
      "ä"
    ],
    [
      "propri",
      "et"
    ],
    [
      "τ",
      "ι"
    ],
    [
      "b",
      "st"
    ],
    [
      "bo",
      "dies"
    ],
    [
      "!",
      "'"
    ],
    [
      "It",
      "s"
    ],
    [
      "Octo",
      "ber"
    ],
    [
      "fig",
      "ures"
    ],
    [
      "mo",
      "is"
    ],
    [
      "w",
      "et"
    ],
    [
      "fa",
      "iled"
    ],
    [
      "Ed",
      "ward"
    ],
    [
      "S",
      "mith"
    ],
    [
      "ex",
      "plain"
    ],
    [
      "pur",
      "ch"
    ],
    [
      "paragraph",
      "s"
    ],
    [
      "ta",
      "ught"
    ],
    [
      "éta",
      "ient"
    ],
    [
      "tre",
      "as"
    ],
    [
      "ent",
      "ed"
    ],
    [
      "po",
      "cket"
    ],
    [
      "advan",
      "ced"
    ],
    [
      "im",
      "pression"
    ],
    [
      "re",
      "ign"
    ],
    [
      "J",
      "ac"
    ],
    [
      "bur",
      "y"
    ],
    [
      "ast",
      "ic"
    ],
    [
      "should",
      "er"
    ],
    [
      "ter",
      "m"
    ],
    [
      "roll",
      "ed"
    ],
    [
      "pri",
      "ce"
    ],
    [
      "rece",
      "i"
    ],
    [
      "li",
      "qu"
    ],
    [
      "contro",
      "l"
    ],
    [
      "distingu",
      "ished"
    ],
    [
      "ad",
      "os"
    ],
    [
      "kaik",
      "ki"
    ],
    [
      "produ",
      "ction"
    ],
    [
      "br",
      "illi"
    ],
    [
      "carry",
      "ing"
    ],
    [
      "con",
      "vi"
    ],
    [
      "di",
      "vine"
    ],
    [
      "bear",
      "ing"
    ],
    [
      "comm",
      "iss"
    ],
    [
      "de",
      "ck"
    ],
    [
      "g",
      "én"
    ],
    [
      "h",
      "it"
    ],
    [
      "in",
      "ner"
    ],
    [
      "princi",
      "ples"
    ],
    [
      "b",
      "ay"
    ],
    [
      "tr",
      "an"
    ],
    [
      "del",
      "le"
    ],
    [
      "paper",
      "s"
    ],
    [
      "Jose",
      "ph"
    ],
    [
      "gu",
      "est"
    ],
    [
      "develop",
      "ment"
    ],
    [
      "m",
      "ile"
    ],
    [
      "g",
      "ue"
    ],
    [
      "C",
      "ount"
    ],
    [
      "κ",
      "α"
    ],
    [
      "sh",
      "op"
    ],
    [
      "y",
      "ty"
    ],
    [
      "complet",
      "ely"
    ],
    [
      "ni",
      "ce"
    ],
    [
      "U",
      "ni"
    ],
    [
      "S",
      "unday"
    ],
    [
      "t",
      "ue"
    ],
    [
      "ac",
      "compan"
    ],
    [
      "str",
      "ang"
    ],
    [
      "necess",
      "ity"
    ],
    [
      "l",
      "un"
    ],
    [
      "est",
      "ä"
    ],
    [
      "z",
      "es"
    ],
    [
      "ent",
      "ity"
    ],
    [
      "de",
      "vil"
    ],
    [
      "le",
      "ction"
    ],
    [
      "rapid",
      "ly"
    ],
    [
      "uri",
      "es"
    ],
    [
      "r",
      "ä"
    ],
    [
      "sor",
      "row"
    ],
    [
      "ges",
      "ch"
    ],
    [
      "des",
      "ired"
    ],
    [
      "b",
      "ted"
    ],
    [
      "t",
      "é"
    ],
    [
      "col",
      "lect"
    ],
    [
      "mis",
      "er"
    ],
    [
      "consequ",
      "ence"
    ],
    [
      "s",
      "ar"
    ],
    [
      "ma",
      "ar"
    ],
    [
      "N",
      "O"
    ],
    [
      "Fran",
      "cis"
    ],
    [
      "in",
      "fin"
    ],
    [
      "qu",
      "ir"
    ],
    [
      "in",
      "side"
    ],
    [
      "occur",
      "red"
    ],
    [
      "S",
      "ta"
    ],
    [
      "reco",
      "gn"
    ],
    [
      "re",
      "ve"
    ],
    [
      "ass",
      "er"
    ],
    [
      "ß",
      "en"
    ],
    [
      "U",
      "p"
    ],
    [
      "ke",
      "in"
    ],
    [
      "pound",
      "s"
    ],
    [
      "fi",
      "elds"
    ],
    [
      "str",
      "anger"
    ],
    [
      "serv",
      "ants"
    ],
    [
      "mu",
      "ut"
    ],
    [
      "subject",
      "s"
    ],
    [
      "all",
      "er"
    ],
    [
      "sha",
      "pe"
    ],
    [
      "c",
      "é"
    ],
    [
      "Wh",
      "ite"
    ],
    [
      "h",
      "unt"
    ],
    [
      "m",
      "our"
    ],
    [
      "ex",
      "trem"
    ],
    [
      "gold",
      "en"
    ],
    [
      "ro",
      "cks"
    ],
    [
      "he",
      "it"
    ],
    [
      "id",
      "er"
    ],
    [
      "uni",
      "form"
    ],
    [
      "dis",
      "ci"
    ],
    [
      "di",
      "am"
    ],
    [
      "quiet",
      "ly"
    ],
    [
      "re",
      "marked"
    ],
    [
      "lo",
      "ck"
    ],
    [
      "descri",
      "ption"
    ],
    [
      "qu",
      "and"
    ],
    [
      "pi",
      "er"
    ],
    [
      "reg",
      "ul"
    ],
    [
      "spir",
      "its"
    ],
    [
      "con",
      "tre"
    ],
    [
      "ra",
      "ble"
    ],
    [
      "comm",
      "itted"
    ],
    [
      "w",
      "ur"
    ],
    [
      "per",
      "for"
    ],
    [
      "mon",
      "str"
    ],
    [
      "va",
      "an"
    ],
    [
      "writ",
      "er"
    ],
    [
      "Ri",
      "ver"
    ],
    [
      "supp",
      "ly"
    ],
    [
      "D",
      "el"
    ],
    [
      "interest",
      "ed"
    ],
    [
      "cl",
      "us"
    ],
    [
      "vo",
      "c"
    ],
    [
      "should",
      "ers"
    ],
    [
      "stand",
      "s"
    ],
    [
      "number",
      "s"
    ],
    [
      "right",
      "s"
    ],
    [
      "ru",
      "b"
    ],
    [
      "w",
      "ä"
    ],
    [
      "soldi",
      "er"
    ],
    [
      "grant",
      "ed"
    ],
    [
      "cast",
      "le"
    ],
    [
      "be",
      "ast"
    ],
    [
      "freed",
      "om"
    ],
    [
      "il",
      "ly"
    ],
    [
      "vol",
      "ution"
    ],
    [
      "neigh",
      "bour"
    ],
    [
      "cross",
      "ed"
    ],
    [
      "av",
      "an"
    ],
    [
      "t",
      "us"
    ],
    [
      "window",
      "s"
    ],
    [
      "fles",
      "h"
    ],
    [
      "Indi",
      "a"
    ],
    [
      "la",
      "bour"
    ],
    [
      "clo",
      "th"
    ],
    [
      "the",
      "less"
    ],
    [
      "manif",
      "est"
    ],
    [
      "need",
      "ed"
    ],
    [
      "ust",
      "ed"
    ],
    [
      "k",
      "am"
    ],
    [
      "V",
      "I"
    ],
    [
      "S",
      "im"
    ],
    [
      "un",
      "cle"
    ],
    [
      "ig",
      "er"
    ],
    [
      "gather",
      "ed"
    ],
    [
      "inhabit",
      "ants"
    ],
    [
      "sur",
      "vi"
    ],
    [
      "follow",
      "s"
    ],
    [
      "w",
      "ra"
    ],
    [
      "S",
      "tr"
    ],
    [
      "t",
      "ask"
    ],
    [
      "H",
      "el"
    ],
    [
      "pä",
      "iv"
    ],
    [
      "P",
      "ol"
    ],
    [
      "na",
      "ar"
    ],
    [
      "vers",
      "ion"
    ],
    [
      "use",
      "ful"
    ],
    [
      "A",
      "no"
    ],
    [
      "f",
      "et"
    ],
    [
      "deriv",
      "ative"
    ],
    [
      "so",
      "il"
    ],
    [
      "no",
      "vel"
    ],
    [
      "comp",
      "lying"
    ],
    [
      "part",
      "ies"
    ],
    [
      "tr",
      "ès"
    ],
    [
      "ti",
      "er"
    ],
    [
      "quel",
      "que"
    ],
    [
      "creat",
      "ure"
    ],
    [
      "ta",
      "an"
    ],
    [
      ",",
      "—"
    ],
    [
      "jo",
      "in"
    ],
    [
      "gener",
      "ations"
    ],
    [
      "W",
      "at"
    ],
    [
      "render",
      "ed"
    ],
    [
      "Ir",
      "ish"
    ],
    [
      "G",
      "al"
    ],
    [
      "wor",
      "ship"
    ],
    [
      "z",
      "ione"
    ],
    [
      "app",
      "lied"
    ],
    [
      "replace",
      "ment"
    ],
    [
      "In",
      "tern"
    ],
    [
      "vo",
      "i"
    ],
    [
      "s",
      "_"
    ],
    [
      "success",
      "ful"
    ],
    [
      "Li",
      "fe"
    ],
    [
      "satis",
      "faction"
    ],
    [
      "il",
      "st"
    ],
    [
      "rel",
      "ations"
    ],
    [
      "surpr",
      "ised"
    ],
    [
      "roy",
      "alties"
    ],
    [
      "r",
      "ous"
    ],
    [
      "tong",
      "ue"
    ],
    [
      "B",
      "lack"
    ],
    [
      "suff",
      "ered"
    ],
    [
      "bo",
      "re"
    ],
    [
      "X",
      "X"
    ],
    [
      "tou",
      "jours"
    ],
    [
      "par",
      "ents"
    ],
    [
      "sign",
      "ific"
    ],
    [
      "4",
      "6"
    ],
    [
      "exper",
      "ien"
    ],
    [
      "wor",
      "den"
    ],
    [
      "D",
      "is"
    ],
    [
      "red",
      "istribut"
    ],
    [
      "at",
      "ors"
    ],
    [
      "per",
      "formed"
    ],
    [
      "or",
      "m"
    ],
    [
      "enem",
      "ies"
    ],
    [
      "dri",
      "ven"
    ],
    [
      "l",
      "est"
    ],
    [
      "un",
      "known"
    ],
    [
      "ch",
      "ain"
    ],
    [
      "l",
      "ou"
    ],
    [
      "be",
      "th"
    ],
    [
      "po",
      "em"
    ],
    [
      "remain",
      "ing"
    ],
    [
      "sent",
      "iment"
    ],
    [
      "4",
      "7"
    ],
    [
      "the",
      "ory"
    ],
    [
      "eng",
      "ine"
    ],
    [
      "ar",
      "se"
    ],
    [
      "e",
      "conom"
    ],
    [
      "report",
      "ed"
    ],
    [
      "pr",
      "is"
    ],
    [
      "avo",
      "id"
    ],
    [
      "es",
      "to"
    ],
    [
      "de",
      "i"
    ],
    [
      "os",
      "ity"
    ],
    [
      "tell",
      "ing"
    ],
    [
      "v",
      "ra"
    ],
    [
      "ul",
      "ous"
    ],
    [
      "ad",
      "mitted"
    ],
    [
      "dress",
      "ed"
    ],
    [
      "bre",
      "a"
    ],
    [
      "wi",
      "eder"
    ],
    [
      "e",
      "ux"
    ],
    [
      "c",
      "un"
    ],
    [
      "le",
      "v"
    ],
    [
      "break",
      "fast"
    ],
    [
      "divid",
      "ed"
    ],
    [
      "method",
      "s"
    ],
    [
      "lig",
      "ence"
    ],
    [
      "S",
      "ou"
    ],
    [
      "fa",
      "is"
    ],
    [
      "b",
      "un"
    ],
    [
      "in",
      "ch"
    ],
    [
      "Th",
      "ose"
    ],
    [
      "pl",
      "ent"
    ],
    [
      "Ano",
      "ther"
    ],
    [
      "no",
      "d"
    ],
    [
      "L",
      "y"
    ],
    [
      "te",
      "h"
    ],
    [
      "cho",
      "ose"
    ],
    [
      "find",
      "ing"
    ],
    [
      "ö",
      "l"
    ],
    [
      "danger",
      "ous"
    ],
    [
      "H",
      "and"
    ],
    [
      "fight",
      "ing"
    ],
    [
      "accompan",
      "ied"
    ],
    [
      "M",
      "at"
    ],
    [
      "So",
      "ci"
    ],
    [
      "Un",
      "d"
    ],
    [
      "ici",
      "an"
    ],
    [
      "ci",
      "o"
    ],
    [
      "Cong",
      "ress"
    ],
    [
      "cult",
      "iv"
    ],
    [
      "ak",
      "si"
    ],
    [
      "dest",
      "ru"
    ],
    [
      "trans",
      "l"
    ],
    [
      "Cath",
      "olic"
    ],
    [
      "z",
      "y"
    ],
    [
      "proble",
      "m"
    ],
    [
      "ac",
      "ity"
    ],
    [
      "ó",
      "l"
    ],
    [
      "de",
      "b"
    ],
    [
      "j",
      "an"
    ],
    [
      "olog",
      "ical"
    ],
    [
      "di",
      "ce"
    ],
    [
      "rest",
      "ed"
    ],
    [
      "tee",
      "th"
    ],
    [
      "St",
      "ill"
    ],
    [
      "Ital",
      "y"
    ],
    [
      "C",
      "am"
    ],
    [
      "abs",
      "ence"
    ],
    [
      "O",
      "ff"
    ],
    [
      "spirit",
      "ual"
    ],
    [
      "C",
      "he"
    ],
    [
      "se",
      "ized"
    ],
    [
      "M",
      "os"
    ],
    [
      "sp",
      "here"
    ],
    [
      "exp",
      "enses"
    ],
    [
      "wait",
      "ed"
    ],
    [
      "se",
      "cut"
    ],
    [
      "mon",
      "s"
    ],
    [
      "ter",
      "re"
    ],
    [
      "arri",
      "val"
    ],
    [
      "corre",
      "ct"
    ],
    [
      "are",
      "st"
    ],
    [
      "ro",
      "de"
    ],
    [
      "M",
      "aster"
    ],
    [
      "me",
      "hr"
    ],
    [
      "sure",
      "ly"
    ],
    [
      "3",
      "3"
    ],
    [
      "at",
      "ory"
    ],
    [
      "sc",
      "re"
    ],
    [
      "car",
      "riage"
    ],
    [
      "do",
      "ors"
    ],
    [
      "represent",
      "ed"
    ],
    [
      "treat",
      "ed"
    ],
    [
      "p",
      "ite"
    ],
    [
      "w",
      "ird"
    ],
    [
      "H",
      "on"
    ],
    [
      "dri",
      "ve"
    ],
    [
      "re",
      "ver"
    ],
    [
      "ne",
      "k"
    ],
    [
      "No",
      "thing"
    ],
    [
      "et",
      "ta"
    ],
    [
      "mon",
      "y"
    ],
    [
      "a",
      "el"
    ],
    [
      "sal",
      "t"
    ],
    [
      "ch",
      "est"
    ],
    [
      "K",
      "e"
    ],
    [
      "i",
      "um"
    ],
    [
      "o",
      "il"
    ],
    [
      "demand",
      "ed"
    ],
    [
      "F",
      "ri"
    ],
    [
      "k",
      "n"
    ],
    [
      "ak",
      "ing"
    ],
    [
      "x",
      "x"
    ],
    [
      "iv",
      "ity"
    ],
    [
      "gr",
      "as"
    ],
    [
      "do",
      "zen"
    ],
    [
      "p",
      "ho"
    ],
    [
      "F",
      "er"
    ],
    [
      "u",
      "ck"
    ],
    [
      "he",
      "b"
    ],
    [
      "profess",
      "ion"
    ],
    [
      "iv",
      "a"
    ],
    [
      "s",
      "illä"
    ],
    [
      "en",
      "thus"
    ],
    [
      "don",
      "c"
    ],
    [
      "li",
      "brary"
    ],
    [
      "W",
      "es"
    ],
    [
      "it",
      "ing"
    ],
    [
      "smo",
      "ke"
    ],
    [
      "ij",
      "k"
    ],
    [
      "hur",
      "t"
    ],
    [
      "sa",
      "u"
    ],
    [
      "mil",
      "k"
    ],
    [
      "sa",
      "ved"
    ],
    [
      "pro",
      "test"
    ],
    [
      "proceed",
      "ed"
    ],
    [
      "tou",
      "ched"
    ],
    [
      "hur",
      "ried"
    ],
    [
      "I",
      "R"
    ],
    [
      "che",
      "z"
    ],
    [
      "u",
      "el"
    ],
    [
      "accord",
      "ance"
    ],
    [
      "int",
      "ention"
    ],
    [
      "fin",
      "al"
    ],
    [
      "ho",
      "le"
    ],
    [
      "π",
      "ο"
    ],
    [
      "twi",
      "ce"
    ],
    [
      "tal",
      "ked"
    ],
    [
      "ce",
      "an"
    ],
    [
      "immen",
      "se"
    ],
    [
      "conne",
      "ction"
    ],
    [
      "sch",
      "en"
    ],
    [
      "strugg",
      "le"
    ],
    [
      "C",
      "lar"
    ],
    [
      "li",
      "ked"
    ],
    [
      "ii",
      "i"
    ],
    [
      "ce",
      "t"
    ],
    [
      "J",
      "ap"
    ],
    [
      "ex",
      "ten"
    ],
    [
      "al",
      "ive"
    ],
    [
      "rul",
      "es"
    ],
    [
      "gen",
      "s"
    ],
    [
      "cel",
      "a"
    ],
    [
      "it",
      "ated"
    ],
    [
      "b",
      "att"
    ],
    [
      "D",
      "as"
    ],
    [
      "si",
      "itä"
    ],
    [
      "se",
      "vent"
    ],
    [
      "is",
      "et"
    ],
    [
      "tem",
      "ber"
    ],
    [
      "call",
      "ing"
    ],
    [
      "res",
      "to"
    ],
    [
      "AN",
      "D"
    ],
    [
      "p",
      "ity"
    ],
    [
      "4",
      "9"
    ],
    [
      "acc",
      "ident"
    ],
    [
      "acqu",
      "aint"
    ],
    [
      "al",
      "ous"
    ],
    [
      "bra",
      "in"
    ],
    [
      "Comp",
      "any"
    ],
    [
      "ol",
      "es"
    ],
    [
      "not",
      "es"
    ],
    [
      "Th",
      "ou"
    ],
    [
      "to",
      "ms"
    ],
    [
      "c",
      "ord"
    ],
    [
      "far",
      "ther"
    ],
    [
      "com",
      "posed"
    ],
    [
      "o",
      "c"
    ],
    [
      "o",
      "x"
    ],
    [
      "jam",
      "ais"
    ],
    [
      "when",
      "ever"
    ],
    [
      "vol",
      "t"
    ],
    [
      "god",
      "s"
    ],
    [
      "U",
      "N"
    ],
    [
      "wat",
      "ching"
    ],
    [
      "da",
      "ar"
    ],
    [
      "sc",
      "en"
    ],
    [
      "um",
      "es"
    ],
    [
      "const",
      "itution"
    ],
    [
      "laugh",
      "ter"
    ],
    [
      "gr",
      "an"
    ],
    [
      "al",
      "es"
    ],
    [
      "it",
      "à"
    ],
    [
      "ad",
      "s"
    ],
    [
      "B",
      "on"
    ],
    [
      "incre",
      "ase"
    ],
    [
      "is",
      "_"
    ],
    [
      "ious",
      "ly"
    ],
    [
      "v",
      "ät"
    ],
    [
      "He",
      "aven"
    ],
    [
      "R",
      "ob"
    ],
    [
      "grad",
      "ually"
    ],
    [
      "bo",
      "ats"
    ],
    [
      "ri",
      "j"
    ],
    [
      "pro",
      "ject"
    ],
    [
      "cap",
      "able"
    ],
    [
      "is",
      "che"
    ],
    [
      "dut",
      "ies"
    ],
    [
      "lift",
      "ed"
    ],
    [
      "D",
      "iv"
    ],
    [
      "hi",
      "de"
    ],
    [
      "imag",
      "ination"
    ],
    [
      "î",
      "tre"
    ],
    [
      "possi",
      "bly"
    ],
    [
      "d",
      "és"
    ],
    [
      "splend",
      "id"
    ],
    [
      "c",
      "aval"
    ],
    [
      "cl",
      "ou"
    ],
    [
      "reason",
      "able"
    ],
    [
      "prof",
      "it"
    ],
    [
      "d",
      "ag"
    ],
    [
      "valu",
      "able"
    ],
    [
      "obtain",
      "ing"
    ],
    [
      "au",
      "di"
    ],
    [
      "was",
      "n"
    ],
    [
      "introdu",
      "ced"
    ],
    [
      "Em",
      "peror"
    ],
    [
      "Ch",
      "in"
    ],
    [
      "H",
      "or"
    ],
    [
      "C",
      "er"
    ],
    [
      "close",
      "ly"
    ],
    [
      "fem",
      "me"
    ],
    [
      "ent",
      "rance"
    ],
    [
      "di",
      "ct"
    ],
    [
      "found",
      "ed"
    ],
    [
      "Th",
      "ough"
    ],
    [
      "happ",
      "en"
    ],
    [
      "qual",
      "ity"
    ],
    [
      "Ital",
      "ian"
    ],
    [
      "ru",
      "e"
    ],
    [
      "B",
      "al"
    ],
    [
      "consider",
      "ation"
    ],
    [
      "read",
      "er"
    ],
    [
      "re",
      "mo"
    ],
    [
      "B",
      "ill"
    ],
    [
      "pract",
      "ical"
    ],
    [
      "at",
      "ives"
    ],
    [
      "prob",
      "able"
    ],
    [
      "object",
      "s"
    ],
    [
      "pro",
      "visions"
    ],
    [
      "mid",
      "st"
    ],
    [
      "whisper",
      "ed"
    ],
    [
      "M",
      "ex"
    ],
    [
      "Sep",
      "tember"
    ],
    [
      "ll",
      "en"
    ],
    [
      "reach",
      "ing"
    ],
    [
      "z",
      "ie"
    ],
    [
      "reg",
      "ister"
    ],
    [
      "id",
      "s"
    ],
    [
      "dom",
      "in"
    ],
    [
      "an",
      "ta"
    ],
    [
      "ers",
      "on"
    ],
    [
      "sto",
      "re"
    ],
    [
      "manu",
      "fact"
    ],
    [
      "sla",
      "ve"
    ],
    [
      "af",
      "t"
    ],
    [
      "cat",
      "ch"
    ],
    [
      "concer",
      "ned"
    ],
    [
      "emp",
      "ty"
    ],
    [
      "pal",
      "ace"
    ],
    [
      "?",
      "--"
    ],
    [
      "moun",
      "ted"
    ],
    [
      "quel",
      "ques"
    ],
    [
      "n",
      "ag"
    ],
    [
      "bran",
      "ches"
    ],
    [
      "li",
      "che"
    ],
    [
      "perfor",
      "man"
    ],
    [
      "sa",
      "it"
    ],
    [
      "ac",
      "coun"
    ],
    [
      "Eli",
      "za"
    ],
    [
      "qu",
      "elle"
    ],
    [
      "u",
      "to"
    ],
    [
      "par",
      "don"
    ],
    [
      "act",
      "ual"
    ],
    [
      "suff",
      "ering"
    ],
    [
      "c",
      "en"
    ],
    [
      "an",
      "gry"
    ],
    [
      "st",
      "aff"
    ],
    [
      "K",
      "un"
    ],
    [
      "ici",
      "ous"
    ],
    [
      "gen",
      "ius"
    ],
    [
      "recei",
      "pt"
    ],
    [
      "swi",
      "ft"
    ],
    [
      "bus",
      "y"
    ],
    [
      "cr",
      "ime"
    ],
    [
      "hand",
      "some"
    ],
    [
      "pra",
      "yer"
    ],
    [
      "H",
      "an"
    ],
    [
      "ro",
      "i"
    ],
    [
      "list",
      "en"
    ],
    [
      "di",
      "a"
    ],
    [
      "B",
      "ob"
    ],
    [
      "b",
      "ishop"
    ],
    [
      "gra",
      "y"
    ],
    [
      "own",
      "s"
    ],
    [
      "high",
      "ly"
    ],
    [
      "put",
      "ting"
    ],
    [
      "In",
      "deed"
    ],
    [
      "burn",
      "ing"
    ],
    [
      "liter",
      "ature"
    ],
    [
      "il",
      "ies"
    ],
    [
      "por",
      "te"
    ],
    [
      "ha",
      "ben"
    ],
    [
      "us",
      "al"
    ],
    [
      "ab",
      "und"
    ],
    [
      "st",
      "ars"
    ],
    [
      "s",
      "itten"
    ],
    [
      "wal",
      "king"
    ],
    [
      "de",
      "te"
    ],
    [
      "flow",
      "er"
    ],
    [
      "m",
      "ale"
    ],
    [
      "L",
      "aw"
    ],
    [
      "18",
      "0"
    ],
    [
      "excite",
      "ment"
    ],
    [
      "I",
      "ON"
    ],
    [
      "night",
      "s"
    ],
    [
      "Am",
      "ong"
    ],
    [
      "faith",
      "ful"
    ],
    [
      "sa",
      "k"
    ],
    [
      "jot",
      "ka"
    ],
    [
      "ang",
      "el"
    ],
    [
      "care",
      "ful"
    ],
    [
      "exp",
      "ense"
    ],
    [
      "di",
      "vision"
    ],
    [
      "der",
      "ived"
    ],
    [
      "f",
      "light"
    ],
    [
      "p",
      "up"
    ],
    [
      "g",
      "gl"
    ],
    [
      "s",
      "inc"
    ],
    [
      "voy",
      "age"
    ],
    [
      "h",
      "il"
    ],
    [
      "ess",
      "ä"
    ],
    [
      "is",
      "her"
    ],
    [
      "so",
      "it"
    ],
    [
      "B",
      "a"
    ],
    [
      "pl",
      "ants"
    ],
    [
      "EN",
      "T"
    ],
    [
      "se",
      "ine"
    ],
    [
      "A",
      "cc"
    ],
    [
      "go",
      "s"
    ],
    [
      "A",
      "gain"
    ],
    [
      "itt",
      "i"
    ],
    [
      "st",
      "ated"
    ],
    [
      "ter",
      "rit"
    ],
    [
      "L",
      "ong"
    ],
    [
      "pract",
      "ically"
    ],
    [
      "τ",
      "ε"
    ],
    [
      "sci",
      "ent"
    ],
    [
      "M",
      "i"
    ],
    [
      "su",
      "is"
    ],
    [
      "w",
      "and"
    ],
    [
      "ag",
      "ent"
    ],
    [
      "so",
      "lid"
    ],
    [
      "o",
      "red"
    ],
    [
      "lic",
      "y"
    ],
    [
      "in",
      "formed"
    ],
    [
      "Har",
      "ry"
    ],
    [
      "Her",
      "r"
    ],
    [
      "ster",
      "n"
    ],
    [
      "z",
      "um"
    ],
    [
      "ut",
      "ch"
    ],
    [
      "re",
      "put"
    ],
    [
      "dom",
      "ain"
    ],
    [
      "ap",
      "preci"
    ],
    [
      "vi",
      "ously"
    ],
    [
      "pro",
      "posed"
    ],
    [
      "exc",
      "ited"
    ],
    [
      "interest",
      "s"
    ],
    [
      "lo",
      "vely"
    ],
    [
      "feat",
      "ures"
    ],
    [
      "van",
      "o"
    ],
    [
      "H",
      "y"
    ],
    [
      "v",
      "ap"
    ],
    [
      "gain",
      "ed"
    ],
    [
      "ο",
      "ς"
    ],
    [
      "reg",
      "ion"
    ],
    [
      "G",
      "i"
    ],
    [
      "Ma",
      "jor"
    ],
    [
      "absol",
      "utely"
    ],
    [
      "cor",
      "ps"
    ],
    [
      "view",
      "s"
    ],
    [
      "among",
      "st"
    ],
    [
      "Uni",
      "vers"
    ],
    [
      "b",
      "ing"
    ],
    [
      "ρ",
      "α"
    ],
    [
      "oun",
      "tain"
    ],
    [
      "prom",
      "pt"
    ],
    [
      "vessel",
      "s"
    ],
    [
      "pos",
      "itions"
    ],
    [
      "cir",
      "cle"
    ],
    [
      "ret",
      "reat"
    ],
    [
      "n",
      "ell"
    ],
    [
      "mo",
      "der"
    ],
    [
      "an",
      "to"
    ],
    [
      "wel",
      "come"
    ],
    [
      "fall",
      "ing"
    ],
    [
      "H",
      "all"
    ],
    [
      "but",
      "ter"
    ],
    [
      "ber",
      "s"
    ],
    [
      "id",
      "än"
    ],
    [
      "ill",
      "er"
    ],
    [
      "N",
      "on"
    ],
    [
      "hear",
      "ing"
    ],
    [
      "grow",
      "th"
    ],
    [
      "v",
      "all"
    ],
    [
      "arrang",
      "ed"
    ],
    [
      "ir",
      "s"
    ],
    [
      "increas",
      "ing"
    ],
    [
      "ex",
      "ha"
    ],
    [
      "o",
      "let"
    ],
    [
      "de",
      "ter"
    ],
    [
      "th",
      "a"
    ],
    [
      "extra",
      "ordinary"
    ],
    [
      "sympa",
      "thy"
    ],
    [
      "le",
      "e"
    ],
    [
      "want",
      "s"
    ],
    [
      "ar",
      "r"
    ],
    [
      "pos",
      "ing"
    ],
    [
      "in",
      "vent"
    ],
    [
      "ha",
      "ven"
    ],
    [
      "f",
      "und"
    ],
    [
      "b",
      "ac"
    ],
    [
      "show",
      "ing"
    ],
    [
      "ic",
      "he"
    ],
    [
      "vot",
      "re"
    ],
    [
      "t",
      "ale"
    ],
    [
      "no",
      "ise"
    ],
    [
      "cre",
      "ation"
    ],
    [
      "No",
      "ve"
    ],
    [
      "pend",
      "ant"
    ],
    [
      "necess",
      "arily"
    ],
    [
      "mom",
      "ents"
    ],
    [
      "é",
      "ri"
    ],
    [
      "bo",
      "tt"
    ],
    [
      "prison",
      "ers"
    ],
    [
      "Hist",
      "ory"
    ],
    [
      "va",
      "ik"
    ],
    [
      "bu",
      "ried"
    ],
    [
      "th",
      "o"
    ],
    [
      "prote",
      "ction"
    ],
    [
      "except",
      "ion"
    ],
    [
      "ca",
      "uses"
    ],
    [
      "Ho",
      "ly"
    ],
    [
      "part",
      "ly"
    ],
    [
      "o",
      "vat"
    ],
    [
      "thorough",
      "ly"
    ],
    [
      "assu",
      "red"
    ],
    [
      "fa",
      "ut"
    ],
    [
      "ch",
      "è"
    ],
    [
      "o",
      "it"
    ],
    [
      "com",
      "ment"
    ],
    [
      "des",
      "per"
    ],
    [
      "en",
      "en"
    ],
    [
      "De",
      "ce"
    ],
    [
      "ab",
      "o"
    ],
    [
      "we",
      "i"
    ],
    [
      "L",
      "ittle"
    ],
    [
      "mark",
      "et"
    ],
    [
      "evid",
      "ent"
    ],
    [
      "cla",
      "m"
    ],
    [
      "imag",
      "ine"
    ],
    [
      "oun",
      "ce"
    ],
    [
      "or",
      "ous"
    ],
    [
      "comm",
      "it"
    ],
    [
      "stor",
      "ies"
    ],
    [
      "ed",
      "ing"
    ],
    [
      "P",
      "re"
    ],
    [
      "B",
      "rown"
    ],
    [
      "quant",
      "ity"
    ],
    [
      "bu",
      "y"
    ],
    [
      "dire",
      "cted"
    ],
    [
      "it",
      "ure"
    ],
    [
      "S",
      "ar"
    ],
    [
      "än",
      "yt"
    ],
    [
      "u",
      "la"
    ],
    [
      "M",
      "us"
    ],
    [
      "comfor",
      "table"
    ],
    [
      "j",
      "un"
    ],
    [
      "int",
      "en"
    ],
    [
      "h",
      "ti"
    ],
    [
      "po",
      "licy"
    ],
    [
      "no",
      "se"
    ],
    [
      "w",
      "ret"
    ],
    [
      "vir",
      "tue"
    ],
    [
      "N",
      "ature"
    ],
    [
      "sh",
      "ire"
    ],
    [
      "m",
      "ät"
    ],
    [
      "g",
      "am"
    ],
    [
      "lu",
      "x"
    ],
    [
      "Nove",
      "mber"
    ],
    [
      "hi",
      "ther"
    ],
    [
      "dis",
      "ease"
    ],
    [
      "qu",
      "oi"
    ],
    [
      "an",
      "ced"
    ],
    [
      "é",
      "p"
    ],
    [
      "ci",
      "es"
    ],
    [
      "c",
      "ities"
    ],
    [
      "Jan",
      "uary"
    ],
    [
      "desc",
      "end"
    ],
    [
      "ain",
      "en"
    ],
    [
      "ici",
      "p"
    ],
    [
      "tru",
      "ly"
    ],
    [
      "re",
      "search"
    ],
    [
      "gover",
      "n"
    ],
    [
      "char",
      "ged"
    ],
    [
      "al",
      "ing"
    ],
    [
      "commiss",
      "ion"
    ],
    [
      "h",
      "ö"
    ],
    [
      "se",
      "ated"
    ],
    [
      "_",
      "F"
    ],
    [
      "it",
      "ute"
    ],
    [
      "intel",
      "li"
    ],
    [
      "ear",
      "lier"
    ],
    [
      "fer",
      "ence"
    ],
    [
      "Ma",
      "jesty"
    ],
    [
      "k",
      "ins"
    ],
    [
      "ow",
      "er"
    ],
    [
      "ad",
      "vice"
    ],
    [
      "fellow",
      "s"
    ],
    [
      "sh",
      "ame"
    ],
    [
      "use",
      "ment"
    ],
    [
      "chang",
      "es"
    ],
    [
      "ef",
      "t"
    ],
    [
      "gu",
      "ar"
    ],
    [
      "oper",
      "ation"
    ],
    [
      "beg",
      "un"
    ],
    [
      "not",
      "re"
    ],
    [
      "indi",
      "gn"
    ],
    [
      "me",
      "at"
    ],
    [
      "present",
      "ly"
    ],
    [
      "near",
      "er"
    ],
    [
      "f",
      "est"
    ],
    [
      "I",
      "sa"
    ],
    [
      "ps",
      "y"
    ],
    [
      "fair",
      "ly"
    ],
    [
      "teen",
      "th"
    ],
    [
      "ct",
      "ing"
    ],
    [
      "V",
      "ery"
    ],
    [
      "fa",
      "ult"
    ],
    [
      "vo",
      "s"
    ],
    [
      "sy",
      "n"
    ],
    [
      "pat",
      "ience"
    ],
    [
      "ye",
      "ux"
    ],
    [
      "un",
      "able"
    ],
    [
      "is",
      "l"
    ],
    [
      "hu",
      "ge"
    ],
    [
      "understand",
      "ing"
    ],
    [
      "C",
      "ity"
    ],
    [
      "t",
      "end"
    ],
    [
      "b",
      "res"
    ],
    [
      "cept",
      "ion"
    ],
    [
      "3",
      "2"
    ],
    [
      "G",
      "ar"
    ],
    [
      "glo",
      "om"
    ],
    [
      "surround",
      "ed"
    ],
    [
      "ra",
      "g"
    ],
    [
      "c",
      "ad"
    ],
    [
      "magn",
      "ific"
    ],
    [
      "et",
      "en"
    ],
    [
      "Un",
      "der"
    ],
    [
      "wh",
      "olly"
    ],
    [
      "o",
      "is"
    ],
    [
      "o",
      "ok"
    ],
    [
      "μ",
      "α"
    ],
    [
      "sk",
      "ill"
    ],
    [
      "fem",
      "ale"
    ],
    [
      "kind",
      "s"
    ],
    [
      "tu",
      "o"
    ],
    [
      "Li",
      "ke"
    ],
    [
      "pri",
      "vi"
    ],
    [
      "v",
      "ul"
    ],
    [
      "eng",
      "age"
    ],
    [
      "1",
      "00"
    ],
    [
      "P",
      "ri"
    ],
    [
      "R",
      "es"
    ],
    [
      "le",
      "ep"
    ],
    [
      "ol",
      "f"
    ],
    [
      "b",
      "be"
    ],
    [
      "fin",
      "ed"
    ],
    [
      "st",
      "ic"
    ],
    [
      "Mon",
      "sieur"
    ],
    [
      "u",
      "ma"
    ],
    [
      "an",
      "al"
    ],
    [
      "a",
      "head"
    ],
    [
      "cl",
      "as"
    ],
    [
      "ol",
      "der"
    ],
    [
      "dro",
      "p"
    ],
    [
      "ol",
      "s"
    ],
    [
      "Ar",
      "t"
    ],
    [
      "sing",
      "ular"
    ],
    [
      "act",
      "s"
    ],
    [
      "re",
      "move"
    ],
    [
      "h",
      "ence"
    ],
    [
      "sacrif",
      "ice"
    ],
    [
      "inter",
      "rup"
    ],
    [
      "am",
      "id"
    ],
    [
      "ad",
      "mit"
    ],
    [
      "k",
      "ni"
    ],
    [
      "c",
      "ure"
    ],
    [
      "r",
      "in"
    ],
    [
      "em",
      "in"
    ],
    [
      "is",
      "ch"
    ],
    [
      "ce",
      "ased"
    ],
    [
      "tri",
      "but"
    ],
    [
      "c",
      "art"
    ],
    [
      "I",
      "re"
    ],
    [
      "Em",
      "p"
    ],
    [
      "_",
      "L"
    ],
    [
      "artic",
      "le"
    ],
    [
      "B",
      "ay"
    ],
    [
      "ah",
      "r"
    ],
    [
      "ener",
      "gy"
    ],
    [
      "list",
      "ened"
    ],
    [
      "wh",
      "ilst"
    ],
    [
      "wor",
      "st"
    ],
    [
      "no",
      "g"
    ],
    [
      "ris",
      "on"
    ],
    [
      "d",
      "ic"
    ],
    [
      "Jap",
      "an"
    ],
    [
      "ter",
      "day"
    ],
    [
      "C",
      "O"
    ],
    [
      "re",
      "lie"
    ],
    [
      "perman",
      "ent"
    ],
    [
      "adop",
      "ted"
    ],
    [
      "p",
      "ac"
    ],
    [
      "slight",
      "ly"
    ],
    [
      "ind",
      "ul"
    ],
    [
      "le",
      "ap"
    ],
    [
      "be",
      "coming"
    ],
    [
      "Dece",
      "mber"
    ],
    [
      "w",
      "ander"
    ],
    [
      "ob",
      "st"
    ],
    [
      "k",
      "ar"
    ],
    [
      "Un",
      "cle"
    ],
    [
      "class",
      "es"
    ],
    [
      "M",
      "au"
    ],
    [
      "my",
      "ö"
    ],
    [
      "w",
      "ings"
    ],
    [
      "ind",
      "ust"
    ],
    [
      "S",
      "to"
    ],
    [
      "contain",
      "ed"
    ],
    [
      "g",
      "ang"
    ],
    [
      "cl",
      "oud"
    ],
    [
      "M",
      "id"
    ],
    [
      "intel",
      "ligence"
    ],
    [
      "Je",
      "an"
    ],
    [
      "fle",
      "et"
    ],
    [
      "e",
      "ment"
    ],
    [
      "s",
      "ending"
    ],
    [
      "chos",
      "en"
    ],
    [
      "U",
      "se"
    ],
    [
      "quel",
      "la"
    ],
    [
      "st",
      "al"
    ],
    [
      "kind",
      "ly"
    ],
    [
      "cou",
      "ple"
    ],
    [
      "state",
      "ment"
    ],
    [
      "S",
      "ol"
    ],
    [
      "s",
      "ink"
    ],
    [
      "hundred",
      "s"
    ],
    [
      "cost",
      "s"
    ],
    [
      "P",
      "en"
    ],
    [
      "ne",
      "u"
    ],
    [
      "think",
      "s"
    ],
    [
      "w",
      "art"
    ],
    [
      "destroy",
      "ed"
    ],
    [
      "ter",
      "ror"
    ],
    [
      "N",
      "E"
    ],
    [
      "de",
      "lay"
    ],
    [
      "commer",
      "cial"
    ],
    [
      "st",
      "ick"
    ],
    [
      "Soci",
      "ety"
    ],
    [
      "to",
      "tal"
    ],
    [
      "can",
      "o"
    ],
    [
      "four",
      "th"
    ],
    [
      "exerc",
      "ise"
    ],
    [
      "Bes",
      "ides"
    ],
    [
      "E",
      "in"
    ],
    [
      "separ",
      "ate"
    ],
    [
      "deep",
      "ly"
    ],
    [
      "stri",
      "king"
    ],
    [
      "mem",
      "or"
    ],
    [
      "ow",
      "ed"
    ],
    [
      "h",
      "ut"
    ],
    [
      "and",
      "e"
    ],
    [
      "stri",
      "ct"
    ],
    [
      "f",
      "ought"
    ],
    [
      "play",
      "ing"
    ],
    [
      "smo",
      "oth"
    ],
    [
      "ta",
      "it"
    ],
    [
      "fir",
      "med"
    ],
    [
      "Ire",
      "land"
    ],
    [
      "wis",
      "dom"
    ],
    [
      "mon",
      "de"
    ],
    [
      "g",
      "low"
    ],
    [
      "tell",
      "s"
    ],
    [
      "iz",
      "ing"
    ],
    [
      "ch",
      "or"
    ],
    [
      "re",
      "comm"
    ],
    [
      "en",
      "i"
    ],
    [
      "fl",
      "our"
    ],
    [
      "des",
      "ir"
    ],
    [
      "lead",
      "er"
    ],
    [
      "d",
      "il"
    ],
    [
      "mon",
      "t"
    ],
    [
      "issu",
      "e"
    ],
    [
      "t",
      "to"
    ],
    [
      "bring",
      "ing"
    ],
    [
      "h",
      "ate"
    ],
    [
      "6",
      "4"
    ],
    [
      "l",
      "is"
    ],
    [
      "whe",
      "el"
    ],
    [
      "art",
      "ist"
    ],
    [
      "dro",
      "ve"
    ],
    [
      "vis",
      "ited"
    ],
    [
      "inst",
      "inct"
    ],
    [
      "reas",
      "ons"
    ],
    [
      "rece",
      "iving"
    ],
    [
      "k",
      "ön"
    ],
    [
      "dev",
      "oted"
    ],
    [
      "ol",
      "le"
    ],
    [
      "ri",
      "a"
    ],
    [
      "sel",
      "ess"
    ],
    [
      "ain",
      "si"
    ],
    [
      "cop",
      "ied"
    ],
    [
      "o",
      "la"
    ],
    [
      "d",
[...]
