{
  "merges": [
    [
      "t",
      "h"
    ],
    [
      "i",
      "n"
    ],
    [
      "r",
      "e"
    ],
    [
      "th",
      "e"
    ],
    [
      "o",
      "n"
    ],
    [
      "s",
      "e"
    ],
    [
      "a",
      "n"
    ],
    [
      "o",
      "f"
    ],
    [
      "l",
      "e"
    ],
    [
      "t",
      "i"
    ],
    [
      "e",
      "r"
    ],
    [
      "o",
      "r"
    ],
    [
      "e",
      "n"
    ],
    [
      "a",
      "l"
    ],
    [
      "e",
      "s"
    ],
    [
      "i",
      "s"
    ],
    [
      "t",
      "o"
    ],
    [
      "o",
      "m"
    ],
    [
      "an",
      "d"
    ],
    [
      "a",
      "t"
    ],
    [
      "c",
      "a"
    ],
    [
      "ti",
      "on"
    ],
    [
      "a",
      "s"
    ],
    [
      "e",
      "d"
    ],
    [
      "in",
      "g"
    ],
    [
      "i",
      "c"
    ],
    [
      "r",
      "o"
    ],
    [
      "c",
      "on"
    ],
    [
      "i",
      "t"
    ],
    [
      "a",
      "r"
    ],
    [
      "s",
      "y"
    ],
    [
      "i",
      "z"
    ],
    [
      "e",
      "p"
    ],
    [
      "i",
      "le"
    ],
    [
      "b",
      "e"
    ],
    [
      "u",
      "re"
    ],
    [
      "o",
      "u"
    ],
    [
      "ile",
      "p"
    ],
    [
      "v",
      "e"
    ],
    [
      "s",
      "t"
    ],
    [
      "c",
      "h"
    ],
    [
      "d",
      "u"
    ],
    [
      "iz",
      "ure"
    ],
    [
      "d",
      "e"
    ],
    [
      "w",
      "i"
    ],
    [
      "n",
      "o"
    ],
    [
      "se",
      "izure"
    ],
    [
      "ep",
      "ilep"
    ],
    [
      "d",
      "i"
    ],
    [
      "m",
      "a"
    ],
    [
      "wi",
      "th"
    ],
    [
      "p",
      "ro"
    ],
    [
      "s",
      "i"
    ],
    [
      "l",
      "y"
    ],
    [
      "c",
      "t"
    ],
    [
      "s",
      "u"
    ],
    [
      "h",
      "e"
    ],
    [
      "a",
      "re"
    ],
    [
      "a",
      "se"
    ],
    [
      "i",
      "r"
    ],
    [
      "in",
      "c"
    ],
    [
      "u",
      "r"
    ],
    [
      "epilep",
      "sy"
    ],
    [
      "u",
      "se"
    ],
    [
      "en",
      "t"
    ],
    [
      "l",
      "o"
    ],
    [
      "i",
      "es"
    ],
    [
      "th",
      "at"
    ],
    [
      "w",
      "h"
    ],
    [
      "f",
      "or"
    ],
    [
      "con",
      "om"
    ],
    [
      "ca",
      "le"
    ],
    [
      "s",
      "cale"
    ],
    [
      "p",
      "er"
    ],
    [
      "seizure",
      "s"
    ],
    [
      "r",
      "a"
    ],
    [
      "T",
      "he"
    ],
    [
      "m",
      "o"
    ],
    [
      "h",
      "a"
    ],
    [
      "a",
      "b"
    ],
    [
      "p",
      "e"
    ],
    [
      "conom",
      "ies"
    ],
    [
      "I",
      "n"
    ],
    [
      "no",
      "t"
    ],
    [
      "f",
      "e"
    ],
    [
      "u",
      "t"
    ],
    [
      "c",
      "tion"
    ],
    [
      "u",
      "n"
    ],
    [
      "c",
      "om"
    ],
    [
      "r",
      "om"
    ],
    [
      "e",
      "x"
    ],
    [
      "b",
      "y"
    ],
    [
      "ti",
      "c"
    ],
    [
      "c",
      "e"
    ],
    [
      "l",
      "d"
    ],
    [
      "g",
      "e"
    ],
    [
      "t",
      "er"
    ],
    [
      "the",
      "r"
    ],
    [
      "ma",
      "y"
    ],
    [
      "pro",
      "du"
    ],
    [
      "c",
      "i"
    ],
    [
      "ou",
      "t"
    ],
    [
      "g",
      "h"
    ],
    [
      "u",
      "l"
    ],
    [
      "inc",
      "re"
    ],
    [
      "p",
      "o"
    ],
    [
      "g",
      "en"
    ],
    [
      "c",
      "o"
    ],
    [
      "v",
      "er"
    ],
    [
      "ha",
      "ve"
    ],
    [
      "a",
      "tion"
    ],
    [
      "l",
      "i"
    ],
    [
      "q",
      "u"
    ],
    [
      "e",
      "conomies"
    ],
    [
      "v",
      "i"
    ],
    [
      "a",
      "c"
    ],
    [
      "ca",
      "use"
    ],
    [
      "m",
      "e"
    ],
    [
      "f",
      "fe"
    ],
    [
      "t",
      "s"
    ],
    [
      "l",
      "u"
    ],
    [
      "m",
      "ent"
    ],
    [
      "o",
      "se"
    ],
    [
      "w",
      "e"
    ],
    [
      "r",
      "i"
    ],
    [
      "it",
      "y"
    ],
    [
      "s",
      "o"
    ],
    [
      "ic",
      "al"
    ],
    [
      "a",
      "d"
    ],
    [
      "incre",
      "ase"
    ],
    [
      "p",
      "le"
    ],
    [
      "mo",
      "re"
    ],
    [
      "ca",
      "tion"
    ],
    [
      "m",
      "ed"
    ],
    [
      "p",
      "re"
    ],
    [
      "n",
      "s"
    ],
    [
      "d",
      "er"
    ],
    [
      "i",
      "cation"
    ],
    [
      "n",
      "e"
    ],
    [
      "f",
      "ir"
    ],
    [
      "t",
      "y"
    ],
    [
      "f",
      "rom"
    ],
    [
      "o",
      "c"
    ],
    [
      "se",
      "s"
    ],
    [
      "f",
      "ic"
    ],
    [
      "d",
      "o"
    ],
    [
      "produ",
      "ction"
    ],
    [
      "k",
      "e"
    ],
    [
      "om",
      "e"
    ],
    [
      "co",
      "st"
    ],
    [
      "an",
      "t"
    ],
    [
      "ti",
      "ve"
    ],
    [
      "in",
      "e"
    ],
    [
      "th",
      "ose"
    ],
    [
      "f",
      "a"
    ],
    [
      "m",
      "on"
    ],
    [
      "ic",
      "h"
    ],
    [
      "inc",
      "lu"
    ],
    [
      "re",
      "at"
    ],
    [
      "p",
      "or"
    ],
    [
      "h",
      "i"
    ],
    [
      "wh",
      "ich"
    ],
    [
      "u",
      "s"
    ],
    [
      "h",
      "is"
    ],
    [
      "a",
      "ge"
    ],
    [
      "p",
      "ut"
    ],
    [
      "l",
      "a"
    ],
    [
      "i",
      "f"
    ],
    [
      "w",
      "n"
    ],
    [
      "a",
      "g"
    ],
    [
      "o",
      "l"
    ],
    [
      "c",
      "an"
    ],
    [
      "or",
      "y"
    ],
    [
      "lo",
      "w"
    ],
    [
      "o",
      "ther"
    ],
    [
      "w",
      "as"
    ],
    [
      "ffe",
      "ct"
    ],
    [
      "t",
      "ur"
    ],
    [
      "n",
      "d"
    ],
    [
      "med",
      "ication"
    ],
    [
      "ra",
      "in"
    ],
    [
      "c",
      "ur"
    ],
    [
      "m",
      "s"
    ],
    [
      "i",
      "l"
    ],
    [
      "n",
      "t"
    ],
    [
      "m",
      "an"
    ],
    [
      "c",
      "es"
    ],
    [
      "al",
      "l"
    ],
    [
      "ch",
      "an"
    ],
    [
      "r",
      "is"
    ],
    [
      "ris",
      "k"
    ],
    [
      "b",
      "rain"
    ],
    [
      "th",
      "is"
    ],
    [
      "o",
      "ple"
    ],
    [
      "it",
      "s"
    ],
    [
      "gen",
      "er"
    ],
    [
      "p",
      "h"
    ],
    [
      "su",
      "ch"
    ],
    [
      "the",
      "ir"
    ],
    [
      "h",
      "as"
    ],
    [
      "re",
      "tur"
    ],
    [
      "ou",
      "s"
    ],
    [
      "sy",
      "ch"
    ],
    [
      "p",
      "ar"
    ],
    [
      "oc",
      "cur"
    ],
    [
      "d",
      "en"
    ],
    [
      "re",
      "su"
    ],
    [
      "resu",
      "l"
    ],
    [
      "or",
      "der"
    ],
    [
      "s",
      "ome"
    ],
    [
      "per",
      "i"
    ],
    [
      "k",
      "no"
    ],
    [
      "kno",
      "wn"
    ],
    [
      "on",
      "ic"
    ],
    [
      "qu",
      "i"
    ],
    [
      "at",
      "ed"
    ],
    [
      "gener",
      "al"
    ],
    [
      "t",
      "a"
    ],
    [
      "t",
      "en"
    ],
    [
      "t",
      "e"
    ],
    [
      "du",
      "e"
    ],
    [
      "o",
      "d"
    ],
    [
      "at",
      "e"
    ],
    [
      "d",
      "es"
    ],
    [
      "epilep",
      "tic"
    ],
    [
      "retur",
      "ns"
    ],
    [
      "gh",
      "t"
    ],
    [
      "th",
      "an"
    ],
    [
      "l",
      "l"
    ],
    [
      "sy",
      "nd"
    ],
    [
      "synd",
      "rom"
    ],
    [
      "fa",
      "ct"
    ],
    [
      "di",
      "se"
    ],
    [
      "as",
      "ing"
    ],
    [
      "E",
      "S"
    ],
    [
      "on",
      "e"
    ],
    [
      "iz",
      "ed"
    ],
    [
      "b",
      "ut"
    ],
    [
      "pe",
      "ople"
    ],
    [
      "E",
      "p"
    ],
    [
      "Ep",
      "ilep"
    ],
    [
      "lo",
      "g"
    ],
    [
      "c",
      "ep"
    ],
    [
      "use",
      "d"
    ],
    [
      "ca",
      "r"
    ],
    [
      "si",
      "on"
    ],
    [
      "re",
      "d"
    ],
    [
      "w",
      "or"
    ],
    [
      "e",
      "ar"
    ],
    [
      "re",
      "e"
    ],
    [
      "wh",
      "o"
    ],
    [
      "m",
      "ar"
    ],
    [
      "con",
      "t"
    ],
    [
      "ab",
      "out"
    ],
    [
      "p",
      "sych"
    ],
    [
      "ty",
      "p"
    ],
    [
      "r",
      "ing"
    ],
    [
      "g",
      "n"
    ],
    [
      "b",
      "le"
    ],
    [
      "u",
      "m"
    ],
    [
      "ter",
      "n"
    ],
    [
      "ab",
      "le"
    ],
    [
      "ES",
      "P"
    ],
    [
      "inclu",
      "de"
    ],
    [
      "the",
      "re"
    ],
    [
      "m",
      "al"
    ],
    [
      "po",
      "s"
    ],
    [
      "al",
      "so"
    ],
    [
      "e",
      "v"
    ],
    [
      "ou",
      "ld"
    ],
    [
      "Epilep",
      "sy"
    ],
    [
      "d",
      "is"
    ],
    [
      "or",
      "s"
    ],
    [
      "dise",
      "ase"
    ],
    [
      "s",
      "is"
    ],
    [
      "t",
      "reat"
    ],
    [
      "por",
      "t"
    ],
    [
      "ca",
      "p"
    ],
    [
      "l",
      "as"
    ],
    [
      "con",
      "d"
    ],
    [
      "ex",
      "peri"
    ],
    [
      ")",
      "."
    ],
    [
      "gen",
      "e"
    ],
    [
      "ca",
      "ses"
    ],
    [
      "in",
      "di"
    ],
    [
      "T",
      "his"
    ],
    [
      "medication",
      "s"
    ],
    [
      "s",
      "pe"
    ],
    [
      "g",
      "er"
    ],
    [
      "the",
      "y"
    ],
    [
      "f",
      "fic"
    ],
    [
      "'",
      "s"
    ],
    [
      "di",
      "tion"
    ],
    [
      "h",
      "o"
    ],
    [
      "st",
      "r"
    ],
    [
      "mar",
      "ke"
    ],
    [
      "E",
      "conomies"
    ],
    [
      "in",
      "put"
    ],
    [
      "mo",
      "st"
    ],
    [
      "com",
      "mon"
    ],
    [
      "d",
      "ing"
    ],
    [
      "ro",
      "u"
    ],
    [
      "ti",
      "es"
    ],
    [
      "hi",
      "gh"
    ],
    [
      "s",
      "p"
    ],
    [
      "b",
      "er"
    ],
    [
      "f",
      "in"
    ],
    [
      "m",
      "en"
    ],
    [
      "cost",
      "s"
    ],
    [
      "in",
      "v"
    ],
    [
      "c",
      "re"
    ],
    [
      "se",
      "cond"
    ],
    [
      "per",
      "s"
    ],
    [
      "pers",
      "on"
    ],
    [
      "f",
      "o"
    ],
    [
      "re",
      "n"
    ],
    [
      "dis",
      "order"
    ],
    [
      "be",
      "t"
    ],
    [
      "l",
      "ar"
    ],
    [
      "t",
      "r"
    ],
    [
      "si",
      "de"
    ],
    [
      "re",
      "qui"
    ],
    [
      "e",
      "conom"
    ],
    [
      "a",
      "m"
    ],
    [
      "le",
      "ve"
    ],
    [
      "v",
      "is"
    ],
    [
      "ci",
      "al"
    ],
    [
      "o",
      "log"
    ],
    [
      "be",
      "ing"
    ],
    [
      "ch",
      "i"
    ],
    [
      "it",
      "al"
    ],
    [
      "re",
      "l"
    ],
    [
      "U",
      "n"
    ],
    [
      "e",
      "vi"
    ],
    [
      "we",
      "ver"
    ],
    [
      "g",
      "es"
    ],
    [
      "c",
      "tive"
    ],
    [
      "incre",
      "asing"
    ],
    [
      "c",
      "le"
    ],
    [
      "w",
      "o"
    ],
    [
      "de",
      "cre"
    ],
    [
      "ase",
      "d"
    ],
    [
      "e",
      "ffect"
    ],
    [
      "resul",
      "t"
    ],
    [
      "f",
      "i"
    ],
    [
      "de",
      "ve"
    ],
    [
      "deve",
      "lo"
    ],
    [
      "develo",
      "p"
    ],
    [
      "we",
      "en"
    ],
    [
      "ou",
      "nt"
    ],
    [
      "den",
      "ce"
    ],
    [
      "n",
      "um"
    ],
    [
      "num",
      "ber"
    ],
    [
      "an",
      "y"
    ],
    [
      "v",
      "o"
    ],
    [
      "treat",
      "ment"
    ],
    [
      "be",
      "en"
    ],
    [
      "a",
      "ffect"
    ],
    [
      "se",
      "n"
    ],
    [
      "leve",
      "l"
    ],
    [
      "m",
      "p"
    ],
    [
      "es",
      "t"
    ],
    [
      "f",
      "ter"
    ],
    [
      "on",
      "ly"
    ],
    [
      "t",
      "ri"
    ],
    [
      "con",
      "dition"
    ],
    [
      "chi",
      "ld"
    ],
    [
      "syndrom",
      "e"
    ],
    [
      "t",
      "ra"
    ],
    [
      "i",
      "on"
    ],
    [
      "s",
      "a"
    ],
    [
      "increase",
      "s"
    ],
    [
      "y",
      "s"
    ],
    [
      "ag",
      "no"
    ],
    [
      "pos",
      "si"
    ],
    [
      "fir",
      "st"
    ],
    [
      "M",
      "ar"
    ],
    [
      "car",
      "d"
    ],
    [
      "out",
      "put"
    ],
    [
      "tern",
      "al"
    ],
    [
      "inv",
      "ol"
    ],
    [
      "general",
      "ized"
    ],
    [
      "ro",
      "un"
    ],
    [
      "n",
      "or"
    ],
    [
      "do",
      "es"
    ],
    [
      "wh",
      "en"
    ],
    [
      "I",
      "t"
    ],
    [
      "man",
      "y"
    ],
    [
      "wh",
      "ile"
    ],
    [
      "c",
      "ent"
    ],
    [
      "c",
      "ed"
    ],
    [
      "evi",
      "dence"
    ],
    [
      "bet",
      "ween"
    ],
    [
      "in",
      "to"
    ],
    [
      "o",
      "b"
    ],
    [
      "y",
      "ear"
    ],
    [
      "indi",
      "vi"
    ],
    [
      "indivi",
      "du"
    ],
    [
      "individu",
      "al"
    ],
    [
      "requi",
      "re"
    ],
    [
      "an",
      "ti"
    ],
    [
      "su",
      "p"
    ],
    [
      "d",
      "ed"
    ],
    [
      "c",
      "y"
    ],
    [
      "experi",
      "ment"
    ],
    [
      "marke",
      "t"
    ],
    [
      "s",
      "iz"
    ],
    [
      "siz",
      "e"
    ],
    [
      "fir",
      "m"
    ],
    [
      "ar",
      "y"
    ],
    [
      "ns",
      "ory"
    ],
    [
      "ph",
      "en"
    ],
    [
      "ical",
      "ly"
    ],
    [
      "le",
      "d"
    ],
    [
      "a",
      "fter"
    ],
    [
      "ou",
      "r"
    ],
    [
      "psych",
      "olog"
    ],
    [
      "si",
      "es"
    ],
    [
      "le",
      "s"
    ],
    [
      "ul",
      "ar"
    ],
    [
      "chan",
      "ges"
    ],
    [
      "ter",
      "m"
    ],
    [
      "de",
      "fin"
    ],
    [
      "in",
      "du"
    ],
    [
      "b",
      "o"
    ],
    [
      "s",
      "ci"
    ],
    [
      "1",
      "0"
    ],
    [
      "of",
      "ten"
    ],
    [
      "The",
      "re"
    ],
    [
      "c",
      "l"
    ],
    [
      "nor",
      "mal"
    ],
    [
      "c",
      "al"
    ],
    [
      "on",
      "g"
    ],
    [
      "ti",
      "v"
    ],
    [
      "tiv",
      "ity"
    ],
    [
      "g",
      "reat"
    ],
    [
      "re",
      "f"
    ],
    [
      "ti",
      "m"
    ],
    [
      "fo",
      "re"
    ],
    [
      "t",
      "wo"
    ],
    [
      "child",
      "ren"
    ],
    [
      "it",
      "ed"
    ],
    [
      "2",
      "0"
    ],
    [
      "ces",
      "s"
    ],
    [
      "w",
      "a"
    ],
    [
      "i",
      "tion"
    ],
    [
      "re",
      "com"
    ],
    [
      "recom",
      "men"
    ],
    [
      "com",
      "p"
    ],
    [
      "cep",
      "tion"
    ],
    [
      "a",
      "ver"
    ],
    [
      "aver",
      "age"
    ],
    [
      "com",
      "pe"
    ],
    [
      "compe",
      "ti"
    ],
    [
      "the",
      "se"
    ],
    [
      "g",
      "in"
    ],
    [
      "n",
      "on"
    ],
    [
      "al",
      "ly"
    ],
    [
      ")",
      ","
    ],
    [
      "p",
      "s"
    ],
    [
      "typ",
      "ically"
    ],
    [
      "with",
      "out"
    ],
    [
      "ar",
      "ch"
    ],
    [
      "ac",
      "k"
    ],
    [
      "cont",
      "ro"
    ],
    [
      "contro",
      "l"
    ],
    [
      "du",
      "ring"
    ],
    [
      "effect",
      "s"
    ],
    [
      "gene",
      "tic"
    ],
    [
      "cause",
      "s"
    ],
    [
      "fact",
      "ors"
    ],
    [
      "pro",
      "ble"
    ],
    [
      "a",
      "roun"
    ],
    [
      "aroun",
      "d"
    ],
    [
      "f",
      "ication"
    ],
    [
      "ct",
      "s"
    ],
    [
      "I",
      "f"
    ],
    [
      "m",
      "i"
    ],
    [
      "di",
      "agno"
    ],
    [
      "se",
      "r"
    ],
    [
      "v",
      "es"
    ],
    [
      "f",
      "ul"
    ],
    [
      "e",
      "ffe"
    ],
    [
      "effe",
      "ctive"
    ],
    [
      "un",
      "it"
    ],
    [
      "iz",
      "ation"
    ],
    [
      "econom",
      "ic"
    ],
    [
      "l",
      "ab"
    ],
    [
      "indu",
      "str"
    ],
    [
      "fir",
      "ms"
    ],
    [
      "bo",
      "th"
    ],
    [
      "f",
      "oc"
    ],
    [
      "ta",
      "in"
    ],
    [
      "typ",
      "es"
    ],
    [
      "k",
      "ing"
    ],
    [
      "The",
      "se"
    ],
    [
      "ur",
      "y"
    ],
    [
      "su",
      "b"
    ],
    [
      "mp",
      "to"
    ],
    [
      "ti",
      "me"
    ],
    [
      "rel",
      "ated"
    ],
    [
      "epilep",
      "sies"
    ],
    [
      "wi",
      "ll"
    ],
    [
      "sa",
      "me"
    ],
    [
      "g",
      "ro"
    ],
    [
      "gro",
      "w"
    ],
    [
      "ha",
      "d"
    ],
    [
      "Un",
      "ited"
    ],
    [
      "c",
      "ount"
    ],
    [
      "as",
      "so"
    ],
    [
      "asso",
      "ci"
    ],
    [
      "resul",
      "ts"
    ],
    [
      "rou",
      "gh"
    ],
    [
      "year",
      "s"
    ],
    [
      "at",
      "ure"
    ],
    [
      "par",
      "tic"
    ],
    [
      "partic",
      "ular"
    ],
    [
      "ad",
      "v"
    ],
    [
      "s",
      "h"
    ],
    [
      "o",
      "p"
    ],
    [
      "recommen",
      "ded"
    ],
    [
      "i",
      "m"
    ],
    [
      "at",
      "es"
    ],
    [
      "il",
      "ity"
    ],
    [
      "p",
      "l"
    ],
    [
      "vis",
      "ion"
    ],
    [
      "card",
      "s"
    ],
    [
      "e",
      "ffic"
    ],
    [
      "effic",
      "i"
    ],
    [
      "vo",
      "lu"
    ],
    [
      "s",
      "hi"
    ],
    [
      "p",
      "r"
    ],
    [
      "input",
      "s"
    ],
    [
      "es",
      "s"
    ],
    [
      "ma",
      "in"
    ],
    [
      "u",
      "su"
    ],
    [
      "usu",
      "ally"
    ],
    [
      "spe",
      "ci"
    ],
    [
      "speci",
      "fic"
    ],
    [
      "cl",
      "onic"
    ],
    [
      "great",
      "er"
    ],
    [
      "low",
      "er"
    ],
    [
      "las",
      "si"
    ],
    [
      "be",
      "li"
    ],
    [
      "re",
      "ct"
    ],
    [
      "s",
      "ing"
    ],
    [
      "sing",
      "le"
    ],
    [
      "c",
      "ri"
    ],
    [
      "ul",
      "ation"
    ],
    [
      "e",
      "m"
    ],
    [
      "wor",
      "ld"
    ],
    [
      "v",
      "ing"
    ],
    [
      "lar",
      "ge"
    ],
    [
      "v",
      "ar"
    ],
    [
      "with",
      "in"
    ],
    [
      "H",
      "o"
    ],
    [
      "Ho",
      "wever"
    ],
    [
      "un",
      "der"
    ],
    [
      "an",
      "s"
    ],
    [
      "b",
      "ased"
    ],
    [
      "use",
      "ful"
    ],
    [
      "defin",
      "ition"
    ],
    [
      "syndrom",
      "es"
    ],
    [
      "a",
      "th"
    ],
    [
      "re",
      "se"
    ],
    [
      "rese",
      "arch"
    ],
    [
      "ph",
      "ys"
    ],
    [
      "tr",
      "ase"
    ],
    [
      "trase",
      "nsory"
    ],
    [
      "R",
      "h"
    ],
    [
      "Rh",
      "ine"
    ],
    [
      "si",
      "ght"
    ],
    [
      "industr",
      "y"
    ],
    [
      "cap",
      "ac"
    ],
    [
      "capac",
      "ity"
    ],
    [
      "Mar",
      "x"
    ],
    [
      "foc",
      "al"
    ],
    [
      "d",
      "ep"
    ],
    [
      "par",
      "t"
    ],
    [
      "t",
      "onic"
    ],
    [
      "li",
      "m"
    ],
    [
      "o",
      "ver"
    ],
    [
      "tri",
      "g"
    ],
    [
      "di",
      "ffic"
    ],
    [
      "diffic",
      "ul"
    ],
    [
      "we",
      "ll"
    ],
    [
      "gn",
      "i"
    ],
    [
      "S",
      "ome"
    ],
    [
      "e",
      "t"
    ],
    [
      "level",
      "s"
    ],
    [
      "th",
      "rough"
    ],
    [
      "al",
      "low"
    ],
    [
      "le",
      "as"
    ],
    [
      "leas",
      "t"
    ],
    [
      "ur",
      "ther"
    ],
    [
      "con",
      "side"
    ],
    [
      "conside",
      "red"
    ],
    [
      "f",
      "ree"
    ],
    [
      "be",
      "cause"
    ],
    [
      "l",
      "ong"
    ],
    [
      "associ",
      "ated"
    ],
    [
      "f",
      "un"
    ],
    [
      "fun",
      "ction"
    ],
    [
      "he",
      "l"
    ],
    [
      "st",
      "u"
    ],
    [
      "se",
      "d"
    ],
    [
      "re",
      "du"
    ],
    [
      "wor",
      "k"
    ],
    [
      "g",
      "an"
    ],
    [
      "gan",
      "ization"
    ],
    [
      "sup",
      "port"
    ],
    [
      "ra",
      "f"
    ],
    [
      "l",
      "ic"
    ],
    [
      "adv",
      "ant"
    ],
    [
      "cap",
      "ital"
    ],
    [
      "effici",
      "ent"
    ],
    [
      "pr",
      "ic"
    ],
    [
      "competi",
      "tion"
    ],
    [
      "ar",
      "t"
    ],
    [
      "A",
      "n"
    ],
    [
      "t",
      "or"
    ],
    [
      "su",
      "r"
    ],
    [
      "li",
      "ke"
    ],
    [
      "f",
      "ol"
    ],
    [
      "fol",
      "low"
    ],
    [
      "cal",
      "led"
    ],
    [
      "sy",
      "mpto"
    ],
    [
      "w",
      "ould"
    ],
    [
      "a",
      "mon"
    ],
    [
      "amon",
      "g"
    ],
    [
      "disorder",
      "s"
    ],
    [
      "pre",
      "se"
    ],
    [
      "prese",
      "nt"
    ],
    [
      "c",
      "lassi"
    ],
    [
      "se",
      "l"
    ],
    [
      "sel",
      "f"
    ],
    [
      "beli",
      "ev"
    ],
    [
      "cep",
      "t"
    ],
    [
      "b",
      "r"
    ],
    [
      "ne",
      "ur"
    ],
    [
      "neur",
      "on"
    ],
    [
      "var",
      "i"
    ],
    [
      "A",
      "s"
    ],
    [
      "c",
      "ould"
    ],
    [
      "other",
      "s"
    ],
    [
      "k",
      "ed"
    ],
    [
      "di",
      "ffe"
    ],
    [
      "under",
      "ly"
    ],
    [
      "underly",
      "ing"
    ],
    [
      "E",
      "E"
    ],
    [
      "EE",
      "G"
    ],
    [
      "o",
      "k"
    ],
    [
      "g",
      "ing"
    ],
    [
      "in",
      "st"
    ],
    [
      "s",
      "tic"
    ],
    [
      "a",
      "il"
    ],
    [
      "we",
      "re"
    ],
    [
      "en",
      "ti"
    ],
    [
      "po",
      "in"
    ],
    [
      "t",
      "est"
    ],
    [
      "decre",
      "ase"
    ],
    [
      "v",
      "en"
    ],
    [
      "possi",
      "b"
    ],
    [
      "count",
      "r"
    ],
    [
      "high",
      "er"
    ],
    [
      "r",
      "an"
    ],
    [
      "ran",
      "ge"
    ],
    [
      "sp",
      "ir"
    ],
    [
      "p",
      "ur"
    ],
    [
      "pur",
      "ch"
    ],
    [
      "p",
      "i"
    ],
    [
      "la",
      "w"
    ],
    [
      "qu",
      "es"
    ],
    [
      "ar",
      "d"
    ],
    [
      "per",
      "ception"
    ],
    [
      "o",
      "per"
    ],
    [
      "lar",
      "ger"
    ],
    [
      "di",
      "vision"
    ],
    [
      "tra",
      "de"
    ],
    [
      "ex",
      "ternal"
    ],
    [
      "volu",
      "me"
    ],
    [
      "l",
      "and"
    ],
    [
      "con",
      "v"
    ],
    [
      "conv",
      "ul"
    ],
    [
      "re",
      "main"
    ],
    [
      "ex",
      "am"
    ],
    [
      "exam",
      "ple"
    ],
    [
      "er",
      "tain"
    ],
    [
      "u",
      "al"
    ],
    [
      "om",
      "en"
    ],
    [
      "v",
      "ed"
    ],
    [
      "it",
      "e"
    ],
    [
      "u",
      "e"
    ],
    [
      "e",
      "i"
    ],
    [
      "ei",
      "ther"
    ],
    [
      "T",
      "h"
    ],
    [
      "ref",
      "er"
    ],
    [
      "O",
      "ther"
    ],
    [
      "th",
      "ree"
    ],
    [
      "qu",
      "en"
    ],
    [
      "proble",
      "ms"
    ],
    [
      "ld",
      "er"
    ],
    [
      "S",
      "e"
    ],
    [
      "ma",
      "tic"
    ],
    [
      "ra",
      "ther"
    ],
    [
      "inclu",
      "ding"
    ],
    [
      "les",
      "s"
    ],
    [
      "h",
      "al"
    ],
    [
      "ou",
      "gh"
    ],
    [
      "ho",
      "wever"
    ],
    [
      "increase",
      "d"
    ],
    [
      "me",
      "chan"
    ],
    [
      "mechan",
      "is"
    ],
    [
      "there",
      "fore"
    ],
    [
      "the",
      "n"
    ],
    [
      "diagno",
      "sis"
    ],
    [
      "W",
      "h"
    ],
    [
      "possi",
      "ble"
    ],
    [
      "ation",
      "al"
    ],
    [
      "de",
      "g"
    ],
    [
      "b",
      "en"
    ],
    [
      "m",
      "at"
    ],
    [
      "g",
      "o"
    ],
    [
      "ex",
      "p"
    ],
    [
      "re",
      "port"
    ],
    [
      "us",
      "ing"
    ],
    [
      "t",
      "al"
    ],
    [
      "e",
      "f"
    ],
    [
      "d",
      "ic"
    ],
    [
      "grow",
      "th"
    ],
    [
      "is",
      "t"
    ],
    [
      "e",
      "w"
    ],
    [
      "phys",
      "ical"
    ],
    [
      "con",
      "cent"
    ],
    [
      "sub",
      "j"
    ],
    [
      "subj",
      "e"
    ],
    [
      "shi",
      "p"
    ],
    [
      "ty",
      "pe"
    ],
    [
      "6",
      "0"
    ],
    [
      "si",
      "ve"
    ],
    [
      "m",
      "us"
    ],
    [
      "mus",
      "cle"
    ],
    [
      "be",
      "gin"
    ],
    [
      "con",
      "sci"
    ],
    [
      "consci",
      "ous"
    ],
    [
      "conscious",
      "n"
    ],
    [
      "consciousn",
      "ess"
    ],
    [
      "sen",
      "ce"
    ],
    [
      "experi",
      "en"
    ],
    [
      "psych",
      "ic"
    ],
    [
      "dep",
      "en"
    ],
    [
      "g",
      "rou"
    ],
    [
      "ca",
      "se"
    ],
    [
      "si",
      "m"
    ],
    [
      "The",
      "y"
    ],
    [
      "p",
      "p"
    ],
    [
      "3",
      "0"
    ],
    [
      "he",
      "ad"
    ],
    [
      "ac",
      "tivity"
    ],
    [
      "ev",
      "ent"
    ],
    [
      "ver",
      "se"
    ],
    [
      "ti",
      "g"
    ],
    [
      "si",
      "gni"
    ],
    [
      "signi",
      "fic"
    ],
    [
      "signific",
      "ant"
    ],
    [
      "st",
      "ro"
    ],
    [
      "in",
      "fe"
    ],
    [
      "infe",
      "ction"
    ],
    [
      "un",
      "known"
    ],
    [
      "condition",
      "s"
    ],
    [
      "al",
      "th"
    ],
    [
      "classi",
      "fication"
    ],
    [
      "di",
      "rect"
    ],
    [
      "des",
      "cri"
    ],
    [
      "descri",
      "b"
    ],
    [
      "i",
      "den"
    ],
    [
      "affect",
      "ed"
    ],
    [
      "ma",
      "king"
    ],
    [
      "for",
      "m"
    ],
    [
      "develop",
      "ing"
    ],
    [
      "cle",
      "ar"
    ],
    [
      "le",
      "ct"
    ],
    [
      "le",
      "ad"
    ],
    [
      "s",
      "m"
    ],
    [
      "sm",
      "all"
    ],
    [
      "str",
      "u"
    ],
    [
      "stru",
      "ct"
    ],
    [
      "l",
      "in"
    ],
    [
      "diffe",
      "re"
    ],
    [
      "differe",
      "nt"
    ],
    [
      "ob",
      "ser"
    ],
    [
      "i",
      "ma"
    ],
    [
      "ima",
      "ging"
    ],
    [
      "ex",
      "t"
    ],
    [
      "A",
      "E"
    ],
    [
      "c",
      "or"
    ],
    [
      "spe",
      "cial"
    ],
    [
      "fi",
      "ed"
    ],
    [
      "i",
      "gn"
    ],
    [
      "poin",
      "t"
    ],
    [
      "an",
      "ce"
    ],
    [
      "r",
      "u"
    ],
    [
      "e",
      "as"
    ],
    [
      "eas",
      "i"
    ],
    [
      "pro",
      "por"
    ],
    [
      "propor",
      "tion"
    ],
    [
      "stu",
      "di"
    ],
    [
      "studi",
      "es"
    ],
    [
      "po",
      "sed"
    ],
    [
      "pro",
      "vi"
    ],
    [
      "on",
      "ce"
    ],
    [
      "a",
      "ir"
    ],
    [
      "g",
      "i"
    ],
    [
      "M",
      "any"
    ],
    [
      "pro",
      "ced"
    ],
    [
      "proced",
      "ure"
    ],
    [
      "me",
      "th"
    ],
    [
      "od",
      "s"
    ],
    [
      "c",
      "la"
    ],
    [
      "do",
      "g"
    ],
    [
      "dog",
      "s"
    ],
    [
      "al",
      "ity"
    ],
    [
      "B",
      "C"
    ],
    [
      "ou",
      "nd"
    ],
    [
      "S",
      "t"
    ],
    [
      "St",
      "ates"
    ],
    [
      "m",
      "u"
    ],
    [
      "p",
      "ri"
    ],
    [
      "or",
      "ganization"
    ],
    [
      "E",
      "x"
    ],
    [
      "li",
      "ties"
    ],
    [
      "th",
      "ing"
    ],
    [
      "experiment",
      "s"
    ],
    [
      "a",
      "psycholog"
    ],
    [
      "F",
      "ir"
    ],
    [
      "te",
      "ch"
    ],
    [
      "tech",
      "n"
    ],
    [
      "pl",
      "ant"
    ],
    [
      "er",
      "s"
    ],
    [
      "di",
      "men"
    ],
    [
      "dimen",
      "sion"
    ],
    [
      "rel",
      "ation"
    ],
    [
      "pric",
      "es"
    ],
    [
      "pro",
      "cess"
    ],
    [
      "lab",
      "our"
    ],
    [
      "a",
      "u"
    ],
    [
      "au",
      "ction"
    ],
    [
      "cont",
      "ra"
    ],
    [
      "O",
      "f"
    ],
    [
      "he",
      "re"
    ],
    [
      "invol",
      "ved"
    ],
    [
      "u",
      "p"
    ],
    [
      "lo",
      "s"
    ],
    [
      "los",
      "s"
    ],
    [
      "con",
      "st"
    ],
    [
      "const",
      "ant"
    ],
    [
      "peri",
      "od"
    ],
    [
      "in",
      "j"
    ],
    [
      "inj",
      "ury"
    ],
    [
      "t",
      "le"
    ],
    [
      "ref",
      "le"
    ],
    [
      "Th",
      "ose"
    ],
    [
      "s",
      "le"
    ],
    [
      "sle",
      "ep"
    ],
    [
      "be",
      "fore"
    ],
    [
      "las",
      "t"
    ],
    [
      "wh",
      "at"
    ],
    [
      "so",
      "cial"
    ],
    [
      "psycholog",
      "ical"
    ],
    [
      "fi",
      "ve"
    ],
    [
      "tim",
      "es"
    ],
    [
      "tra",
      "u"
    ],
    [
      "trau",
      "ma"
    ],
    [
      "pre",
      "vi"
    ],
    [
      "previ",
      "ous"
    ],
    [
      "ment",
      "al"
    ],
    [
      "believ",
      "ed"
    ],
    [
      "de",
      "fe"
    ],
    [
      "a",
      "ch"
    ],
    [
      "M",
      "o"
    ],
    [
      "Mo",
      "st"
    ],
    [
      "ne",
      "l"
    ],
    [
      "the",
      "m"
    ],
    [
      "re",
      "br"
    ],
    [
      "rebr",
      "al"
    ],
    [
      "fo",
      "ld"
    ],
    [
      "li",
      "ac"
    ],
    [
      "follow",
      "ing"
    ],
    [
      "i",
      "ti"
    ],
    [
      "ha",
      "ving"
    ],
    [
      "mechanis",
      "m"
    ],
    [
      "l",
      "it"
    ],
    [
      "decre",
      "asing"
    ],
    [
      "\"",
      "."
    ],
    [
      "c",
      "u"
    ],
    [
      "b",
      "lo"
    ],
    [
      "blo",
      "od"
    ],
    [
      "g",
      "a"
    ],
    [
      "ma",
      "de"
    ],
    [
      "g",
      "ra"
    ],
    [
      "ne",
      "u"
    ],
    [
      "neu",
      "ro"
    ],
    [
      "difficul",
      "t"
    ],
    [
      "f",
      "urther"
    ],
    [
      "ren",
      "ce"
    ],
    [
      "In",
      "tern"
    ],
    [
      "Intern",
      "ational"
    ],
    [
      "require",
      "s"
    ],
    [
      "ta",
      "k"
    ],
    [
      "tak",
      "en"
    ],
    [
      "deg",
      "ree"
    ],
    [
      "n",
      "ature"
    ],
    [
      "o",
      "wn"
    ],
    [
      "term",
      "in"
    ],
    [
      "c",
      "ate"
    ],
    [
      "cate",
      "g"
    ],
    [
      "sh",
      "ould"
    ],
    [
      "p",
      "ite"
    ],
    [
      "b",
      "as"
    ],
    [
      "bas",
      "is"
    ],
    [
      "hel",
      "p"
    ],
    [
      "ne",
      "ed"
    ],
    [
      "need",
      "ed"
    ],
    [
      "general",
      "ly"
    ],
    [
      "ev",
      "en"
    ],
    [
      "F",
      "or"
    ],
    [
      "test",
      "ing"
    ],
    [
      "im",
      "port"
    ],
    [
      "import",
      "ant"
    ],
    [
      "ne",
      "w"
    ],
    [
      "treat",
      "ed"
    ],
    [
      "re",
      "sp"
    ],
    [
      "resp",
      "on"
    ],
    [
      "car",
      "b"
    ],
    [
      "carb",
      "a"
    ],
    [
      "carba",
      "ma"
    ],
    [
      "carbama",
      "z"
    ],
    [
      "carbamaz",
      "ep"
    ],
    [
      "carbamazep",
      "ine"
    ],
    [
      "v",
      "al"
    ],
    [
      "val",
      "pro"
    ],
    [
      "valpro",
      "ate"
    ],
    [
      "control",
      "led"
    ],
    [
      "sur",
      "ger"
    ],
    [
      "surger",
      "y"
    ],
    [
      "to",
      "tal"
    ],
    [
      "pre",
      "dic"
    ],
    [
      "al",
      "s"
    ],
    [
      "ge",
      "t"
    ],
    [
      "de",
      "ath"
    ],
    [
      "i",
      "de"
    ],
    [
      "ou",
      "n"
    ],
    [
      "0",
      "0"
    ],
    [
      "develop",
      "ed"
    ],
    [
      "cent",
      "ury"
    ],
    [
      "i",
      "a"
    ],
    [
      "ment",
      "s"
    ],
    [
      "lic",
      "en"
    ],
    [
      "licen",
      "se"
    ],
    [
      "r",
      "un"
    ],
    [
      "co",
      "gn"
    ],
    [
      "i",
      "ver"
    ],
    [
      "ex",
      "trasensory"
    ],
    [
      "produ",
      "ced"
    ],
    [
      "subje",
      "ct"
    ],
    [
      "e",
      "qui"
    ],
    [
      "lab",
      "or"
    ],
    [
      "marke",
      "ts"
    ],
    [
      "comp",
      "an"
    ],
    [
      "compan",
      "ies"
    ],
    [
      "in",
      "ternal"
    ],
    [
      "at",
      "ing"
    ],
    [
      "produ",
      "ctive"
    ],
    [
      "qu",
      "anti"
    ],
    [
      "ben",
      "ef"
    ],
    [
      "pro",
      "per"
    ],
    [
      "proper",
      "ty"
    ],
    [
      "S",
      "raf"
    ],
    [
      "Sraf",
      "fa"
    ],
    [
      "invol",
      "ve"
    ],
    [
      "ab",
      "sence"
    ],
    [
      "mo",
      "tor"
    ],
    [
      "phen",
      "omen"
    ],
    [
      "most",
      "ly"
    ],
    [
      "at",
      "te"
    ],
    [
      "atte",
      "mp"
    ],
    [
      "si",
      "x"
    ],
    [
      "b",
      "ack"
    ],
    [
      "m",
      "in"
    ],
    [
      "min",
      "ut"
    ],
    [
      "minut",
      "es"
    ],
    [
      "P",
      "e"
    ],
    [
      "Pe",
      "ople"
    ],
    [
      "b",
      "it"
    ],
    [
      "gen",
      "ic"
    ],
    [
      "are",
      "as"
    ],
    [
      "occur",
      "ring"
    ],
    [
      "event",
      "s"
    ],
    [
      "s",
      "tim"
    ],
    [
      "trig",
      "ger"
    ],
    [
      "c",
      "ertain"
    ],
    [
      "1",
      "5"
    ],
    [
      "ab",
      "normal"
    ],
    [
      "out",
      "com"
    ],
    [
      "L",
      "ear"
    ],
    [
      "Lear",
      "n"
    ],
    [
      "Learn",
      "ing"
    ],
    [
      "t",
      "um"
    ],
    [
      "tum",
      "ors"
    ],
    [
      "like",
      "ly"
    ],
    [
      "Se",
      "izure"
    ],
    [
      "me",
      "t"
    ],
    [
      "proble",
      "m"
    ],
    [
      "sympto",
      "matic"
    ],
    [
      "describ",
      "ed"
    ],
    [
      "5",
      "0"
    ],
    [
      "7",
      "0"
    ],
    [
      "po",
      "p"
    ],
    [
      "pop",
      "ulation"
    ],
    [
      "sy",
      "st"
    ],
    [
      "syst",
      "em"
    ],
    [
      "b",
      "ir"
    ],
    [
      "bir",
      "th"
    ],
    [
      "for",
      "ma"
    ],
    [
      "forma",
      "tion"
    ],
    [
      "K",
      "ing"
    ],
    [
      "King",
      "d"
    ],
    [
      "Kingd",
      "om"
    ],
    [
      "g",
      "l"
    ],
    [
      "a",
      "p"
    ],
    [
      "ap",
      "pe"
    ],
    [
      "appe",
      "ar"
    ],
    [
      "appear",
      "s"
    ],
    [
      "inclu",
      "des"
    ],
    [
      "common",
      "ly"
    ],
    [
      "un",
      "clear"
    ],
    [
      "e",
      "lect"
    ],
    [
      "neuron",
      "s"
    ],
    [
      "vari",
      "ous"
    ],
    [
      "a",
      "ct"
    ],
    [
      "tr",
      "ans"
    ],
    [
      "trans",
      "l"
    ],
    [
      "li",
      "ght"
    ],
    [
      "ne",
      "cess"
    ],
    [
      "necess",
      "ary"
    ],
    [
      "p",
      "a"
    ],
    [
      "lin",
      "ked"
    ],
    [
      "individual",
      "s"
    ],
    [
      "I",
      "L"
    ],
    [
      "IL",
      "AE"
    ],
    [
      "con",
      "cept"
    ],
    [
      "cor",
      "ding"
    ],
    [
      "po",
      "si"
    ],
    [
      "iden",
      "ti"
    ],
    [
      "identi",
      "fied"
    ],
    [
      "a",
      "v"
    ],
    [
      "av",
      "ail"
    ],
    [
      "avail",
      "able"
    ],
    [
      "is",
      "su"
    ],
    [
      "sci",
      "enti"
    ],
    [
      "scienti",
      "fic"
    ],
    [
      "pre",
      "su"
    ],
    [
      "presu",
      "med"
    ],
    [
      "a",
      "du"
    ],
    [
      "adu",
      "l"
    ],
    [
      "adul",
      "ts"
    ],
    [
      "ad",
      "dition"
    ],
    [
      "addition",
      "al"
    ],
    [
      "ho",
      "w"
    ],
    [
      "redu",
      "ce"
    ],
    [
      "provi",
      "de"
    ],
    [
      "r",
      "ates"
    ],
    [
      "man",
      "age"
    ],
    [
      "manage",
      "ment"
    ],
    [
      "di",
      "et"
    ],
    [
      "ma",
      "ke"
    ],
    [
      "st",
      "at"
    ],
    [
      "stat",
      "us"
    ],
    [
      "epileptic",
      "us"
    ],
    [
      "phen",
      "y"
    ],
    [
      "pheny",
      "to"
    ],
    [
      "phenyto",
      "in"
    ],
    [
      "l",
      "ine"
    ],
    [
      "phen",
      "ob"
    ],
    [
      "phenob",
      "ar"
    ],
    [
      "phenobar",
      "b"
    ],
    [
      "phenobarb",
      "ital"
    ],
    [
      "H",
      "e"
    ],
    [
      "countr",
      "ies"
    ],
    [
      "procedure",
      "s"
    ],
    [
      "f",
      "re"
    ],
    [
      "fre",
      "quen"
    ],
    [
      "frequen",
      "cy"
    ],
    [
      "P",
      "sych"
    ],
    [
      "qu",
      "ality"
    ],
    [
      "po",
      "or"
    ],
    [
      "an",
      "ci"
    ],
    [
      "anci",
      "ent"
    ],
    [
      "t",
      "ext"
    ],
    [
      "spir",
      "its"
    ],
    [
      "vi",
      "ew"
    ],
    [
      "i",
      "p"
    ],
    [
      "1",
      "9"
    ],
    [
      "j",
      "us"
    ],
    [
      "jus",
      "ti"
    ],
    [
      "th",
      "us"
    ],
    [
      "d",
      "y"
    ],
    [
      "pi",
      "lo"
    ],
    [
      "Ex",
      "trasensory"
    ],
    [
      "oper",
      "ation"
    ],
    [
      "ct",
      "ed"
    ],
    [
      "en",
      "er"
    ],
    [
      "g",
      "u"
    ],
    [
      "apsycholog",
      "y"
    ],
    [
      "experiment",
      "al"
    ],
    [
      "the",
      "ory"
    ],
    [
      "gi",
      "ven"
    ],
    [
      "techn",
      "i"
    ],
    [
      "techni",
      "ques"
    ],
    [
      "advant",
      "ag"
    ],
    [
      "advantag",
      "es"
    ],
    [
      "man",
      "u"
    ],
    [
      "manu",
      "fact"
    ],
    [
      "manufact",
      "ur"
    ],
    [
      "manufactur",
      "ing"
    ],
    [
      "com",
      "mo"
    ],
    [
      "produ",
      "cts"
    ],
    [
      "advant",
      "age"
    ],
    [
      "econom",
      "y"
    ],
    [
      "relation",
      "ship"
    ],
    [
      "indi",
      "vis"
    ],
    [
      "indivis",
      "i"
    ],
    [
      "possib",
      "ility"
    ],
    [
      "comp",
      "any"
    ],
    [
      "to",
      "w"
    ],
    [
      "tow",
      "ard"
    ],
    [
      "produ",
      "c"
    ],
    [
      "produc",
      "tivity"
    ],
    [
      "h",
      "om"
    ],
    [
      "hom",
      "o"
    ],
    [
      "homo",
      "gene"
    ],
    [
      "contra",
      "ction"
    ],
    [
      "st",
      "art"
    ],
    [
      "affect",
      "ing"
    ],
    [
      "m",
      "is"
    ],
    [
      "las",
      "ts"
    ],
    [
      "se",
      "nsory"
    ],
    [
      "grou",
      "p"
    ],
    [
      "sim",
      "ple"
    ],
    [
      "is",
      "on"
    ],
    [
      "st",
      "ate"
    ],
    [
      ".",
      "\""
    ],
    [
      "re",
      "la"
    ],
    [
      "rela",
      "tive"
    ],
    [
      "ver",
      "y"
    ],
    [
      "tur",
      "n"
    ],
    [
      "refle",
      "x"
    ],
    [
      "C",
      "om"
    ],
    [
      "Com",
      "mon"
    ],
    [
      "ac",
      "tive"
    ],
    [
      "sympto",
      "ms"
    ],
    [
      "difficul",
      "ty"
    ],
    [
      "a",
      "y"
    ],
    [
      "es",
      "pe"
    ],
    [
      "espe",
      "cial"
    ],
    [
      "especial",
      "ly"
    ],
    [
      "part",
      "ly"
    ],
    [
      "in",
      "ter"
    ],
    [
      "stro",
      "k"
    ],
    [
      "strok",
      "es"
    ],
    [
      "o",
      "lder"
    ],
    [
      "it",
      "self"
    ],
    [
      "rect",
      "ly"
    ],
    [
      "defe",
      "cts"
    ],
    [
      "chan",
      "nel"
    ],
    [
      "channel",
      "s"
    ],
    [
      "%",
      "."
    ],
    [
      "risk",
      "s"
    ],
    [
      "9",
      "0"
    ],
    [
      "n",
      "er"
    ],
    [
      "te",
      "m"
    ],
    [
      "tem",
      "por"
    ],
    [
      "tempor",
      "al"
    ],
    [
      "lo",
      "be"
    ],
    [
      "ce",
      "rebral"
    ],
    [
      "e",
      "lder"
    ],
    [
      "elder",
      "ly"
    ],
    [
      "sen",
      "si"
    ],
    [
      "20",
      "1"
    ],
    [
      "en",
      "cep"
    ],
    [
      "encep",
      "hal"
    ],
    [
      "hal",
      "f"
    ],
    [
      "w",
      "here"
    ],
    [
      "s",
      "cle"
    ],
    [
      "scle",
      "ro"
    ],
    [
      "sclero",
      "sis"
    ],
    [
      "se",
      "en"
    ],
    [
      "pre",
      "s"
    ],
    [
      "pres",
      "sion"
    ],
    [
      "lit",
      "tle"
    ],
    [
      "R",
      "N"
    ],
    [
      "RN",
      "As"
    ],
    [
      "ro",
      "le"
    ],
    [
      "ex",
      "c"
    ],
    [
      "exc",
      "it"
    ],
    [
      "excit",
      "at"
    ],
    [
      "excitat",
      "ory"
    ],
    [
      "pro",
      "ces"
    ],
    [
      "proces",
      "ses"
    ],
    [
      "re",
      "s"
    ],
    [
      "ho",
      "ld"
    ],
    [
      "am",
      "ount"
    ],
    [
      "b",
      "ring"
    ],
    [
      "chan",
      "ge"
    ],
    [
      "struct",
      "ure"
    ],
    [
      "d",
      "ri"
    ],
    [
      "dri",
      "ve"
    ],
    [
      "wa",
      "ves"
    ],
    [
      "in",
      "iti"
    ],
    [
      "initi",
      "al"
    ],
    [
      "inv",
      "es"
    ],
    [
      "inves",
      "tig"
    ],
    [
      "investig",
      "ation"
    ],
    [
      "Wh",
      "ile"
    ],
    [
      "al",
      "wa"
    ],
    [
      "alwa",
      "ys"
    ],
    [
      "A",
      "t"
    ],
    [
      "un",
      "pro"
    ],
    [
      "unpro",
      "vo"
    ],
    [
      "unprovo",
      "ked"
    ],
    [
      "O",
      "ne"
    ],
    [
      "D",
      "i"
    ],
    [
      "Di",
      "agno"
    ],
    [
      "F",
      "urther"
    ],
    [
      "Further",
      "more"
    ],
    [
      "no",
      "w"
    ],
    [
      "L",
      "e"
    ],
    [
      "Le",
      "ag"
    ],
    [
      "Leag",
      "ue"
    ],
    [
      "A",
      "ga"
    ],
    [
      "Aga",
      "inst"
    ],
    [
      "20",
      "0"
    ],
    [
      ",",
      "\""
    ],
    [
      "Wh",
      "en"
    ],
    [
      "in",
      "f"
    ],
    [
      "cont",
      "in"
    ],
    [
      "contin",
      "u"
    ],
    [
      "or",
      "i"
    ],
    [
      "ori",
      "gin"
    ],
    [
      "neuro",
      "log"
    ],
    [
      "order",
      "s"
    ],
    [
      "fe",
      "ature"
    ],
    [
      "feature",
      "s"
    ],
    [
      "hel",
      "ps"
    ],
    [
      "inclu",
      "ded"
    ],
    [
      "des",
      "pite"
    ],
    [
      "is",
      "h"
    ],
    [
      "can",
      "not"
    ],
    [
      "ru",
      "le"
    ],
    [
      "bet",
      "ter"
    ],
    [
      "easi",
      "ly"
    ],
    [
      "em",
      "er"
    ],
    [
      "emer",
      "gen"
    ],
    [
      "emergen",
      "cy"
    ],
    [
      "t",
      "es"
    ],
    [
      "tes",
      "ts"
    ],
    [
      "ro",
      "ut"
    ],
    [
      "rout",
      "ine"
    ],
    [
      "requi",
      "red"
    ],
    [
      "mi",
      "ght"
    ],
    [
      "op",
      "posed"
    ],
    [
      "sion",
      "s"
    ],
    [
      "pre",
      "v"
    ],
    [
      "prev",
      "ent"
    ],
    [
      "med",
      "ical"
    ],
    [
      "wa",
      "y"
    ],
    [
      "d",
      "ose"
    ],
    [
      "ag",
      "ent"
    ],
    [
      "anti",
      "convul"
    ],
    [
      "anticonvul",
      "s"
    ],
    [
      "anticonvuls",
      "ant"
    ],
    [
      "possib",
      "ly"
    ],
    [
      "enti",
      "re"
    ],
    [
      "W",
      "or"
    ],
    [
      "Wor",
      "ld"
    ],
    [
      "op",
      "tion"
    ],
    [
      "par",
      "ts"
    ],
    [
      "the",
      "ra"
    ],
    [
      "thera",
      "p"
    ],
    [
      "therap",
      "y"
    ],
    [
      "ab",
      "ility"
    ],
    [
      "predic",
      "t"
    ],
    [
      "im",
      "pro"
    ],
    [
      "produ",
      "ct"
    ],
    [
      "b",
      "al"
    ],
    [
      "bal",
      "an"
    ],
    [
      "balan",
      "c"
    ],
    [
      "balanc",
      "ing"
    ],
    [
      "ent",
      "ail"
    ],
    [
      "f",
      "ut"
    ],
    [
      "fut",
      "ure"
    ],
    [
      "meth",
      "o"
    ],
    [
      "metho",
      "do"
    ],
    [
      "methodo",
      "log"
    ],
    [
      "methodolog",
      "ical"
    ],
    [
      "con",
      "c"
    ],
    [
      "conc",
      "lu"
    ],
    [
      "his",
      "t"
    ],
    [
      "hist",
      "ory"
    ],
    [
      "e",
      "ach"
    ],
    [
      "countr",
      "y"
    ],
    [
      "s",
      "inc"
    ],
    [
      "sinc",
      "e"
    ],
    [
      "spir",
      "it"
    ],
    [
      "spirit",
      "ual"
    ],
    [
      "purch",
      "ased"
    ],
    [
      "pos",
      "ses"
    ],
    [
      "posses",
      "sion"
    ],
    [
      "e",
      "ad"
    ],
    [
      "c",
      "raf"
    ],
    [
      "craf",
      "t"
    ],
    [
      "f",
      "ound"
    ],
    [
      "ques",
      "tion"
    ],
    [
      "de",
      "termin"
    ],
    [
      "pri",
      "v"
    ],
    [
      "priv",
      "ate"
    ],
    [
      "re",
      "ad"
    ],
    [
      "Un",
      "iver"
    ],
    [
      "Univer",
      "s"
    ],
    [
      "Univers",
      "ity"
    ],
    [
      "concent",
      "r"
    ],
    [
      "concentr",
      "ated"
    ],
    [
      "s",
      "qu"
    ],
    [
      "squ",
      "are"
    ],
    [
      "mu",
      "ch"
    ],
    [
      "\"",
      ","
    ],
    [
      "exp",
      "la"
    ],
    [
      "expla",
      "in"
    ],
    [
      "f",
      "law"
    ],
    [
      "flaw",
      "s"
    ],
    [
      "st",
      "a"
    ],
    [
      "sta",
      "ti"
    ],
    [
      "stati",
      "stic"
    ],
    [
      "statistic",
      "al"
    ],
    [
      "B",
      "o"
    ],
    [
      "Bo",
      "ok"
    ],
    [
      "ob",
      "tain"
    ],
    [
      "organization",
      "al"
    ],
    [
      "fa",
      "ci"
    ],
    [
      "faci",
      "lities"
    ],
    [
      "equi",
      "p"
    ],
    [
      "equip",
      "ment"
    ],
    [
      "en",
      "g"
    ],
    [
      "eng",
      "ine"
    ],
    [
      "engine",
      "er"
    ],
    [
      "engineer",
      "ing"
    ],
    [
      "sup",
      "p"
    ],
    [
      "b",
      "ul"
    ],
    [
      "bul",
      "k"
    ],
    [
      "b",
      "u"
    ],
    [
      "bu",
      "y"
    ],
    [
      "mat",
      "er"
    ],
    [
      "mater",
      "i"
    ],
    [
      "materi",
      "als"
    ],
    [
      "mon",
      "o"
    ],
    [
      "mono",
      "po"
    ],
    [
      "monopo",
      "ly"
    ],
    [
      "ro",
      "du"
    ],
    [
      "rodu",
      "ction"
    ],
    [
      "ma",
      "ch"
    ],
    [
      "mach",
      "in"
    ],
    [
      "machin",
      "er"
    ],
    [
      "machiner",
      "y"
    ],
    [
      "cu",
      "be"
    ],
    [
      "shi",
      "ps"
    ],
    [
      "oper",
      "ating"
    ],
    [
      "benef",
      "its"
    ],
    [
      "go",
      "ods"
    ],
    [
      "allow",
      "s"
    ],
    [
      "su",
      "per"
    ],
    [
      "super",
      "market"
    ],
    [
      "en",
      "ough"
    ],
    [
      "Fir",
      "ms"
    ],
    [
      "per",
      "fe"
    ],
    [
      "perfe",
      "ct"
    ],
    [
      "dise",
      "conomies"
    ],
    [
      "se",
      "ct"
    ],
    [
      "sect",
      "or"
    ],
    [
      "concent",
      "ra"
    ],
    [
      "concentra",
      "tion"
    ],
    [
      "Mar",
      "sh"
    ],
    [
      "Marsh",
      "all"
    ],
    [
      "%",
      ")"
    ],
    [
      "invol",
      "un"
    ],
    [
      "involun",
      "t"
    ],
    [
      "involunt",
      "ary"
    ],
    [
      "th",
      "ir"
    ],
    [
      "thir",
      "d"
    ],
    [
      "4",
      "0"
    ],
    [
      "decre",
      "ased"
    ],
    [
      "second",
      "s"
    ],
    [
      "C",
      "ertain"
    ],
    [
      "phenomen",
      "a"
    ],
    [
      "depen",
      "ding"
    ],
    [
      "sur",
      "roun"
    ],
    [
      "surroun",
      "ding"
    ],
    [
      "grou",
      "ps"
    ],
    [
      "ac",
      "ti"
    ],
    [
      "acti",
      "vi"
    ],
    [
      "activi",
      "ties"
    ],
    [
      "com",
      "ple"
    ],
    [
      "comple",
      "x"
    ],
    [
      "m",
      "y"
    ],
    [
      "my",
      "oc"
    ],
    [
      "myoc",
      "l"
    ],
    [
      "myocl",
      "onic"
    ],
    [
      "at",
      "onic"
    ],
    [
      "ha",
      "pp"
    ],
    [
      "happ",
      "en"
    ],
    [
      "lim",
      "b"
    ],
    [
      "limb",
      "s"
    ],
    [
      "follow",
      "ed"
    ],
    [
      "ph",
      "ase"
    ],
    [
      "muscle",
      "s"
    ],
    [
      "s",
      "ha"
    ],
    [
      "sha",
      "king"
    ],
    [
      "retur",
      "n"
    ],
    [
      "pos",
      "ti"
    ],
    [
      "posti",
      "ct"
    ],
    [
      "postict",
      "al"
    ],
    [
      "si",
      "des"
    ],
    [
      "psych",
      "o"
    ],
    [
      "psycho",
      "genic"
    ],
    [
      "f",
      "all"
    ],
    [
      "ri",
      "ght"
    ],
    [
      "A",
      "b"
    ],
    [
      "Ab",
      "out"
    ],
    [
      "trigger",
      "s"
    ],
    [
      "con",
      "f"
    ],
    [
      "conf",
      "u"
    ],
    [
      "confu",
      "sion"
    ],
    [
      "ad",
      "verse"
    ],
    [
      "outcom",
      "es"
    ],
    [
      "s",
      "tig"
    ],
    [
      "stig",
      "ma"
    ],
    [
      "con",
      "se"
    ],
    [
      "conse",
      "quen"
    ],
    [
      "consequen",
      "ces"
    ],
    [
      "ac",
      "qui"
    ],
    [
      "acqui",
      "red"
    ],
    [
      "stro",
      "ke"
    ],
    [
      "result",
      "ing"
    ],
    [
      "Epilep",
      "sies"
    ],
    [
      "develop",
      "mental"
    ],
    [
      "Seizure",
      "s"
    ],
    [
      "met",
      "ab"
    ],
    [
      "metab",
      "ol"
    ],
    [
      "metabol",
      "ic"
    ],
    [
      "direct",
      "ly"
    ],
    [
      "m",
      "ul"
    ],
    [
      "mul",
      "ti"
    ],
    [
      "multi",
      "ple"
    ],
    [
      "gen",
      "es"
    ],
    [
      "en",
      "v"
    ],
    [
      "env",
      "ir"
    ],
    [
      "envir",
      "on"
    ],
    [
      "environ",
      "mental"
    ],
    [
      "t",
      "w"
    ],
    [
      "tw",
      "in"
    ],
    [
      "twin",
      "s"
    ],
    [
      "great",
      "est"
    ],
    [
      "mal",
      "formation"
    ],
    [
      "malformation",
      "s"
    ],
    [
      "ac",
      "count"
    ],
    [
      "experien",
      "ced"
    ],
    [
      "ce",
      "liac"
    ],
    [
      "gl",
      "ut"
    ],
    [
      "glut",
      "en"
    ],
    [
      "co",
      "e"
    ],
    [
      "coe",
      "liac"
    ],
    [
      "2",
      "5"
    ],
    [
      "por",
      "k"
    ],
    [
      "ta",
      "pe"
    ],
    [
      "tape",
      "wor"
    ],
    [
      "tapewor",
      "m"
    ],
    [
      "al",
      "co"
    ],
    [
      "alco",
      "h"
    ],
    [
      "alcoh",
      "ol"
    ],
    [
      "fact",
      "or"
    ],
    [
      "elect",
      "r"
    ],
    [
      "electr",
      "ical"
    ],
    [
      "fi",
      "re"
    ],
    [
      "ce",
      "ll"
    ],
    [
      "cell",
      "ular"
    ],
    [
      "re",
      "g"
    ],
    [
      "reg",
      "ulation"
    ],
    [
      "ex",
      "ces"
    ],
    [
      "exces",
      "sive"
    ],
    [
      "p",
      "la"
    ],
    [
      "pla",
      "y"
    ],
    [
      "transl",
      "ation"
    ],
    [
      "in",
      "hi"
    ],
    [
      "inhi",
      "bit"
    ],
    [
      "inhibit",
      "ory"
    ],
    [
      "l",
      "ack"
    ],
    [
      "re",
      "sis"
    ],
    [
      "resis",
      "t"
    ],
    [
      "resist",
      "ant"
    ],
    [
      "who",
      "le"
    ],
    [
      "on",
      "se"
    ],
    [
      "onse",
      "t"
    ],
    [
      "lo",
      "ok"
    ],
    [
      "C",
      "T"
    ],
    [
      "M",
      "R"
    ],
    [
      "MR",
      "I"
    ],
    [
      "attemp",
      "t"
    ],
    [
      "attempt",
      "ed"
    ],
    [
      "sim",
      "il"
    ],
    [
      "simil",
      "ar"
    ],
    [
      "ch",
      "ar"
    ],
    [
      "char",
      "act"
    ],
    [
      "charact",
      "er"
    ],
    [
      "character",
      "ized"
    ],
    [
      "gener",
      "ate"
    ],
    [
      "co",
      "gni"
    ],
    [
      "cogni",
      "tive"
    ],
    [
      "cl",
      "in"
    ],
    [
      "clin",
      "ical"
    ],
    [
      "special",
      "ized"
    ],
    [
      "do",
      "ing"
    ],
    [
      "diagno",
      "stic"
    ],
    [
      "Un",
      "known"
    ],
    [
      "child",
      "ho"
    ],
    [
      "childho",
      "od"
    ],
    [
      "S",
      "y"
    ],
    [
      "Sy",
      "mpto"
    ],
    [
      "Sympto",
      "matic"
    ],
    [
      "L",
      "en"
    ],
    [
      "Len",
      "no"
    ],
    [
      "Lenno",
      "x"
    ],
    [
      "G",
      "as"
    ],
    [
      "Gas",
      "ta"
    ],
    [
      "Gasta",
      "ut"
    ],
    [
      "ear",
      "ly"
    ],
    [
      "ma",
      "j"
    ],
    [
      "maj",
      "or"
    ],
    [
      "categ",
      "or"
    ],
    [
      "categor",
      "ies"
    ],
    [
      "struct",
      "ur"
    ],
    [
      "structur",
      "al"
    ],
    [
      "categ",
      "ory"
    ],
    [
      "inst",
      "ance"
    ],
    [
      "particular",
      "ly"
    ],
    [
      "posi",
      "tive"
    ],
    [
      "fe",
      "br"
    ],
    [
      "febr",
      "ile"
    ],
    [
      "some",
      "one"
    ],
    [
      "pro",
      "la"
    ],
    [
      "prola",
      "ct"
    ],
    [
      "prolact",
      "in"
    ],
    [
      "s",
      "ti"
    ],
    [
      "sti",
      "ll"
    ],
    [
      "sy",
      "n"
    ],
    [
      "syn",
      "co"
    ],
    [
      "synco",
      "pe"
    ],
    [
      "at",
      "t"
    ],
    [
      "att",
      "ack"
    ],
    [
      "attack",
      "s"
    ],
    [
      "P",
      "N"
    ],
    [
      "PN",
      "ES"
    ],
    [
      "d",
      "ro"
    ],
    [
      "dro",
      "p"
    ],
    [
      "d",
      "ru"
    ],
    [
      "dru",
      "g"
    ],
    [
      "respon",
      "d"
    ],
    [
      "li",
      "fe"
    ],
    [
      "la",
      "mo"
    ],
    [
      "lamo",
      "trig"
    ],
    [
      "lamotrig",
      "ine"
    ],
    [
      "issu",
      "es"
    ],
    [
      "He",
      "alth"
    ],
    [
      "O",
      "r"
    ],
    [
      "Or",
      "ganization"
    ],
    [
      "wh",
      "om"
    ],
    [
      "d",
      "at"
    ],
    [
      "dat",
      "a"
    ],
    [
      "un",
      "treated"
    ],
    [
      "re",
      "as"
    ],
    [
      "reas",
      "on"
    ],
    [
      "reason",
      "able"
    ],
    [
      "mon",
      "th"
    ],
    [
      "month",
      "s"
    ],
    [
      "treatment",
      "s"
    ],
    [
      "stim",
      "ulation"
    ],
    [
      "c",
      "lo"
    ],
    [
      "clo",
      "sed"
    ],
    [
      "decrease",
      "s"
    ],
    [
      "easi",
      "er"
    ],
    [
      "meth",
      "ods"
    ],
    [
      "pro",
      "posed"
    ],
    [
      "w",
      "omen"
    ],
    [
      "med",
      "ic"
    ],
    [
      "medic",
      "ine"
    ],
    [
      "8",
      "0"
    ],
    [
      "A",
      "f"
    ],
    [
      "Af",
      "ri"
    ],
    [
      "Afri",
      "ca"
    ],
    [
      "death",
      "s"
    ],
    [
      "es",
      "tim"
    ],
    [
      "estim",
      "ated"
    ],
    [
      "over",
      "all"
    ],
    [
      "00",
      "0"
    ],
    [
      "at",
      "tri"
    ],
    [
      "attri",
      "but"
    ],
    [
      "attribut",
      "ed"
    ],
    [
      "o",
      "ld"
    ],
    [
      "old",
      "est"
    ],
    [
      "th",
      "ou"
    ],
    [
      "thou",
      "ght"
    ],
    [
      "S",
      "mi"
    ],
    [
      "Smi",
      "th"
    ],
    [
      "evi",
      "l"
    ],
    [
      "me",
      "ans"
    ],
    [
      "di",
      "v"
    ],
    [
      "div",
      "ine"
    ],
    [
      "s",
      "ac"
    ],
    [
      "sac",
      "red"
    ],
    [
      "H",
      "ip"
    ],
    [
      "Hip",
      "po"
    ],
    [
      "Hippo",
      "c"
    ],
    [
      "Hippoc",
      "rates"
    ],
    [
      "refer",
      "ring"
    ],
    [
      "mo",
      "der"
    ],
    [
      "moder",
      "n"
    ],
    [
      "di",
      "d"
    ],
    [
      "believ",
      "ing"
    ],
    [
      "A",
      "c"
    ],
    [
      "Ac",
      "cording"
    ],
    [
      "phys",
      "ic"
    ],
    [
      "physic",
      "i"
    ],
    [
      "physici",
      "ans"
    ],
    [
      "person",
      "s"
    ],
    [
      "com",
      "ing"
    ],
    [
      "19",
      "3"
    ],
    [
      "193",
      "8"
    ],
    [
      "cla",
      "i"
    ],
    [
      "clai",
      "med"
    ],
    [
      "b",
      "il"
    ],
    [
      "bil",
      "li"
    ],
    [
      "billi",
      "on"
    ],
    [
      "dep",
      "art"
    ],
    [
      "depart",
      "ments"
    ],
    [
      "stu",
      "dy"
    ],
    [
      "N",
      "ew"
    ],
    [
      "C",
      "an"
    ],
    [
      "Can",
      "ad"
    ],
    [
      "Canad",
      "a"
    ],
    [
      "require",
      "ments"
    ],
    [
      "v",
      "ary"
    ],
    [
      "mu",
      "st"
    ],
    [
      "pilo",
      "t"
    ],
    [
      "organization",
      "s"
    ],
    [
      "F",
      "ound"
    ],
    [
      "Found",
      "ation"
    ],
    [
      "occur",
      "s"
    ],
    [
      "comp",
      "are"
    ],
    [
      "compare",
      "d"
    ],
    [
      "re",
      "cogn"
    ],
    [
      "recogn",
      "ized"
    ],
    [
      "D",
      "u"
    ],
    [
      "Du",
      "ke"
    ],
    [
      "ab",
      "i"
    ],
    [
      "abi",
      "lities"
    ],
    [
      "te",
      "le"
    ],
    [
      "tele",
      "p"
    ],
    [
      "telep",
      "ath"
    ],
    [
      "telepath",
      "y"
    ],
    [
      "pre",
      "cogn"
    ],
    [
      "precogn",
      "ition"
    ],
    [
      "Se",
      "cond"
    ],
    [
      "thing",
      "s"
    ],
    [
      "re",
      "mo"
    ],
    [
      "remo",
      "te"
    ],
    [
      "con",
      "du"
    ],
    [
      "condu",
      "cted"
    ],
    [
      "ter",
      "ms"
    ],
    [
      "Z",
      "ener"
    ],
    [
      "sy",
      "m"
    ],
    [
      "sym",
      "b"
    ],
    [
      "symb",
      "ol"
    ],
    [
      "symbol",
      "s"
    ],
    [
      "gu",
      "es"
    ],
    [
      "gues",
      "ses"
    ],
    [
      "respon",
      "ses"
    ],
    [
      "P",
      "ar"
    ],
    [
      "Par",
      "apsychology"
    ],
    [
      "ex",
      "is"
    ],
    [
      "exis",
      "ten"
    ],
    [
      "existen",
      "ce"
    ],
    [
      "b",
      "ase"
    ],
    [
      "des",
      "ign"
    ],
    [
      "Fir",
      "st"
    ],
    [
      "t",
      "ar"
    ],
    [
      "tar",
      "get"
    ],
    [
      ".",
      ","
    ],
    [
      "an",
      "al"
    ],
    [
      "anal",
      "y"
    ],
    [
      "analy",
      "sis"
    ],
    [
      "A",
      "r"
    ],
    [
      "Ar",
      "g"
    ],
    [
      "Arg",
      "am"
    ],
    [
      "Argam",
      "as"
    ],
    [
      "Argamas",
      "il"
    ],
    [
      "Argamasil",
      "la"
    ],
    [
      "C",
      "h"
    ],
    [
      "Ch",
      "ar"
    ],
    [
      "Char",
      "les"
    ],
    [
      "Psych",
      "ic"
    ],
    [
      "Psychic",
      "s"
    ],
    [
      "D",
      "e"
    ],
    [
      "De",
      "ception"
    ],
    [
      "ent",
      "er"
    ],
    [
      "enter",
      "pri"
    ],
    [
      "enterpri",
      "ses"
    ],
    [
      "lim",
      "its"
    ],
    [
      "pa",
      "per"
    ],
    [
      "commo",
      "di"
    ],
    [
      "commodi",
      "ties"
    ],
    [
      "r",
      "ate"
    ],
    [
      "s",
      "mal"
    ],
    [
      "smal",
      "le"
    ],
    [
      "smalle",
      "r"
    ],
    [
      "purch",
      "asing"
    ],
    [
      "man",
      "ag"
    ],
    [
      "manag",
      "ers"
    ],
    [
      "redu",
      "ces"
    ],
    [
      "lo",
      "cal"
    ],
    [
      "air",
      "pl"
    ],
    [
      "airpl",
      "an"
    ],
    [
      "airplan",
      "es"
    ],
    [
      "sa",
      "ving"
    ],
    [
      "saving",
      "s"
    ],
    [
      "indivisi",
      "b"
    ],
    [
      "indivisib",
      "ility"
    ],
    [
      "cap",
      "a"
    ],
    [
      "capa",
      "ci"
    ],
    [
      "capaci",
      "ties"
    ],
    [
      "quanti",
      "ty"
    ],
    [
      "et",
      "c"
    ],
    [
      "po",
      "w"
    ],
    [
      "pow",
      "er"
    ],
    [
      "economic",
      "s"
    ],
    [
      "pric",
      "e"
    ],
    [
      "significant",
      "ly"
    ],
    [
      "K",
      "ar"
    ],
    [
      "Kar",
      "l"
    ],
    [
      "li",
      "ber"
    ],
    [
      "liber",
      "al"
    ],
    [
      "liberal",
      "ization"
    ],
    [
      "homogene",
      "ity"
    ],
    [
      "quanti",
      "ties"
    ],
    [
      "volu",
      "m"
    ],
    [
      "volum",
      "es"
    ],
    [
      "obser",
      "ves"
    ],
    [
      "ten",
      "den"
    ],
    [
      "tenden",
      "cy"
    ],
    [
      "toward",
      "s"
    ],
    [
      "justi",
      "f"
    ],
    [
      "justif",
      "y"
    ],
    [
      "own",
      "er"
    ],
    [
      "owner",
      "ship"
    ],
    [
      "land",
      "ed"
    ],
    [
      "not",
      "es"
    ],
    [
      "convul",
      "sive"
    ],
    [
      "contraction",
      "s"
    ],
    [
      "he",
      "mis"
    ],
    [
      "hemis",
      "p"
    ],
    [
      "hemisp",
      "here"
    ],
    [
      "hemisphere",
      "s"
    ],
    [
      "T",
      "wo"
    ],
    [
      "remain",
      "ing"
    ],
    [
      "pre",
      "sen"
    ],
    [
      "presen",
      "ts"
    ],
    [
      "experien",
      "ces"
    ],
    [
      "F",
      "oc"
    ],
    [
      "Foc",
      "al"
    ],
    [
      "vis",
      "ual"
    ],
    [
      "attemp",
      "ts"
    ],
    [
      "T",
      "onic"
    ],
    [
      "ex",
      "ten"
    ],
    [
      "exten",
      "sion"
    ],
    [
      "arch",
      "ing"
    ],
    [
      "ch",
      "est"
    ],
    [
      "un",
      "ison"
    ],
    [
      "produ",
      "ce"
    ],
    [
      "s",
      "to"
    ],
    [
      "sto",
      "pp"
    ],
    [
      "stopp",
      "ed"
    ],
    [
      "A",
      "fter"
    ],
    [
      "b",
      "ite"
    ],
    [
      "t",
      "ong"
    ],
    [
      "tong",
      "ue"
    ],
    [
      "bit",
      "es"
    ],
    [
      "relative",
      "ly"
    ],
    [
      "fe",
      "w"
    ],
    [
      "sub",
      "tle"
    ],
    [
      "b",
      "od"
    ],
    [
      "bod",
      "y"
    ],
    [
      "trig",
      "ge"
    ],
    [
      "trigge",
      "red"
    ],
    [
      "stim",
      "ul"
    ],
    [
      "stimul",
      "i"
    ],
    [
      "su",
      "d"
    ],
    [
      "sud",
      "den"
    ],
    [
      "al",
      "most"
    ],
    [
      "sleep",
      "ing"
    ],
    [
      "re",
      "co"
    ],
    [
      "reco",
      "very"
    ],
    [
      "refer",
      "red"
    ],
    [
      "h",
      "our"
    ],
    [
      "hour",
      "s"
    ],
    [
      "spe",
      "a"
    ],
    [
      "spea",
      "king"
    ],
    [
      "Of",
      "ten"
    ],
    [
      "d",
      "ay"
    ],
    [
      "wor",
      "se"
    ],
    [
      "fa",
      "m"
    ],
    [
      "fam",
      "il"
    ],
    [
      "famil",
      "ies"
    ],
    [
      "A",
      "D"
    ],
    [
      "AD",
      "H"
    ],
    [
      "ADH",
      "D"
    ],
    [
      "affect",
      "s"
    ],
    [
      "be",
      "ha"
    ],
    [
      "beha",
      "vi"
    ],
    [
      "behavi",
      "or"
    ],
    [
      "behavior",
      "al"
    ],
    [
      "inter",
      "a"
    ],
    [
      "intera",
      "ction"
    ],
    [
      "se",
      "ri"
    ],
    [
      "seri",
      "ous"
    ],
    [
      "cause",
      "d"
    ],
    [
      "con",
      "gen"
    ],
    [
      "congen",
      "ital"
    ],
    [
      "he",
      "alth"
    ],
    [
      "indi",
      "rectly"
    ],
    [
      "defe",
      "ct"
    ],
    [
      "E",
      "ach"
    ],
    [
      "pro",
      "te"
    ],
    [
      "prote",
      "in"
    ],
    [
      "re",
      "cept"
    ],
    [
      "recept",
      "ors"
    ],
    [
      "iden",
      "tic"
    ],
    [
      "identic",
      "al"
    ],
    [
      "%",
      ")."
    ],
    [
      "B",
      "et"
    ],
    [
      "Bet",
      "ween"
    ],
    [
      "An",
      "ge"
    ],
    [
      "Ange",
      "l"
    ],
    [
      "Angel",
      "man"
    ],
    [
      "se",
      "ver"
    ],
    [
      "sever",
      "al"
    ],
    [
      "infection",
      "s"
    ],
    [
      "cent",
      "r"
    ],
    [
      "centr",
      "al"
    ],
    [
      "ner",
      "v"
    ],
    [
      "nerv",
      "ous"
    ],
    [
      "abnormal",
      "i"
    ],
    [
      "abnormali",
      "ties"
    ],
    [
      "s",
      "low"
    ],
    [
      "slow",
      "ly"
    ],
    [
      "se",
      "ve"
    ],
    [
      "seve",
      "re"
    ],
    [
      "sensi",
      "tivity"
    ],
    [
      "cal",
      "ci"
    ],
    [
      "calci",
      "fication"
    ],
    [
      "calcification",
      "s"
    ],
    [
      "201",
      "2"
    ],
    [
      "encephal",
      "iti"
    ],
    [
      "encephaliti",
      "s"
    ],
    [
      "d",
      "r"
    ],
    [
      "dr",
      "in"
    ],
    [
      "drin",
      "k"
    ],
    [
      "alth",
      "ough"
    ],
    [
      "associ",
      "ation"
    ],
    [
      "sp",
      "as"
    ],
    [
      "spas",
      "tic"
    ],
    [
      "N",
      "or"
    ],
    [
      "Nor",
      "mal"
    ],
    [
      "Normal",
      "ly"
    ],
    [
      "number",
      "s"
    ],
    [
      "F",
      "act"
    ],
    [
      "Fact",
      "ors"
    ],
    [
      "ex",
      "pression"
    ],
    [
      "mechanis",
      "ms"
    ],
    [
      "M",
      "ic"
    ],
    [
      "Mic",
      "ro"
    ],
    [
      "Micro",
      "RNAs"
    ],
    [
      "mi",
      "RNAs"
    ],
    [
      "lead",
      "ing"
    ],
    [
      "fa",
      "mi"
    ],
    [
      "fami",
      "ly"
    ],
    [
      "are",
      "a"
    ],
    [
      "A",
      "no"
    ],
    [
      "Ano",
      "ther"
    ],
    [
      "c",
      "ir"
    ],
    [
      "cir",
      "cu"
    ],
    [
      "circu",
      "its"
    ],
    [
      "do",
      "wn"
    ],
    [
      "second",
      "ary"
    ],
    [
      "b",
      "rou"
    ],
    [
      "brou",
      "ght"
    ],
    [
      "th",
      "res"
    ],
    [
      "thres",
      "hold"
    ],
    [
      "fir",
      "ing"
    ],
    [
      "wa",
      "ve"
    ],
    [
      "pa",
      "ro"
    ],
    [
      "paro",
      "x"
    ],
    [
      "parox",
      "ys"
    ],
    [
      "paroxys",
      "mal"
    ],
    [
      "be",
      "com"
    ],
    [
      "becom",
      "es"
    ],
    [
      "ne",
      "ga"
    ],
    [
      "nega",
      "tive"
    ],
    [
      "obser",
      "v"
    ],
    [
      "observ",
      "ation"
    ],
    [
      "elect",
      "ro"
    ],
    [
      "electro",
      "encephal"
    ],
    [
      "electroencephal",
      "o"
    ],
    [
      "electroencephalo",
      "gra"
    ],
    [
      "electroencephalogra",
      "m"
    ],
    [
      "p",
      "at"
    ],
    [
      "pat",
      "ter"
    ],
    [
      "patter",
      "ns"
    ],
    [
      "neuro",
      "imaging"
    ],
    [
      "s",
      "can"
    ],
    [
      "investigation",
      "s"
    ],
    [
      "defin",
      "ed"
    ],
    [
      "re",
      "cur"
    ],
    [
      "recur",
      "rence"
    ],
    [
      "n",
      "ext"
    ],
    [
      "Diagno",
      "sis"
    ],
    [
      "re",
      "so"
    ],
    [
      "reso",
      "l"
    ],
    [
      "resol",
      "ved"
    ],
    [
      "depen",
      "d"
    ],
    [
      "depend",
      "ent"
    ],
    [
      "remain",
      "ed"
    ],
    [
      "200",
      "5"
    ],
    [
      "concept",
      "ual"
    ],
    [
      "ac",
      "cording"
    ],
    [
      "en",
      "during"
    ],
    [
      "pre",
      "dis"
    ],
    [
      "predis",
      "posi"
    ],
    [
      "predisposi",
      "tion"
    ],
    [
      "occur",
      "rence"
    ],
    [
      "per",
      "ha"
    ],
    [
      "perha",
      "ps"
    ],
    [
      "con",
      "si"
    ],
    [
      "consi",
      "der"
    ],
    [
      "consider",
      "s"
    ],
    [
      "foc",
      "use"
    ],
    [
      "focuse",
      "s"
    ],
    [
      "ho",
      "sp"
    ],
    [
      "hosp",
      "ital"
    ],
    [
      "classi",
      "fied"
    ],
    [
      "a",
      "pp"
    ],
    [
      "app",
      "li"
    ],
    [
      "appli",
      "ed"
    ],
    [
      "termin",
      "olog"
    ],
    [
      "terminolog",
      "y"
    ],
    [
      "ben",
      "ign"
    ],
    [
      "C",
      "r"
    ],
    [
      "Cr",
      "y"
    ],
    [
      "Cry",
      "p"
    ],
    [
      "Cryp",
      "to"
    ],
    [
      "Crypto",
      "genic"
    ],
    [
      "inf",
      "anti"
    ],
    [
      "infanti",
      "le"
    ],
    [
      "sup",
      "pression"
    ],
    [
      "w",
      "he"
    ],
    [
      "whe",
      "ther"
    ],
    [
      "continu",
      "ous"
    ],
    [
      "wi",
      "de"
    ],
    [
      "wide",
      "ly"
    ],
    [
      "ac",
      "cept"
    ],
    [
      "accept",
      "ed"
    ],
    [
      "cri",
      "tic"
    ],
    [
      "critic",
      "ized"
    ],
    [
      "C",
      "lassi"
    ],
    [
      "Classi",
      "fication"
    ],
    [
      "issu",
      "e"
    ],
    [
      "re",
      "fin"
    ],
    [
      "refin",
      "ed"
    ],
    [
      "201",
      "1"
    ],
    [
      "recommen",
      "d"
    ],
    [
      "recommend",
      "ation"
    ],
    [
      "f",
      "our"
    ],
    [
      "adv",
      "an"
    ],
    [
      "advan",
      "ces"
    ],
    [
      "P",
      "ure"
    ],
    [
      "Most",
      "ly"
    ],
    [
      "neurolog",
      "ic"
    ],
    [
      "D",
      "is"
    ],
    [
      "Dis",
      "orders"
    ],
    [
      "C",
      "e"
    ],
    [
      "Ce",
      "rebral"
    ],
    [
      "fin",
      "ding"
    ],
    [
      "finding",
      "s"
    ],
    [
      "de",
      "term"
    ],
    [
      "determ",
      "ine"
    ],
    [
      "mat",
      "ch"
    ],
    [
      "some",
      "what"
    ],
    [
      "i",
      "di"
    ],
    [
      "idi",
      "op"
    ],
    [
      "idiop",
      "ath"
    ],
    [
      "idiopath",
      "ic"
    ],
    [
      "dis",
      "t"
    ],
    [
      "dist",
      "ing"
    ],
    [
      "disting",
      "u"
    ],
    [
      "distingu",
      "ish"
    ],
    [
      "s",
      "it"
    ],
    [
      "sit",
      "u"
    ],
    [
      "situ",
      "ation"
    ],
    [
      "situation",
      "s"
    ],
    [
      "per",
      "form"
    ],
    [
      "Diagno",
      "stic"
    ],
    [
      "de",
      "te"
    ],
    [
      "dete",
      "ct"
    ],
    [
      "sensi",
      "tive"
    ],
    [
      "l",
      "at"
    ],
    [
      "lat",
      "er"
    ],
    [
      "sub",
      "se"
    ],
    [
      "subse",
      "qu"
    ],
    [
      "subsequ",
      "ent"
    ],
    [
      "he",
      "art"
    ],
    [
      "diagno",
      "se"
    ],
    [
      "routine",
      "ly"
    ],
    [
      "a",
      "chi"
    ],
    [
      "achi",
      "ev"
    ],
    [
      "achiev",
      "ed"
    ],
    [
      "re",
      "pe"
    ],
    [
      "repe",
      "at"
    ],
    [
      "si",
      "g"
    ],
    [
      "sig",
      "ns"
    ],
    [
      "sh",
      "or"
    ],
    [
      "shor",
      "t"
    ],
    [
      "ep",
      "is"
    ],
    [
      "epis",
      "o"
    ],
    [
      "episo",
      "de"
    ],
    [
      "convul",
      "sions"
    ],
    [
      "mis",
      "taken"
    ],
    [
      "hold",
      "ing"
    ],
    [
      "s",
      "how"
    ],
    [
      "show",
      "ed"
    ],
    [
      "prevent",
      "able"
    ],
    [
      "go",
      "od"
    ],
    [
      "ca",
      "re"
    ],
    [
      "E",
      "f"
    ],
    [
      "Ef",
      "for"
    ],
    [
      "Effor",
      "ts"
    ],
    [
      "result",
      "ed"
    ],
    [
      "occur",
      "red"
    ],
    [
      "m",
      "ou"
    ],
    [
      "mou",
      "th"
    ],
    [
      "l",
      "on"
    ],
    [
      "lon",
      "ger"
    ],
    [
      "ke",
      "ep"
    ],
    [
      "air",
      "way"
    ],
    [
      "op",
      "en"
    ],
    [
      "in",
      "tra"
    ],
    [
      "intra",
      "ven"
    ],
    [
      "intraven",
      "ous"
    ],
    [
      "dose",
      "s"
    ],
    [
      "agent",
      "s"
    ],
    [
      "ch",
      "o"
    ],
    [
      "cho",
      "ic"
    ],
    [
      "choic",
      "e"
    ],
    [
      "su",
      "g"
    ],
    [
      "sug",
      "ges"
    ],
    [
      "sugges",
      "ts"
    ],
    [
      "re",
      "le"
    ],
    [
      "rele",
      "ase"
    ],
    [
      "leve",
      "ti"
    ],
    [
      "leveti",
      "ra"
    ],
    [
      "levetira",
      "ce"
    ],
    [
      "levetirace",
      "ta"
    ],
    [
      "levetiraceta",
      "m"
    ],
    [
      "exp",
      "en"
    ],
    [
      "expen",
      "sive"
    ],
    [
      "U",
      "S"
    ],
    [
      "gi",
      "ves"
    ],
    [
      "report",
      "ed"
    ],
    [
      "co",
      "l"
    ],
    [
      "col",
      "lect"
    ],
    [
      "collect",
      "ed"
    ],
    [
      "mi",
      "ld"
    ],
    [
      "pre",
      "gn"
    ],
    [
      "pregn",
      "an"
    ],
    [
      "pregnan",
      "cy"
    ],
    [
      "D",
      "es"
    ],
    [
      "Des",
      "pite"
    ],
    [
      "continu",
      "ed"
    ],
    [
      "anti",
      "epileptic"
    ],
    [
      "ca",
      "using"
    ],
    [
      "wh",
      "ose"
    ],
    [
      "tri",
      "al"
    ],
    [
      "an",
      "ter"
    ],
    [
      "anter",
      "i"
    ],
    [
      "anteri",
      "or"
    ],
    [
      "ef",
      "for"
    ],
    [
      "effor",
      "t"
    ],
    [
      "c",
      "ure"
    ],
    [
      "an",
      "other"
    ],
    [
      "wh",
      "y"
    ],
    [
      "work",
      "s"
    ],
    [
      "con",
      "sis"
    ],
    [
      "consis",
      "ts"
    ],
    [
      "su",
      "c"
    ],
    [
      "suc",
      "cess"
    ],
    [
      "vi",
      "de"
    ],
    [
      "vide",
      "o"
    ],
    [
      "g",
      "las"
    ],
    [
      "glas",
      "ses"
    ],
    [
      "Psych",
      "olog"
    ],
    [
      "Psycholog",
      "ical"
    ],
    [
      "cla",
      "im"
    ],
    [
      "support",
      "ing"
    ],
    [
      "inter",
      "ven"
    ],
    [
      "interven",
      "tion"
    ],
    [
      "intervention",
      "s"
    ],
    [
      "al",
      "ong"
    ],
    [
      "impro",
      "ve"
    ],
    [
      "AE",
      "D"
    ],
    [
      "AED",
      "s"
    ],
    [
      "ex",
      "ist"
    ],
    [
      "for",
      "ce"
    ],
    [
      "con",
      "sen"
    ],
    [
      "consen",
      "su"
    ],
    [
      "consensu",
      "s"
    ],
    [
      "defin",
      "i"
    ],
    [
      "defini",
      "tive"
    ],
    [
      "A",
      "l"
    ],
    [
      "Al",
      "tern"
    ],
    [
      "Altern",
      "a"
    ],
    [
      "Alterna",
      "tive"
    ],
    [
      "support",
      "ed"
    ],
    [
      "tri",
      "als"
    ],
    [
      "conclu",
      "sions"
    ],
    [
      "tr",
      "ue"
    ],
    [
      "outcom",
      "e"
    ],
    [
      "7",
      "5"
    ],
    [
      "su",
      "ic"
    ],
    [
      "suic",
      "ide"
    ],
    [
      "S",
      "U"
    ],
    [
      "SU",
      "D"
    ],
    [
      "SUD",
      "E"
    ],
    [
      "SUDE",
      "P"
    ],
    [
      "ac",
      "c"
    ],
    [
      "acc",
      "oun"
    ],
    [
      "accoun",
      "ts"
    ],
    [
      "diffe",
      "rence"
    ],
    [
      "inc",
      "ome"
    ],
    [
      "10",
      "0"
    ],
    [
      "y",
      "oun"
    ],
    [
      "youn",
      "g"
    ],
    [
      "w",
      "r"
    ],
    [
      "wr",
      "it"
    ],
    [
      "writ",
      "ten"
    ],
    [
      "describ",
      "es"
    ],
    [
      "de",
      "ta"
    ],
    [
      "deta",
      "il"
    ],
    [
      "detail",
      "s"
    ],
    [
      "G",
      "ree"
    ],
    [
      "Gree",
      "k"
    ],
    [
      "Greek",
      "s"
    ],
    [
      "ide",
      "a"
    ],
    [
      "O",
      "n"
    ],
    [
      "inst",
      "ead"
    ],
    [
      "s",
      "pre"
    ],
    [
      "spre",
      "ad"
    ],
    [
      "spread",
      "ing"
    ],
    [
      "ign",
      "or"
    ],
    [
      "ignor",
      "ance"
    ],
    [
      "not",
      "e"
    ],
    [
      "In",
      "st"
    ],
    [
      "Inst",
      "ead"
    ],
    [
      "R",
      "ome"
    ],
    [
      "pi",
      "e"
    ],
    [
      "pie",
      "ce"
    ],
    [
      "20",
      "th"
    ],
    [
      "T",
      "an"
    ],
    [
      "Tan",
      "z"
    ],
    [
      "Tanz",
      "an"
    ],
    [
      "Tanzan",
      "ia"
    ],
    [
      "w",
      "it"
    ],
    [
      "wit",
      "ch"
    ],
    [
      "witch",
      "craft"
    ],
    [
      "po",
      "ison"
    ],
    [
      "poison",
      "ing"
    ],
    [
      "cont",
      "ag"
    ],
    [
      "contag",
      "i"
    ],
    [
      "contagi",
      "ous"
    ],
    [
      "neurolog",
      "y"
    ],
    [
      "Mar",
      "t"
    ],
    [
      "Mart",
      "in"
    ],
    [
      "b",
      "rom"
    ],
    [
      "brom",
      "ide"
    ],
    [
      "In",
      "di"
    ],
    [
      "Indi",
      "a"
    ],
    [
      "justi",
      "fication"
    ],
    [
      "mar",
      "ri"
    ],
    [
      "marri",
      "age"
    ],
    [
      "beli",
      "e"
    ],
    [
      "belie",
      "ve"
    ],
    [
      "19",
      "7"
    ],
    [
      "197",
      "1"
    ],
    [
      "e",
      "ver"
    ],
    [
      "200",
      "4"
    ],
    [
      "allow",
      "ed"
    ],
    [
      "ve",
      "h"
    ],
    [
      "veh",
      "ic"
    ],
    [
      "vehic",
      "le"
    ],
    [
      "pl",
      "ac"
    ],
    [
      "plac",
      "es"
    ],
    [
      "require",
      "ment"
    ],
    [
      "hi",
      "m"
    ],
    [
      "him",
      "self"
    ],
    [
      "C",
      "ount"
    ],
    [
      "Count",
      "r"
    ],
    [
      "Countr",
      "ies"
    ],
    [
      "report",
      "ing"
    ],
    [
      "A",
      "u"
    ],
    [
      "Au",
      "str"
    ],
    [
      "Austr",
      "al"
    ],
    [
      "Austral",
      "ia"
    ],
    [
      "allow",
      "ing"
    ],
    [
      "var",
      "ies"
    ],
    [
      "determin",
      "ed"
    ],
    [
      "lim",
      "ited"
    ],
    [
      "ful",
      "l"
    ],
    [
      "n",
      "ational"
    ],
    [
      "provi",
      "des"
    ],
    [
      "p",
      "rom"
    ],
    [
      "prom",
      "o"
    ],
    [
      "promo",
      "te"
    ],
    [
      "D",
      "ay"
    ],
    [
      "predic",
      "tion"
    ],
    [
      "c",
      "reat"
    ],
    [
      "creat",
      "e"
    ],
    [
      "mo",
      "de"
    ],
    [
      "mode",
      "l"
    ],
    [
      "model",
      "s"
    ],
    [
      "lit",
      "er"
    ],
    [
      "liter",
      "ature"
    ],
    [
      "inf",
      "la"
    ],
    [
      "infla",
      "m"
    ],
    [
      "inflam",
      "mat"
    ],
    [
      "inflammat",
      "ory"
    ],
    [
      "st",
      "and"
    ],
    [
      "stand",
      "ard"
    ],
    [
      "c",
      "at"
    ],
    [
      "cat",
      "s"
    ],
    [
      "W",
      "i"
    ],
    [
      "Wi",
      "k"
    ],
    [
      "Wik",
      "ip"
    ],
    [
      "Wikip",
      "ed"
    ],
    [
      "Wikiped",
      "ia"
    ],
    [
      "ar",
      "tic"
    ],
    [
      "artic",
      "les"
    ],
    [
      "read",
      "y"
    ],
    [
      "transl",
      "ate"
    ],
    [
      "sen",
      "se"
    ],
    [
      "in",
      "formation"
    ],
    [
      "psycholog",
      "ist"
    ],
    [
      "cla",
      "ir"
    ],
    [
      "clair",
      "vo"
    ],
    [
      "clairvo",
      "y"
    ],
    [
      "clairvoy",
      "ance"
    ],
    [
      "lo",
      "cation"
    ],
    [
      "location",
      "s"
    ],
    [
      "an",
      "e"
    ],
    [
      "ane",
      "c"
    ],
    [
      "anec",
      "do"
    ],
    [
      "anecdo",
      "tal"
    ],
    [
      "L",
      "ou"
    ],
    [
      "Lou",
      "is"
    ],
    [
      "Louis",
      "a"
    ],
    [
      "large",
      "ly"
    ],
    [
      "origin",
      "ally"
    ],
    [
      "p",
      "ack"
    ],
    [
      "ser",
      "ies"
    ],
    [
      "re",
      "ce"
    ],
    [
      "rece",
      "iver"
    ],
    [
      "T",
      "o"
    ],
    [
      "tr",
      "y"
    ],
    [
      "obser",
      "ve"
    ],
    [
      "dic",
      "e"
    ],
    [
      "par",
      "apsychology"
    ],
    [
      "C",
      "o"
    ],
    [
      "Co",
      "x"
    ],
    [
      "subje",
      "cts"
    ],
    [
      "J",
      "ose"
    ],
    [
      "Jose",
      "ph"
    ],
    [
      "par",
      "apsycholog"
    ],
    [
      "parapsycholog",
      "is"
    ],
    [
      "parapsychologis",
      "ts"
    ],
    [
      "le",
      "a"
    ],
    [
      "lea",
      "k"
    ],
    [
      "leak",
      "age"
    ],
    [
      "se",
      "e"
    ],
    [
      "experien",
      "ce"
    ],
    [
      "d",
      "à"
    ],
    [
      "s",
      "he"
    ],
    [
      "she",
      "all"
    ],
    [
      "sheall",
      "ad"
    ],
    [
      "sheallad",
      "h"
    ],
    [
      "si",
      "gh"
    ],
    [
      "sigh",
      "ts"
    ],
    [
      "me",
      "an"
    ],
    [
      "mean",
      "ing"
    ],
    [
      "G",
      "a"
    ],
    [
      "Ga",
      "e"
    ],
    [
      "Gae",
      "lic"
    ],
    [
      "th",
      "ough"
    ],
    [
      "p",
      "se"
    ],
    [
      "pse",
      "u"
    ],
    [
      "pseu",
      "do"
    ],
    [
      "pseudo",
      "sci"
    ],
    [
      "pseudosci",
      "en"
    ],
    [
      "pseudoscien",
      "ce"
    ],
    [
      "phenomen",
      "on"
    ],
    [
      "vi",
      "able"
    ],
    [
      "in",
      "depen"
    ],
    [
      "indepen",
      "dence"
    ],
    [
      "gu",
      "ess"
    ],
    [
      "cor",
      "rectly"
    ],
    [
      "invol",
      "ves"
    ],
    [
      "refle",
      "ction"
    ],
    [
      "er",
      "r"
    ],
    [
      "err",
      "ors"
    ],
    [
      "b",
      "lin"
    ],
    [
      "blin",
      "d"
    ],
    [
      "blind",
      "fold"
    ],
    [
      "in",
      "side"
    ],
    [
      "no",
      "tic"
    ],
    [
      "notic",
      "ing"
    ],
    [
      "G",
      "ard"
    ],
    [
      "Gard",
      "ner"
    ],
    [
      "P",
      "er"
    ],
    [
      "Per",
      "ception"
    ],
    [
      "bo",
      "ok"
    ],
    [
      "L",
      "ist"
    ],
    [
      "G",
      "e"
    ],
    [
      "Ge",
      "or"
    ],
    [
      "Geor",
      "ges"
    ],
    [
      "P",
      "rom"
    ],
    [
      "Prom",
      "e"
    ],
    [
      "Prome",
      "the"
    ],
    [
      "Promethe",
      "us"
    ],
    [
      "Book",
      "s"
    ],
    [
      "techn",
      "ical"
    ],
    [
      "b",
      "us"
    ],
    [
      "bus",
      "in"
    ],
    [
      "busin",
      "ess"
    ],
    [
      "indu",
      "st"
    ],
    [
      "indust",
      "ri"
    ],
    [
      "industri",
      "al"
    ],
    [
      "A",
      "d"
    ],
    [
      "Ad",
      "am"
    ],
    [
      "obtain",
      "ing"
    ],
    [
      "ra",
      "w"
    ],
    [
      "supp",
      "ly"
    ],
    [
      "wo",
      "od"
    ],
    [
      "p",
      "ul"
    ],
    [
      "pul",
      "p"
    ],
    [
      "lim",
      "it"
    ],
    [
      "ener",
      "g"
    ],
    [
      "energ",
      "y"
    ],
    [
      "efficient",
      "ly"
    ],
    [
      "L",
      "ar"
    ],
    [
      "Lar",
      "ge"
    ],
    [
      "gra",
      "de"
    ],
    [
      "commo",
      "d"
    ],
    [
      "commod",
      "ity"
    ],
    [
      "gra",
      "des"
    ],
    [
      "special",
      "ty"
    ],
    [
      "mar",
      "gin"
    ],
    [
      "margin",
      "s"
    ],
    [
      "chan",
      "ging"
    ],
    [
      "N",
      "ich"
    ],
    [
      "Nich",
      "ol"
    ],
    [
      "Nichol",
      "as"
    ],
    [
      "buy",
      "ing"
    ],
    [
      "contra",
      "cts"
    ],
    [
      "fin",
      "an"
    ],
    [
      "finan",
      "cial"
    ],
    [
      "cur",
      "ve"
    ],
    [
      "industr",
      "ies"
    ],
    [
      "car",
      "ma"
    ],
    [
      "carma",
      "k"
    ],
    [
      "carmak",
      "er"
    ],
    [
      "ex",
      "hi"
    ],
    [
      "exhi",
      "b"
    ],
    [
      "exhib",
      "its"
    ],
    [
      "C",
      "on"
    ],
    [
      "Con",
      "verse"
    ],
    [
      "Converse",
      "ly"
    ],
    [
      "in",
      "t"
    ],
    [
      "int",
      "roduction"
    ],
    [
      "ser",
      "v"
    ],
    [
      "serv",
      "ic"
    ],
    [
      "servic",
      "es"
    ],
    [
      "air",
      "craft"
    ],
    [
      "proportion",
      "al"
    ],
    [
      "car",
      "go"
    ],
    [
      "spe",
      "ed"
    ],
    [
      "pi",
      "p"
    ],
    [
      "pip",
      "es"
    ],
    [
      "vari",
      "able"
    ],
    [
      "dimension",
      "ality"
    ],
    [
      "sp",
      "a"
    ],
    [
      "spa",
      "ce"
    ],
    [
      "ar",
      "i"
    ],
    [
      "ari",
      "ses"
    ],
    [
      "indivisi",
      "ble"
    ],
    [
      "entail",
      "s"
    ],
    [
      "ab",
      "o"
    ],
    [
      "abo",
      "ve"
    ],
    [
      "no",
      "thing"
    ],
    [
      "re",
      "ser"
    ],
    [
      "reser",
      "ves"
    ],
    [
      "res",
      "our"
    ],
    [
      "resour",
      "ces"
    ],
    [
      "determin",
      "es"
    ],
    [
      "pe",
      "c"
    ],
    [
      "pec",
      "un"
    ],
    [
      "pecun",
      "i"
    ],
    [
      "pecuni",
      "ary"
    ],
    [
      "high",
      "light"
    ],
    [
      "fi",
      "x"
    ],
    [
      "fix",
      "ed"
    ],
    [
      "i",
      "d"
    ],
    [
      "id",
      "le"
    ],
    [
      "redu",
      "ction"
    ],
    [
      "person",
      "nel"
    ],
    [
      "ine",
      "v"
    ],
    [
      "inev",
      "it"
    ],
    [
      "inevit",
      "ab"
    ],
    [
      "inevitab",
      "ly"
    ],
    [
      "output",
      "s"
    ],
    [
      "dy",
      "n"
    ],
    [
      "dyn",
      "am"
    ],
    [
      "dynam",
      "ic"
    ],
    [
      "pre",
      "sence"
    ],
    [
      "exp",
      "an"
    ],
    [
      "expan",
      "sion"
    ],
    [
      "o",
      "w"
    ],
    [
      "ow",
      "ns"
    ],
    [
      "ge",
      "ts"
    ],
    [
      "pr",
      "of"
    ],
    [
      "prof",
      "it"
    ],
    [
      "effici",
      "en"
    ],
    [
      "efficien",
      "cy"
    ],
    [
      "t",
      "rain"
    ],
    [
      "train",
      "s"
    ],
    [
      "O",
      "per"
    ],
    [
      "Oper",
      "ating"
    ],
    [
      "cre",
      "w"
    ],
    [
      "pilo",
      "ts"
    ],
    [
      "ch",
      "em"
    ],
    [
      "chem",
      "ical"
    ],
    [
      "chemical",
      "s"
    ],
    [
      "ten",
      "d"
    ],
    [
      "not",
      "ed"
    ],
    [
      "econom",
      "ical"
    ],
    [
      "ne",
      "t"
    ],
    [
      "ab",
      "ro"
    ],
    [
      "abro",
      "ad"
    ],
    [
      "co",
      "ver"
    ],
    [
      "ex",
      "por"
    ],
    [
      "expor",
      "ter"
    ],
    [
      "exporter",
      "s"
    ],
    [
      "sa",
      "les"
    ],
    [
      "Th",
      "rough"
    ],
    [
      "d",
      "ou"
    ],
    [
      "dou",
      "ble"
    ],
    [
      "homogene",
      "ous"
    ],
    [
      "re",
      "present"
    ],
    [
      "represent",
      "ed"
    ],
    [
      "deg",
      "re"
    ],
    [
      "degre",
      "es"
    ],
    [
      "competi",
      "tor"
    ],
    [
      "purch",
      "ase"
    ],
    [
      "purchase",
      "s"
    ],
    [
      "equi",
      "li"
    ],
    [
      "equili",
      "b"
    ],
    [
      "equilib",
      "ri"
    ],
    [
      "equilibri",
      "um"
    ],
    [
      "vari",
      "ation"
    ],
    [
      "competi",
      "tive"
    ],
    [
      "re",
      "verse"
    ],
    [
      "auction",
      "s"
    ],
    [
      "supp",
      "li"
    ],
    [
      "suppli",
      "ers"
    ],
    [
      "benef",
      "it"
    ],
    [
      "buy",
      "ers"
    ],
    [
      "p",
      "u"
    ],
    [
      "pu",
      "b"
    ],
    [
      "pub",
      "lic"
    ],
    [
      "f",
      "oun"
    ],
    [
      "foun",
      "der"
    ],
    [
      "B",
      "ab"
    ],
    [
      "Bab",
      "b"
    ],
    [
      "Babb",
      "age"
    ],
    [
      "conclu",
      "des"
    ],
    [
      "capital",
      "ist"
    ],
    [
      "impro",
      "ving"
    ],
    [
      "bring",
      "s"
    ],
    [
      "over",
      "production"
    ],
    [
      "cri",
      "ses"
    ],
    [
      "con",
      "ne"
    ],
    [
      "conne",
      "cted"
    ],
    [
      "grow",
      "ing"
    ],
    [
      "his",
      "tor"
    ],
    [
      "histor",
      "ically"
    ],
    [
      "poin",
      "ts"
    ],
    [
      "ag",
      "r"
    ],
    [
      "agr",
      "ic"
    ],
    [
      "agric",
      "ul"
    ],
    [
      "agricul",
      "t"
    ],
    [
      "agricult",
      "ure"
    ],
    [
      "pre",
      "ci"
    ],
    [
      "preci",
      "se"
    ],
    [
      "precise",
      "ly"
    ],
    [
      "ear",
      "th"
    ],
    [
      "C",
      "our"
    ],
    [
      "Cour",
      "not"
    ],
    [
      "h",
      "y"
    ],
    [
      "hy",
      "po"
    ],
    [
      "hypo",
      "the"
    ],
    [
      "hypothe",
      "sis"
    ],
    [
      "P",
      "roduction"
    ],
    [
      "Ex",
      "ternal"
    ],
    [
      "E",
      "n"
    ],
    [
      "En",
      "gl"
    ],
    [
      "Engl",
      "ish"
    ],
    [
      "R",
      "ep"
    ],
    [
      "Rep",
      "r"
    ],
    [
      "S",
      "cale"
    ]
  ]
}